{
  "version": "1.0",
  "truncation": null,
  "padding": null,
  "added_tokens": [
    {
      "id": 0,
      "content": "<pad>",
      "single_word": false,
      "lstrip": false,
      "rstrip": false,
      "normalized": false,
      "special": true
    },
    {
      "id": 1,
      "content": "<unk>",
      "single_word": false,
      "lstrip": false,
      "rstrip": false,
      "normalized": false,
      "special": true
    },
    {
      "id": 2,
      "content": "<s>",
      "single_word": false,
      "lstrip": false,
      "rstrip": false,
      "normalized": false,
      "special": true
    },
    {
      "id": 3,
      "content": "</s>",
      "single_word": false,
      "lstrip": false,
      "rstrip": false,
      "normalized": false,
      "special": true
    },
    {
      "id": 4,
      "content": "<mask>",
      "single_word": false,
      "lstrip": false,
      "rstrip": false,
      "normalized": false,
      "special": true
    }
  ],
  "normalizer": null,
  "pre_tokenizer": {
    "type": "Metaspace",
    "replacement": "▁",
    "prepend_scheme": "always",
    "split": true
  },
  "post_processor": null,
  "decoder": {
    "type": "Metaspace",
    "replacement": "▁",
    "prepend_scheme": "always",
    "split": true
  },
  "model": {
    "type": "Unigram",
    "unk_id": 1,
    "vocab": [
      [
        "<pad>",
        0.0
      ],
      [
        "<unk>",
        0.0
      ],
      [
        "<s>",
        0.0
      ],
      [
        "</s>",
        0.0
      ],
      [
        "<mask>",
        0.0
      ],
      [
        "▁",
        -3.684077613379433
      ],
      [
        "󰊴",
        -3.71938690432812
      ],
      [
        "󰋱",
        -3.9480104670887037
      ],
      [
        "󰀌",
        -3.9989607866460943
      ],
      [
        "▁󰋔",
        -4.906068477749111
      ],
      [
        "󰋈",
        -5.08763131011596
      ],
      [
        "▁󰋐󰋈",
        -5.182088675577381
      ],
      [
        "󰞺",
        -5.232297963200049
      ],
      [
        "▁󰋖󰞷",
        -5.285668547448838
      ],
      [
        "▁󰋐󰟩",
        -5.287705778055496
      ],
      [
        "󰋔",
        -5.312415030288433
      ],
      [
        "󰀍",
        -5.5030030031183745
      ],
      [
        "▁󰟣󰞺",
        -5.565621343179336
      ],
      [
        "▁󰀍",
        -5.601892032713007
      ],
      [
        "▁󰞹",
        -5.605585965492242
      ],
      [
        "▁󰟟",
        -5.6835931075756925
      ],
      [
        "▁󰋖󰞸",
        -5.691500610001146
      ],
      [
        "▁󰟁󰋱",
        -5.737199674512276
      ],
      [
        "▁󰋐",
        -5.738240494278054
      ],
      [
        "▁󰋇󰋱",
        -5.837367507149866
      ],
      [
        "▁󰟊󰞿",
        -5.845306371996855
      ],
      [
        "▁󰋝󰟭",
        -5.942250151120643
      ],
      [
        "󰋩",
        -5.977969124631382
      ],
      [
        "▁󰋐󰋖",
        -5.994592261685861
      ],
      [
        "▁󰞹󰊴",
        -6.015176404424455
      ],
      [
        "▁󰟔󰠗",
        -6.054409237233267
      ],
      [
        "▁󰋐󰋖󰟒",
        -6.062774503178783
      ],
      [
        "󰟂",
        -6.063434793346621
      ],
      [
        "▁󰟐",
        -6.079698145777947
      ],
      [
        "▁󰟀",
        -6.084430881173827
      ],
      [
        "󰀇",
        -6.10077975636597
      ],
      [
        "󰀉",
        -6.147603452334842
      ],
      [
        "▁󰋖󰋱󰟂",
        -6.153520793251902
      ],
      [
        "▁󰋺󰞾",
        -6.16425587742026
      ],
      [
        "▁󰋺󰌠",
        -6.1951815041195974
      ],
      [
        "▁󰋇󰟗",
        -6.209668225194761
      ],
      [
        "▁󰞿󰞾",
        -6.218350052557728
      ],
      [
        "▁󰋯󰠙",
        -6.2242960008186206
      ],
      [
        "▁󰟐󰋈",
        -6.255877286130675
      ],
      [
        "▁󰋺󰌠󰊴",
        -6.261242527835952
      ],
      [
        "▁󰋇󰞽󰋱",
        -6.276693997579557
      ],
      [
        "▁󰋖󰟛",
        -6.310938437028623
      ],
      [
        "▁󰟔",
        -6.329729389015467
      ],
      [
        "󰞸",
        -6.336453920587211
      ],
      [
        "󰀟",
        -6.345565506347699
      ],
      [
        "▁󰋹󰠟",
        -6.35532769170765
      ],
      [
        "󰀁",
        -6.394979326682758
      ],
      [
        "󰌠",
        -6.397138965769994
      ],
      [
        "▁󰀈",
        -6.420824988437975
      ],
      [
        "▁󰋭󰞻",
        -6.461609784245766
      ],
      [
        "󰋥",
        -6.469282794142986
      ],
      [
        "▁󰟁",
        -6.482304187474934
      ],
      [
        "▁󰟁󰟄󰋱",
        -6.495513391203373
      ],
      [
        "󰟒",
        -6.507542345534294
      ],
      [
        "󰋭",
        -6.50831604075176
      ],
      [
        "▁󰋫󰋱",
        -6.541426527113252
      ],
      [
        "▁󰋐󰋱",
        -6.564265552285995
      ],
      [
        "󰋖",
        -6.564973130513199
      ],
      [
        "▁󰟧󰋩",
        -6.5665960920980595
      ],
      [
        "▁󰟑󰞾",
        -6.569690258514852
      ],
      [
        "▁󰋯󰟅",
        -6.595459997163145
      ],
      [
        "▁󰀇",
        -6.601716711117003
      ],
      [
        "▁󰋹󰋯󰌠",
        -6.61774846852013
      ],
      [
        "󰟄󰋱",
        -6.654780646326584
      ],
      [
        "󰀛",
        -6.665306076396414
      ],
      [
        "▁󰋥󰟇",
        -6.672429419767294
      ],
      [
        "▁󰟔󰠜",
        -6.674614087996876
      ],
      [
        "▁󰋐󰋖󰟙",
        -6.679180775641312
      ],
      [
        "▁󰋇󰞽󰟄󰋱",
        -6.710222697859949
      ],
      [
        "󰋳",
        -6.72981048429258
      ],
      [
        "▁󰟚󰋳",
        -6.744045886333943
      ],
      [
        "󰋹",
        -6.7528719338176195
      ],
      [
        "▁󰋺󰞾󰟉󰊴",
        -6.793994798457058
      ],
      [
        "▁󰋇󰋯󰞸",
        -6.7950874323450865
      ],
      [
        "▁󰠑󰋱",
        -6.798363526894251
      ],
      [
        "▁󰀂",
        -6.809938044604166
      ],
      [
        "▁󰋖󰟈󰟆",
        -6.8116758358064455
      ],
      [
        "▁󰟁󰞸",
        -6.815264286905947
      ],
      [
        "󰟙",
        -6.850271416095868
      ],
      [
        "▁󰋹󰋭",
        -6.858153444996118
      ],
      [
        "▁󰋖󰞸󰋱",
        -6.881379515391165
      ],
      [
        "▁󰋆󰟅󰋖",
        -6.893224118459878
      ],
      [
        "▁󰋺󰟇",
        -6.9146467470117745
      ],
      [
        "󰀂",
        -6.9339970336178265
      ],
      [
        "▁󰋥󰋗󰋩",
        -6.939346205336252
      ],
      [
        "▁󰟘",
        -6.955992822881072
      ],
      [
        "▁󰟄󰟞",
        -6.956044700564416
      ],
      [
        "▁󰋰󰟑",
        -6.959937078954269
      ],
      [
        "▁󰋺󰟇󰊴",
        -6.961714065827534
      ],
      [
        "▁󰞼󰟉",
        -6.976271095383648
      ],
      [
        "▁󰞼󰋝",
        -6.985099271323225
      ],
      [
        "▁󰋭󰞻󰋩󰀌",
        -6.986515108688263
      ],
      [
        "󰞹",
        -6.992754027061597
      ],
      [
        "󰋯",
        -7.022892665573691
      ],
      [
        "▁󰟿󰟫",
        -7.0260246236730275
      ],
      [
        "▁󰟏󰟣",
        -7.029297943438717
      ],
      [
        "▁󰟘󰌠",
        -7.031741654531439
      ],
      [
        "▁󰋐󰋗󰋩",
        -7.057174615200562
      ],
      [
        "▁󰋐󰋯󰋩",
        -7.063573747051507
      ],
      [
        "▁󰟹",
        -7.069757940074075
      ],
      [
        "▁󰋖󰞷󰋩󰊴",
        -7.075302413271288
      ],
      [
        "󰀎",
        -7.07602831226543
      ],
      [
        "▁󰋺󰋈󰟂",
        -7.079197900300951
      ],
      [
        "▁󰋖󰞷󰋩",
        -7.080299755057403
      ],
      [
        "▁󰟎󰋦󰋯",
        -7.088773011511945
      ],
      [
        "▁󰟧󰠄",
        -7.092423208587819
      ],
      [
        "▁󰟁󰋈",
        -7.093982232772671
      ],
      [
        "▁󰟑󰞺",
        -7.095410193937221
      ],
      [
        "▁󰋭󰌝",
        -7.101715812152394
      ],
      [
        "▁󰋺󰞾󰟉",
        -7.102391249175961
      ],
      [
        "▁󰋺󰟂",
        -7.12031181297392
      ],
      [
        "󰟁",
        -7.130393441874286
      ],
      [
        "▁󰋇󰟨",
        -7.173766436474514
      ],
      [
        "▁󰋫󰠫󰟷",
        -7.183771018602469
      ],
      [
        "▁󰋖󰞷󰊴",
        -7.196605519627612
      ],
      [
        "▁󰋫󰞷",
        -7.212887245233222
      ],
      [
        "▁󰋰󰋗󰋩",
        -7.22025754724225
      ],
      [
        "▁󰟸󰋈",
        -7.221159693478715
      ],
      [
        "▁󰞹󰀌",
        -7.228429281503145
      ],
      [
        "▁󰋇󰟉",
        -7.2378665355331595
      ],
      [
        "▁󰟁󰞺",
        -7.2380417026943995
      ],
      [
        "▁󰟎󰟊",
        -7.242750139263968
      ],
      [
        "▁󰟑󰋩",
        -7.24882804111108
      ],
      [
        "▁󰞹󰋯",
        -7.249744611308293
      ],
      [
        "▁󰋺󰋈󰟆",
        -7.259314748180627
      ],
      [
        "▁󰟟󰀌",
        -7.26385330898956
      ],
      [
        "▁󰋖󰟈󰟂",
        -7.270409419809274
      ],
      [
        "▁󰀚",
        -7.2730952580532
      ],
      [
        "▁󰟃󰟲󰠥",
        -7.277228110626483
      ],
      [
        "▁󰋆",
        -7.278046951333385
      ],
      [
        "▁󰋭󰋜󰋱",
        -7.278387347768954
      ],
      [
        "▁󰟟󰋩",
        -7.280121052230555
      ],
      [
        "▁󰟠󰋸",
        -7.293411639767308
      ],
      [
        "󰞷",
        -7.294832194508077
      ],
      [
        "▁󰋇󰟀󰋱",
        -7.308872371250926
      ],
      [
        "▁󰟌󰞷",
        -7.325714905224578
      ],
      [
        "▁󰟍󰟕󰋱",
        -7.333653378655789
      ],
      [
        "▁󰟑󰟂",
        -7.339016829900723
      ],
      [
        "▁󰋇󰋱󰋔",
        -7.339610690694437
      ],
      [
        "▁󰟏󰞻",
        -7.342091377934871
      ],
      [
        "▁󰟁󰟍󰋱",
        -7.343849399980092
      ],
      [
        "▁󰟄󰋔󰟆",
        -7.348256439442203
      ],
      [
        "▁󰋐󰋖󰋝󰋩",
        -7.357701369600761
      ],
      [
        "▁󰋩󰠅󰋩",
        -7.362368577250555
      ],
      [
        "󰞿",
        -7.364472679236911
      ],
      [
        "▁󰞼󰋱󰋤",
        -7.3698995408955135
      ],
      [
        "▁󰋭󰟋",
        -7.370167715820752
      ],
      [
        "▁󰟙󰞼",
        -7.379478567288711
      ],
      [
        "▁󰟇󰟤",
        -7.380969060006887
      ],
      [
        "▁󰋇󰋝",
        -7.383108384107377
      ],
      [
        "▁󰠌󰌠",
        -7.386507075377251
      ],
      [
        "▁󰞽",
        -7.39121990222513
      ],
      [
        "▁󰟘󰌠󰊴",
        -7.39359261933366
      ],
      [
        "󰋝",
        -7.40010365200361
      ],
      [
        "▁󰋊󰋫󰋱",
        -7.402328648255347
      ],
      [
        "▁󰟪󰟐󰟇",
        -7.402973824094095
      ],
      [
        "▁󰋇󰋫󰞹󰋱",
        -7.4104183042237235
      ],
      [
        "▁󰋯󰟹",
        -7.418458790597651
      ],
      [
        "󰟅",
        -7.419664982806701
      ],
      [
        "󰞻",
        -7.422735123284644
      ],
      [
        "▁󰞿󰟦󰋱",
        -7.458431287577378
      ],
      [
        "▁󰋔󰋈",
        -7.462506268327843
      ],
      [
        "󰟇",
        -7.471594566684029
      ],
      [
        "▁󰟄󰟠󰋱",
        -7.4729934929548385
      ],
      [
        "▁󰠅󰟗",
        -7.473258513550064
      ],
      [
        "󰋷",
        -7.495265813764638
      ],
      [
        "▁󰋺󰌠󰀌",
        -7.495650171184645
      ],
      [
        "▁󰋘󰋥",
        -7.501848424665049
      ],
      [
        "▁󰡞",
        -7.506649334970545
      ],
      [
        "󰋧",
        -7.508279101612832
      ],
      [
        "▁󰟹󰞽󰋱",
        -7.509583068624146
      ],
      [
        "▁󰞽󰟯󰋸",
        -7.5164612758031595
      ],
      [
        "▁󰟃󰟠󰋸",
        -7.520135657538301
      ],
      [
        "▁󰞽󰟯󰠾󰋱",
        -7.521575356652177
      ],
      [
        "▁󰋝󰋩",
        -7.5314224051062055
      ],
      [
        "▁󰋺󰠤",
        -7.534646906139667
      ],
      [
        "▁󰋹󰋖󰋳",
        -7.536451964212288
      ],
      [
        "󰟅󰋱",
        -7.536880609835505
      ],
      [
        "▁󰋇󰋫󰞿",
        -7.539993856512819
      ],
      [
        "▁󰋺󰞻",
        -7.542404864367745
      ],
      [
        "▁󰋨󰞷",
        -7.544198904145585
      ],
      [
        "󰟀",
        -7.550381334923095
      ],
      [
        "▁󰋆󰟭",
        -7.552290177527009
      ],
      [
        "▁󰡉󰋭",
        -7.564343904206968
      ],
      [
        "▁󰟁󰟍",
        -7.572839370850035
      ],
      [
        "▁󰟌󰋔󰟆",
        -7.579499659238019
      ],
      [
        "▁󰞺󰋊",
        -7.584334375098802
      ],
      [
        "▁󰊵",
        -7.585823797342311
      ],
      [
        "▁󰠑󰟍󰋱",
        -7.58689185359591
      ],
      [
        "▁󰟐󰟞󰟅",
        -7.5899969287629325
      ],
      [
        "▁󰋯󰋥",
        -7.5900394597474286
      ],
      [
        "󰟋",
        -7.603826482928126
      ],
      [
        "󰋹󰋺",
        -7.604303922608247
      ],
      [
        "▁󰟎󰟰󰋩",
        -7.606119332718938
      ],
      [
        "▁󰟅󰋈󰊴",
        -7.606392865150124
      ],
      [
        "▁󰋇",
        -7.61846677687719
      ],
      [
        "󰋫",
        -7.620434980559079
      ],
      [
        "▁󰞼󰋱󰠐",
        -7.622573868583194
      ],
      [
        "▁󰋬󰞻",
        -7.623913942054946
      ],
      [
        "▁󰠝󰞾",
        -7.634319958257409
      ],
      [
        "▁󰋐󰟐",
        -7.63911678828134
      ],
      [
        "▁󰋇󰟉󰊴",
        -7.639319483403213
      ],
      [
        "▁󰋑",
        -7.644102605563905
      ],
      [
        "▁󰋛󰞻",
        -7.6473218613614105
      ],
      [
        "󰞾",
        -7.647987783918493
      ],
      [
        "󰞼",
        -7.651138024295847
      ],
      [
        "▁󰟃󰟫󰢍",
        -7.65813921303309
      ],
      [
        "▁󰟌󰞷󰊴",
        -7.6657216415424365
      ],
      [
        "▁󰠎󰡼",
        -7.670286834854549
      ],
      [
        "▁󰋺󰋳",
        -7.670853255570316
      ],
      [
        "▁󰋐󰟒",
        -7.672711378164744
      ],
      [
        "▁󰟇󰋷",
        -7.67330961889029
      ],
      [
        "▁󰢤󰟈",
        -7.674960384154403
      ],
      [
        "▁󰟛󰞺",
        -7.676309400977125
      ],
      [
        "▁󰟚󰞻󰋩",
        -7.677074705297759
      ],
      [
        "▁󰋹",
        -7.6834630741665215
      ],
      [
        "▁󰟿󰡑",
        -7.695554051703223
      ],
      [
        "▁󰞽󰡊󰟜",
        -7.697997765303976
      ],
      [
        "▁󰟼󰋭󰟍󰋱",
        -7.699735024449744
      ],
      [
        "▁󰠿󰋖",
        -7.703442867405105
      ],
      [
        "󰟈",
        -7.70976389032128
      ],
      [
        "▁󰞹󰟜",
        -7.727943106182044
      ],
      [
        "▁󰋐󰟞󰟅",
        -7.732717484153495
      ],
      [
        "▁󰋩󰌠󰊴",
        -7.735737208685617
      ],
      [
        "󰟃",
        -7.736057936181391
      ],
      [
        "▁󰟍󰟂",
        -7.736309868169043
      ],
      [
        "▁󰢠󰞸",
        -7.738089730958462
      ],
      [
        "󰟊",
        -7.752358394499726
      ],
      [
        "▁󰠳󰟋󰟄󰋷",
        -7.754724681567032
      ],
      [
        "▁󰋇󰞽󰞺",
        -7.754950904927606
      ],
      [
        "▁󰟧󰋩󰋔",
        -7.759367566465551
      ],
      [
        "▁󰟟󰟂",
        -7.762495333634195
      ],
      [
        "▁󰟎󰞼󰋷",
        -7.763208879571389
      ],
      [
        "▁󰟃󰋸󰞾",
        -7.765503790435458
      ],
      [
        "▁󰞿",
        -7.766959653320804
      ],
      [
        "▁󰋱󰞾󰟉",
        -7.768773007879362
      ],
      [
        "󰟆",
        -7.769634961101811
      ],
      [
        "▁󰋫󰠕",
        -7.7711872991426
      ],
      [
        "▁󰟕󰞹",
        -7.783292573732043
      ],
      [
        "▁󰟟󰋯󰋩",
        -7.787859673227935
      ],
      [
        "󰟓󰟇",
        -7.792189697148622
      ],
      [
        "▁󰋖󰞷󰟉󰋩",
        -7.802893931619124
      ],
      [
        "▁󰟚󰋳󰊴",
        -7.803350106946915
      ],
      [
        "▁󰟄󰟠",
        -7.804242131789465
      ],
      [
        "󰊴󰀂",
        -7.8141994732215
      ],
      [
        "▁󰋹󰋯󰠩",
        -7.814301188553463
      ],
      [
        "▁󰟏󰟰󰋱󰋤",
        -7.815103438236035
      ],
      [
        "▁󰟃",
        -7.81789151869167
      ],
      [
        "▁󰟮󰟖󰋷",
        -7.820592428704797
      ],
      [
        "▁󰟄󰠀",
        -7.823055675170965
      ],
      [
        "▁󰋐󰋖󰡦",
        -7.824827800615811
      ],
      [
        "▁󰋹󰋱󰞼󰋱",
        -7.827078251535635
      ],
      [
        "▁󰋐󰟙",
        -7.828440195687387
      ],
      [
        "▁󰟏󰞻󰋱",
        -7.831864208063081
      ],
      [
        "▁󰞺󰋩",
        -7.833464089834818
      ],
      [
        "󰋺",
        -7.834898834988785
      ],
      [
        "▁󰟕󰠔󰌠",
        -7.835940565113939
      ],
      [
        "󰟖",
        -7.838194020905762
      ],
      [
        "▁󰟼󰋭󰠈",
        -7.839432248866281
      ],
      [
        "▁󰟊󰋩",
        -7.8436218301682
      ],
      [
        "󰞽",
        -7.8503808778205695
      ],
      [
        "▁󰋖󰞷󰟉",
        -7.851367042276026
      ],
      [
        "▁󰋔󰋫󰋱",
        -7.851926434654562
      ],
      [
        "󰋠",
        -7.8525942075565
      ],
      [
        "▁󰋱󰞾󰟉󰊴",
        -7.855578508008296
      ],
      [
        "▁󰠪󰋺󰋤",
        -7.874454823312783
      ],
      [
        "󰀚",
        -7.887840888844902
      ],
      [
        "▁󰋹󰋯󰞾",
        -7.889697260685052
      ],
      [
        "▁󰟌",
        -7.891227552992161
      ],
      [
        "▁󰋆󰠮",
        -7.904097279373675
      ],
      [
        "▁󰟛󰞺󰊴",
        -7.906986483264374
      ],
      [
        "▁󰟍󰋥",
        -7.918273494834448
      ],
      [
        "󰟵󰟡",
        -7.918902611862043
      ],
      [
        "󰟗",
        -7.921214187945903
      ],
      [
        "▁󰋊󰡂󰋱",
        -7.924298067955286
      ],
      [
        "▁󰟓󰟡",
        -7.928892085237226
      ],
      [
        "▁󰋺󰋔󰟆󰋱",
        -7.93064716840396
      ],
      [
        "▁󰟄󰋗󰟂",
        -7.930708218566407
      ],
      [
        "󰞷󰋱",
        -7.932958653568543
      ],
      [
        "▁󰋇󰟶",
        -7.9391237710543034
      ],
      [
        "▁󰠞󰟽",
        -7.939283115503599
      ],
      [
        "▁󰟦󰟋",
        -7.940632655001446
      ],
      [
        "▁󰋭󰡱",
        -7.948140694305083
      ],
      [
        "󰟵󰟖",
        -7.951721851787905
      ],
      [
        "▁󰟏󰋯󰟅",
        -7.95185154402596
      ],
      [
        "▁󰠦󰋭󰋩",
        -7.953573134806216
      ],
      [
        "▁󰟁󰋺󰞻",
        -7.960660115775568
      ],
      [
        "▁󰟡󰋖",
        -7.960987462851335
      ],
      [
        "▁󰁔󰁈󰁅",
        -7.964075439379291
      ],
      [
        "▁󰠳󰟋󰟄󰟠󰋱",
        -7.96748609526491
      ],
      [
        "▁󰠯󰡝",
        -7.967708454833938
      ],
      [
        "▁󰟓󰋱󰟂󰋱",
        -7.969408376510662
      ],
      [
        "▁󰋐󰋥",
        -7.971258842466792
      ],
      [
        "▁󰟓󰋳",
        -7.978279780566892
      ],
      [
        "▁󰋭󰠻",
        -7.9783282431837055
      ],
      [
        "▁󰋆󰣴󰌏",
        -7.978865185816806
      ],
      [
        "▁󰋐󰟀󰋱",
        -7.9801294668890055
      ],
      [
        "▁󰟘󰋱",
        -7.986000521694033
      ],
      [
        "▁󰋯",
        -7.990972639372478
      ],
      [
        "▁󰠅󰞻",
        -7.996536455045623
      ],
      [
        "▁󰋆󰟲󰠒󰋘",
        -7.997325559100869
      ],
      [
        "▁󰋭󰋳󰟂",
        -7.997464723773627
      ],
      [
        "󰟑",
        -7.998476402425778
      ],
      [
        "▁󰟁󰋱󰋫󰋱",
        -8.009414852538855
      ],
      [
        "▁󰋐󰋹󰋭",
        -8.013592335986942
      ],
      [
        "󰁓",
        -8.015935493456716
      ],
      [
        "▁󰋹󰡜󰣈",
        -8.01736522647498
      ],
      [
        "▁󰋥󰣯",
        -8.021602938285147
      ],
      [
        "▁󰟤󰠠",
        -8.022772446832983
      ],
      [
        "▁󰋗󰋭󰋱",
        -8.025841614965188
      ],
      [
        "▁󰋐󰋖󰋈",
        -8.026411006250921
      ],
      [
        "▁󰟄󰟆",
        -8.038882618928888
      ],
      [
        "󰟐",
        -8.039625439866002
      ],
      [
        "▁󰟘󰞸",
        -8.040590920974893
      ],
      [
        "▁󰋩󰌠",
        -8.041593670677894
      ],
      [
        "▁󰞹󰞹",
        -8.042746096003334
      ],
      [
        "▁󰋊󰋫󰡯󰋥",
        -8.04435016199721
      ],
      [
        "▁󰟳󰡵",
        -8.04603644912462
      ],
      [
        "▁󰋩󰌠󰀌",
        -8.047465886212747
      ],
      [
        "▁󰁏󰁆",
        -8.048358367301853
      ],
      [
        "▁󰟨󰋳",
        -8.05339070472899
      ],
      [
        "▁󰟐󰟙",
        -8.054182514317167
      ],
      [
        "▁󰋧󰞻󰋱",
        -8.054893110490847
      ],
      [
        "▁󰢳󰠔󰌠",
        -8.055857438386033
      ],
      [
        "▁󰟋󰋮",
        -8.059613615508098
      ],
      [
        "󰋘",
        -8.060634917138092
      ],
      [
        "▁󰋖",
        -8.065247215238614
      ],
      [
        "▁󰋆󰡡󰟭",
        -8.067836376164221
      ],
      [
        "▁󰢻󰋠",
        -8.072627729470872
      ],
      [
        "▁󰟓󰟇",
        -8.075661964729639
      ],
      [
        "▁󰋭󰟖󰟆",
        -8.077062445170865
      ],
      [
        "󰀍󰋐󰋱",
        -8.078303814744508
      ],
      [
        "▁󰟧󰟒",
        -8.082441644351395
      ],
      [
        "▁󰞽󰠋",
        -8.082820968278591
      ],
      [
        "▁󰋙󰋠󰞹",
        -8.088924933233189
      ],
      [
        "▁󰢾󰋷",
        -8.090349627770602
      ],
      [
        "▁󰣕󰡩",
        -8.094869908241122
      ],
      [
        "▁󰋖󰞷󰟉󰋩󰊴",
        -8.097291032548153
      ],
      [
        "▁󰟄󰋷",
        -8.098597909087808
      ],
      [
        "▁󰠳󰟋",
        -8.099615769724535
      ],
      [
        "▁󰠧󰞷",
        -8.101787401620918
      ],
      [
        "▁󰟏",
        -8.103900539450787
      ],
      [
        "▁󰟬󰋗",
        -8.105684257091909
      ],
      [
        "▁󰋭󰋜󰞷󰋱",
        -8.107026543457042
      ],
      [
        "▁󰋧󰋳",
        -8.109101004321
      ],
      [
        "▁󰟅󰋈",
        -8.109654161535275
      ],
      [
        "▁󰋖󰞷󰟉󰊴",
        -8.1144176557856
      ],
      [
        "▁󰋺󰟡",
        -8.11555234710592
      ],
      [
        "▁󰞿󰟂",
        -8.116011446689862
      ],
      [
        "▁󰟬󰠀",
        -8.120802269359055
      ],
      [
        "▁󰟛󰞼",
        -8.121254207192967
      ],
      [
        "▁󰋯󰋩",
        -8.121496653146146
      ],
      [
        "▁󰋨󰋱󰟅󰋱",
        -8.122175774914282
      ],
      [
        "▁󰢯󰞼",
        -8.122446192199972
      ],
      [
        "▁󰟓󰋱󰠔󰌠",
        -8.123137174410127
      ],
      [
        "▁󰠎󰞾",
        -8.127186621901485
      ],
      [
        "▁󰌨",
        -8.127465552488763
      ],
      [
        "▁󰋺󰋔󰟆",
        -8.130616889881923
      ],
      [
        "󰟀󰋱",
        -8.133948155974517
      ],
      [
        "▁󰞹󰋈󰊴",
        -8.134061352210455
      ],
      [
        "▁󰋖󰋥",
        -8.13543808809184
      ],
      [
        "▁󰋹󰋱󰞼󰞷󰋱",
        -8.141331950588137
      ],
      [
        "▁󰋭󰟐",
        -8.145558566682064
      ],
      [
        "▁󰋹󰟪󰋥",
        -8.148097310112409
      ],
      [
        "▁󰡭󰢰",
        -8.151203059959558
      ],
      [
        "▁󰌬",
        -8.151623032599142
      ],
      [
        "▁󰞽󰣜",
        -8.151845559537595
      ],
      [
        "󰞻󰋱",
        -8.153661161279402
      ],
      [
        "▁󰟺",
        -8.154310794495869
      ],
      [
        "▁󰟨󰟉󰊴",
        -8.156014563440916
      ],
      [
        "▁󰟼󰠘",
        -8.159827733239894
      ],
      [
        "▁󰌪",
        -8.161062171980193
      ],
      [
        "󰟥",
        -8.161968250297058
      ],
      [
        "▁󰋺󰠤󰊴",
        -8.165185955566994
      ],
      [
        "▁󰟃󰋸󰌠",
        -8.165820881617906
      ],
      [
        "▁󰟣󰞺󰋈",
        -8.166070321570798
      ],
      [
        "▁󰋫󰠯",
        -8.167360468175486
      ],
      [
        "▁󰟘󰟇",
        -8.168055266009524
      ],
      [
        "▁󰋖󰟈",
        -8.168844221588516
      ],
      [
        "▁󰌩",
        -8.169586451806355
      ],
      [
        "▁󰋖󰋯",
        -8.173106191811772
      ],
      [
        "▁󰋈󰋹󰟋󰋯",
        -8.175749663226998
      ],
      [
        "▁󰋊󰋫󰟦󰟋",
        -8.18042214009008
      ],
      [
        "󰟝",
        -8.184105318993073
      ],
      [
        "▁󰋝󰋳",
        -8.187178514842165
      ],
      [
        "▁󰋐󰟂",
        -8.1937301286159
      ],
      [
        "▁󰟎󰤳",
        -8.196026547430147
      ],
      [
        "▁󰟀󰠉",
        -8.198776471358409
      ],
      [
        "▁󰟘󰌠󰀌",
        -8.199864128102972
      ],
      [
        "󰋘󰋤",
        -8.20386397552467
      ],
      [
        "▁󰟝󰟃",
        -8.20386935782827
      ],
      [
        "▁󰋹󰋭󰠎󰞾",
        -8.207432157349379
      ],
      [
        "▁󰌨󰌧",
        -8.208803820492346
      ],
      [
        "󰟡",
        -8.211032768996123
      ],
      [
        "▁󰟪󰟏󰟇",
        -8.214022294549926
      ],
      [
        "▁󰟠󰋗",
        -8.21405922637654
      ],
      [
        "▁󰢩󰋸󰠶",
        -8.219307220021276
      ],
      [
        "󰟜",
        -8.224039180799878
      ],
      [
        "▁󰋙󰞷",
        -8.22422606813679
      ],
      [
        "▁󰟋󰋗",
        -8.22582239435732
      ],
      [
        "▁󰋜󰟃",
        -8.226184124819461
      ],
      [
        "▁󰋹󰋧󰢘",
        -8.226193839670536
      ],
      [
        "󰟏",
        -8.227885806003394
      ],
      [
        "▁󰟟󰟞󰟅",
        -8.232322161444557
      ],
      [
        "󰟔",
        -8.233053773514676
      ],
      [
        "▁󰞹󰋈",
        -8.233462129825588
      ],
      [
        "▁󰋹󰢨󰋧󰋖",
        -8.23642445002409
      ],
      [
        "▁󰟊󰞿󰊴",
        -8.239033893634806
      ],
      [
        "▁󰞺󰋭󰋳",
        -8.239103250087913
      ],
      [
        "▁󰟕󰞹󰋩󰀌",
        -8.254360940012345
      ],
      [
        "󰌏",
        -8.261240118278286
      ],
      [
        "▁󰟜",
        -8.261522173038873
      ],
      [
        "▁󰟃󰢮󰋹",
        -8.267877052592272
      ],
      [
        "󰋢",
        -8.268898770227256
      ],
      [
        "▁󰞸󰟞",
        -8.269767163841287
      ],
      [
        "▁󰋖󰋱󰞻",
        -8.272440971013124
      ],
      [
        "▁󰋫󰋦",
        -8.275998597796907
      ],
      [
        "▁󰟛󰋖󰟂",
        -8.27854847453948
      ],
      [
        "▁󰞿󰋖󰋠",
        -8.27946338456896
      ],
      [
        "▁󰟚󰞻󰋩󰊴",
        -8.281575889495787
      ],
      [
        "▁󰋊󰡪",
        -8.282175699292875
      ],
      [
        "▁󰋫󰟣",
        -8.290773901709724
      ],
      [
        "󰠄",
        -8.293864032518911
      ],
      [
        "󰠹󰠁",
        -8.294315974872854
      ],
      [
        "▁󰋹󰢬󰋭",
        -8.295918977494706
      ],
      [
        "▁󰟸󰟒",
        -8.29601222715389
      ],
      [
        "▁󰁁󰁎󰁄",
        -8.297451180068146
      ],
      [
        "▁󰋹󰟓󰋫󰟊",
        -8.297686637061304
      ],
      [
        "▁󰟁󰟂",
        -8.297869232343455
      ],
      [
        "▁󰋇󰟡󰋛󰞹",
        -8.299923519491283
      ],
      [
        "▁󰋐󰋱󰋫󰋱",
        -8.300342795788467
      ],
      [
        "󰠂",
        -8.301363419167291
      ],
      [
        "▁󰌫",
        -8.304757132507977
      ],
      [
        "▁󰟺󰠒󰋘",
        -8.30654996431456
      ],
      [
        "󰟐󰋱",
        -8.306914241882366
      ],
      [
        "▁󰠑󰞺",
        -8.310177722430332
      ],
      [
        "▁󰋇󰟉󰀌",
        -8.31077046904579
      ],
      [
        "▁󰋊",
        -8.314534516294046
      ],
      [
        "▁󰋷󰠘",
        -8.315215902269191
      ],
      [
        "▁󰞷󰠀",
        -8.318957982454618
      ],
      [
        "▁󰋈󰟍",
        -8.319720012116367
      ],
      [
        "▁󰋆󰋦󰟀",
        -8.321905881378386
      ],
      [
        "▁󰠑󰟄󰋱",
        -8.322492467231454
      ],
      [
        "▁󰋆󰟊",
        -8.327916739950854
      ],
      [
        "󰀏",
        -8.328239898349079
      ],
      [
        "▁󰟉󰞻",
        -8.33151159461872
      ],
      [
        "󰋤",
        -8.333163985710584
      ],
      [
        "󰞼󰋱",
        -8.337787140766748
      ],
      [
        "▁󰋺󰋈󰞻",
        -8.338654481567396
      ],
      [
        "▁󰞹󰟴",
        -8.339620413492726
      ],
      [
        "▁󰟀󰋈󰞷",
        -8.340576500289803
      ],
      [
        "▁󰞸󰋝󰣄󰟊󰋖",
        -8.345252100417193
      ],
      [
        "▁󰋖󰟃",
        -8.351442273900586
      ],
      [
        "󰟶",
        -8.352126931563634
      ],
      [
        "▁󰋺󰞾󰟚󰋳",
        -8.353467612734685
      ],
      [
        "▁󰋐󰋗󰋩󰋔",
        -8.35607514932529
      ],
      [
        "▁󰞼",
        -8.356186803426956
      ],
      [
        "▁󰋖󰞾󰋖",
        -8.357780290686987
      ],
      [
        "▁󰋐󰋖󰟀󰋱",
        -8.358407398001177
      ],
      [
        "󰋛",
        -8.35919450586201
      ],
      [
        "▁󰋊󰣮󰋗",
        -8.360900687369352
      ],
      [
        "▁󰠒󰋘",
        -8.361142954283894
      ],
      [
        "▁󰟥󰢋󰟷",
        -8.361608193313005
      ],
      [
        "▁󰊴󰊴",
        -8.362373916411535
      ],
      [
        "▁󰋆󰋭󰠈󰌠",
        -8.365472964714018
      ],
      [
        "▁󰋯󰟍",
        -8.370995390953867
      ],
      [
        "▁󰠴󰟌󰞷",
        -8.374524288232909
      ],
      [
        "▁󰋝󰣺",
        -8.374596223931233
      ],
      [
        "▁󰠖",
        -8.375727084851428
      ],
      [
        "▁󰋇󰋔󰟆󰡁",
        -8.379911382889507
      ],
      [
        "▁󰌭",
        -8.382507336759799
      ],
      [
        "▁󰟨󰟉",
        -8.387910090182553
      ],
      [
        "▁󰋐󰟋󰞼󰌠",
        -8.390309583664967
      ],
      [
        "󰟾",
        -8.393531550873583
      ],
      [
        "▁󰠺󰋳",
        -8.394860779328662
      ],
      [
        "▁󰋧󰢎󰋤",
        -8.395762869412708
      ],
      [
        "▁󰟓󰋱󰋥",
        -8.399160332939765
      ],
      [
        "󰟦",
        -8.402751950395286
      ],
      [
        "▁󰞸󰟕",
        -8.40466062140382
      ],
      [
        "▁󰋷󰤐",
        -8.411853960794355
      ],
      [
        "▁󰋫󰟴󰠠",
        -8.411926783966639
      ],
      [
        "▁󰞼󰟦",
        -8.412856661976548
      ],
      [
        "▁󰟎󰟰󰋩󰋯󰢐",
        -8.412869151551789
      ],
      [
        "▁󰠈󰟾󰌠",
        -8.413715280507166
      ],
      [
        "▁󰟎󰡙󰋝󰋩",
        -8.419249330056001
      ],
      [
        "▁󰋖󰋱󰟉",
        -8.42203692040168
      ],
      [
        "▁󰠦󰋭󰟅󰋱",
        -8.422980475198571
      ],
      [
        "▁󰠈󰋩",
        -8.425192506705809
      ],
      [
        "▁󰋆󰋭󰠈",
        -8.427129581770146
      ],
      [
        "▁󰋐󰠝󰞾",
        -8.427652816511555
      ],
      [
        "▁󰠁󰞾",
        -8.428716924739089
      ],
      [
        "▁󰋺󰞾󰟚󰋳󰊴",
        -8.429338417503734
      ],
      [
        "▁󰟑󰟆",
        -8.432633650594777
      ],
      [
        "▁󰋹󰋺",
        -8.43437447999425
      ],
      [
        "▁󰠈󰟅",
        -8.434429869485056
      ],
      [
        "▁󰋺󰞻󰋔",
        -8.436541043346288
      ],
      [
        "▁󰡌󰋩",
        -8.439360045886326
      ],
      [
        "▁󰋭󰋳",
        -8.441142160229246
      ],
      [
        "▁󰋹󰋱󰞼󰟈",
        -8.44414623017145
      ],
      [
        "▁󰟨󰋳󰊴",
        -8.44472154309019
      ],
      [
        "▁󰟌󰟱󰟌󰟤",
        -8.4458295777053
      ],
      [
        "▁󰋖󰋱",
        -8.446529481706209
      ],
      [
        "▁󰋱󰋺󰞽󰋩",
        -8.448213712306059
      ],
      [
        "▁󰟉󰠕",
        -8.448903572256873
      ],
      [
        "▁󰞿󰡷󰋛󰋩",
        -8.450019752182959
      ],
      [
        "▁󰞿󰢪󰋥",
        -8.450414782451297
      ],
      [
        "▁󰋭󰞻󰋩",
        -8.45277401847086
      ],
      [
        "▁󰋖󰟶󰞹",
        -8.45458546314327
      ],
      [
        "▁󰟢󰋱",
        -8.455155641720717
      ],
      [
        "▁󰟨󰞻",
        -8.455415734286268
      ],
      [
        "▁󰟥",
        -8.45676250857328
      ],
      [
        "▁󰟘󰋔󰟆",
        -8.458274883865794
      ],
      [
        "󰟌",
        -8.45850267024048
      ],
      [
        "▁󰋹󰟀󰋈",
        -8.459566159927268
      ],
      [
        "▁󰋹󰡈",
        -8.460185152738433
      ],
      [
        "▁󰋳󰤼",
        -8.461141270187223
      ],
      [
        "▁󰋇󰟱",
        -8.463875420894656
      ],
      [
        "▁󰋰󰟑󰋔",
        -8.463954116463185
      ],
      [
        "󰋬",
        -8.470734052939356
      ],
      [
        "▁󰟄󰌠",
        -8.472477140504378
      ],
      [
        "▁󰋝󰣣",
        -8.473520595748566
      ],
      [
        "▁󰋖󰋱󰟇",
        -8.474226642636086
      ],
      [
        "▁󰞻󰟞",
        -8.474887872733005
      ],
      [
        "▁󰟃󰡋",
        -8.47792565338899
      ],
      [
        "▁󰞽󰋹",
        -8.479568507423336
      ],
      [
        "▁󰟀󰋱",
        -8.481507125195792
      ],
      [
        "▁󰞽󰤚󰋩",
        -8.48430107292731
      ],
      [
        "▁󰟀󰠉󰟂",
        -8.484453819037565
      ],
      [
        "▁󰋹󰡚󰤡",
        -8.48897194277155
      ],
      [
        "▁󰟠󰠾",
        -8.48931882970153
      ],
      [
        "󰟮󰋱",
        -8.489417366093425
      ],
      [
        "▁󰋺󰞾󰟉󰀌",
        -8.490269317092983
      ],
      [
        "▁󰋊󰋫󰟦󰟋󰋱",
        -8.493491527699435
      ],
      [
        "▁󰋖󰞷󰀌",
        -8.49577559274767
      ],
      [
        "▁󰟀󰟀",
        -8.495962059750639
      ],
      [
        "▁󰋇󰋈󰋩",
        -8.497421143251971
      ],
      [
        "▁󰠛󰀎",
        -8.49839824905633
      ],
      [
        "󰞾󰋱",
        -8.49859148495508
      ],
      [
        "▁󰟍󰋹󰟌󰟁󰞻",
        -8.499241300398564
      ],
      [
        "▁󰞽󰞸",
        -8.499732418226229
      ],
      [
        "▁󰟧󰟛󰌠",
        -8.502663143532997
      ],
      [
        "▁󰋹󰋯󰣀",
        -8.506291893850342
      ],
      [
        "󰋸",
        -8.506342982666284
      ],
      [
        "▁󰋭󰡮󰞽󰋩",
        -8.506647172215423
      ],
      [
        "▁󰠷󰋨",
        -8.506749213806227
      ],
      [
        "▁󰟎󰤿󰟊",
        -8.507465436985134
      ],
      [
        "▁󰟅󰟁",
        -8.510151764332726
      ],
      [
        "▁󰟝󰢦󰡓",
        -8.52114999734186
      ],
      [
        "󰟉",
        -8.521595587024732
      ],
      [
        "▁󰟎",
        -8.522155938053713
      ],
      [
        "▁󰟺󰋥󰥤",
        -8.525050414822582
      ],
      [
        "▁󰟌󰞷󰋩",
        -8.526218397778567
      ],
      [
        "▁󰋬󰋳",
        -8.526999837284297
      ],
      [
        "▁󰟇󰋱",
        -8.52765143385795
      ],
      [
        "▁󰟃󰋸󰌠󰟒",
        -8.528496452361114
      ],
      [
        "▁󰞿󰟦󰟄󰋱",
        -8.528730178971056
      ],
      [
        "▁󰟑󰟅󰋱",
        -8.530012465581965
      ],
      [
        "▁󰟀󰋹",
        -8.530066935731012
      ],
      [
        "▁󰢛",
        -8.530278396237328
      ],
      [
        "▁󰟘󰋔󰟆󰋱",
        -8.531056590877512
      ],
      [
        "▁󰞸󰋗󰟂",
        -8.532515770994534
      ],
      [
        "▁󰢢󰋗",
        -8.533293762276953
      ],
      [
        "▁󰤆",
        -8.533540093206497
      ],
      [
        "▁󰡕󰟜󰋱",
        -8.533694406040018
      ],
      [
        "▁󰋺󰡠󰌏",
        -8.533926888420954
      ],
      [
        "▁󰋆󰋭󰢖",
        -8.53757933180573
      ],
      [
        "▁󰋛",
        -8.540443695764596
      ],
      [
        "󰋗",
        -8.541574086140944
      ],
      [
        "▁󰠛󰋠",
        -8.541999928475132
      ],
      [
        "▁󰟄󰋩",
        -8.542018739320492
      ],
      [
        "▁󰡳󰟐󰋩",
        -8.543212887594233
      ],
      [
        "󰟹",
        -8.546257001614457
      ],
      [
        "▁󰠏",
        -8.547249826842945
      ],
      [
        "▁󰋖󰞷󰋩󰀌",
        -8.547706908748998
      ],
      [
        "▁󰋺󰌠󰟹",
        -8.549340947803216
      ],
      [
        "▁󰟢",
        -8.549553731626442
      ],
      [
        "▁󰟕󰋩󰟂",
        -8.551364844338357
      ],
      [
        "▁󰞽󰟐",
        -8.551778601452144
      ],
      [
        "▁󰋫󰟈󰋛󰌠",
        -8.551823478580426
      ],
      [
        "▁󰠽󰤩",
        -8.5524060613513
      ],
      [
        "▁󰟳󰟀󰋧",
        -8.553138246094852
      ],
      [
        "▁󰟔󰠜󰋈",
        -8.554611951573015
      ],
      [
        "▁󰌨󰌬",
        -8.554996572202494
      ],
      [
        "󰠍",
        -8.55561835021563
      ],
      [
        "▁󰋭󰋳󰞻󰋩󰀌",
        -8.5556704824312
      ],
      [
        "󰟁󰋱",
        -8.556082265050751
      ],
      [
        "▁󰟘󰟂",
        -8.556616485392068
      ],
      [
        "▁󰟑󰟅",
        -8.55688665651514
      ],
      [
        "󰀉󰊴",
        -8.557813493041046
      ],
      [
        "▁󰟄󰌠󰊴",
        -8.558591534068663
      ],
      [
        "▁󰟸",
        -8.558971081407819
      ],
      [
        "▁󰠊󰋞󰟂",
        -8.559312463708874
      ],
      [
        "▁󰋺󰌠󰞿󰊴",
        -8.559575428358158
      ],
      [
        "▁󰟓󰢀",
        -8.560827920205229
      ],
      [
        "▁󰟏󰞽󰠆󰋖",
        -8.56182936285185
      ],
      [
        "▁󰋝󰌠",
        -8.562652215568045
      ],
      [
        "▁󰋨󰡒",
        -8.565155582894912
      ],
      [
        "▁󰠹󰋫",
        -8.566829308544113
      ],
      [
        "▁󰤞󰟀",
        -8.567200435730149
      ],
      [
        "󰀉󰀌",
        -8.567240337499955
      ],
      [
        "▁󰋖󰀇󰞷",
        -8.567695004739456
      ],
      [
        "󰋜",
        -8.567894454552409
      ],
      [
        "▁󰠚󰡏",
        -8.568479401878298
      ],
      [
        "󰠆",
        -8.569209115999655
      ],
      [
        "▁󰋊󰢋󰋱",
        -8.569590479643441
      ],
      [
        "󰋩󰊴",
        -8.570317337370739
      ],
      [
        "▁󰋇󰣥󰟷",
        -8.570864633940685
      ],
      [
        "▁󰋫󰟈󰋭󰡮󰋩",
        -8.572731485509573
      ],
      [
        "▁󰤕󰋛",
        -8.572999720886118
      ],
      [
        "▁󰋫",
        -8.574308699105156
      ],
      [
        "▁󰋮󰌠",
        -8.574528200222177
      ],
      [
        "󰋮",
        -8.574731027683631
      ],
      [
        "󰟴",
        -8.575329569659118
      ],
      [
        "▁󰟏󰟍󰥣",
        -8.578247026383176
      ],
      [
        "▁󰌯",
        -8.578538940936854
      ],
      [
        "▁󰞿󰋝",
        -8.580020574892673
      ],
      [
        "▁󰋊󰣠",
        -8.582094043216564
      ],
      [
        "▁󰠌󰋤",
        -8.582723534449528
      ],
      [
        "▁󰠨󰡟",
        -8.584980624287983
      ],
      [
        "▁󰋆󰋭",
        -8.58595765946875
      ],
      [
        "▁󰋈󰟍󰋱",
        -8.588050748437768
      ],
      [
        "▁󰟰󰋱󰠶",
        -8.589816118463299
      ],
      [
        "▁󰋇󰟻󰡁",
        -8.595217645747598
      ],
      [
        "▁󰋺󰋩󰊴",
        -8.59627356593782
      ],
      [
        "▁󰞸󰣝",
        -8.598374559941195
      ],
      [
        "▁󰞼󰋳",
        -8.598809030285274
      ],
      [
        "▁󰟅󰋔󰟆",
        -8.599704509645132
      ],
      [
        "󰟫",
        -8.599872826209909
      ],
      [
        "▁󰋫󰟈󰟀󰞷󰋱",
        -8.602058518024918
      ],
      [
        "▁󰟦󰟋󰋱",
        -8.603592712183127
      ],
      [
        "▁󰟘󰠤",
        -8.604395238801807
      ],
      [
        "▁󰋭󰞻󰟉󰋩󰀌",
        -8.604444695720051
      ],
      [
        "▁󰟝󰋯",
        -8.604771555919594
      ],
      [
        "▁󰞽󰟛",
        -8.604846053981868
      ],
      [
        "▁󰟎󰟇󰋷",
        -8.60554743024913
      ],
      [
        "▁󰋇󰟐",
        -8.606415115175754
      ],
      [
        "▁󰟎󰟝󰋩",
        -8.606630261028602
      ],
      [
        "▁󰟓󰋈",
        -8.607250748158087
      ],
      [
        "▁󰋖󰋗󰋩󰋔",
        -8.608638854554629
      ],
      [
        "▁󰋖󰋱󰟉󰊴",
        -8.609974132867004
      ],
      [
        "▁󰟌󰋳󰋩",
        -8.610018666421904
      ],
      [
        "▁󰋇󰟷󰥆󰟊󰋖",
        -8.611084569941113
      ],
      [
        "▁󰋯󰡊",
        -8.61209308671792
      ],
      [
        "▁󰌮",
        -8.614470874140514
      ],
      [
        "▁󰟏󰞸",
        -8.61450318496143
      ],
      [
        "󰡓",
        -8.617074055618298
      ],
      [
        "▁󰋆󰡈󰟷",
        -8.623067070056342
      ],
      [
        "▁󰟻󰋩",
        -8.623591104601168
      ],
      [
        "▁󰋺",
        -8.624247434055684
      ],
      [
        "▁󰟘󰟇󰊴",
        -8.627717175372341
      ],
      [
        "▁󰋖󰡒󰋖󰣁",
        -8.628463440121246
      ],
      [
        "▁󰋭󰡮󰞽󰟅",
        -8.628707522297987
      ],
      [
        "▁󰋆󰋭󰠈󰋩",
        -8.630169460848679
      ],
      [
        "▁󰀻",
        -8.630663916898285
      ],
      [
        "▁󰋆󰠢󰞼󰋱",
        -8.631643249544
      ],
      [
        "▁󰞺󰋯󰋩",
        -8.633266988434865
      ],
      [
        "▁󰞽󰋯󰟋",
        -8.63412415811905
      ],
      [
        "▁󰠃󰢱",
        -8.634811859308178
      ],
      [
        "▁󰋭󰋳󰋳󰀌",
        -8.634892729734581
      ],
      [
        "▁󰟌󰟠",
        -8.637657356486812
      ],
      [
        "▁󰞺󰦐󰌠",
        -8.637818200100348
      ],
      [
        "󰀇󰋱",
        -8.637877288545203
      ],
      [
        "▁󰠑󰞸",
        -8.638005090392966
      ],
      [
        "▁󰠇󰋯󰟁",
        -8.63804658594685
      ],
      [
        "▁󰋱󰋖󰋯",
        -8.639091730116832
      ],
      [
        "▁󰋆󰋦󰋛",
        -8.639348462829322
      ],
      [
        "▁󰟄󰋔󰟆󰋱",
        -8.640496325860305
      ],
      [
        "▁󰟓󰋭",
        -8.64076804144594
      ],
      [
        "▁󰋳󰋈󰟆",
        -8.640863347788772
      ],
      [
        "󰋊",
        -8.641602370410766
      ],
      [
        "▁󰞸󰟂",
        -8.643498129931293
      ],
      [
        "󰀽",
        -8.644552634708766
      ],
      [
        "▁󰟘󰟍",
        -8.647162685384888
      ],
      [
        "▁󰋰󰋥",
        -8.647528843169935
      ],
      [
        "▁󰢢󰠀",
        -8.648055841445105
      ],
      [
        "▁󰋨󰞸",
        -8.649560279695006
      ],
      [
        "▁󰋘󰠕",
        -8.650511368454803
      ],
      [
        "▁󰌩󰌧",
        -8.651015658745976
      ],
      [
        "▁󰞿󰤯󰋷",
        -8.651278952987695
      ],
      [
        "▁󰟃󰞾",
        -8.651286219854544
      ],
      [
        "󰀍󰋐",
        -8.65338495330418
      ],
      [
        "▁󰡃󰢺",
        -8.655520155849505
      ],
      [
        "󰟜󰋱",
        -8.655837030487714
      ],
      [
        "󰟕",
        -8.657459691480948
      ],
      [
        "▁󰋐󰋖󰟑󰋩",
        -8.659348678186808
      ],
      [
        "▁󰟓󰋘",
        -8.66185397453528
      ],
      [
        "▁󰋳󰠇",
        -8.664178078617185
      ],
      [
        "▁󰟑󰋖",
        -8.66454186076727
      ],
      [
        "󰊴󰀇",
        -8.666023110890178
      ],
      [
        "▁󰡨󰞷",
        -8.66804738985559
      ],
      [
        "▁󰟪󰣒",
        -8.668845601136283
      ],
      [
        "▁󰌨󰌩",
        -8.670236962586259
      ],
      [
        "▁󰋺󰋩",
        -8.672946903560518
      ],
      [
        "▁󰟎󰞽󰋤",
        -8.673687804531339
      ],
      [
        "▁󰞸󰋥",
        -8.673764734646987
      ],
      [
        "▁󰥰󰋥",
        -8.674070700876978
      ],
      [
        "▁󰋹󰞼󰞻",
        -8.675523963086427
      ],
      [
        "▁󰋇󰋫󰞹󰞺",
        -8.678782525652501
      ],
      [
        "▁󰋖󰞾󰋖󰟒",
        -8.68522774263382
      ],
      [
        "󰟧",
        -8.687236965633634
      ],
      [
        "▁󰟜󰞾",
        -8.688173229713547
      ],
      [
        "▁󰟌󰞿",
        -8.693642349895475
      ],
      [
        "▁󰟮󰟫󰋸",
        -8.693807821646095
      ],
      [
        "▁󰋐󰋖󰞽󰠋",
        -8.694113466089284
      ],
      [
        "▁󰌩󰌫",
        -8.69424964617223
      ],
      [
        "󰌱",
        -8.694291224672591
      ],
      [
        "󰋇",
        -8.69628683508278
      ],
      [
        "▁󰟤󰟿",
        -8.697544922632593
      ],
      [
        "▁󰞸󰌠",
        -8.698994164765212
      ],
      [
        "▁󰋹󰡜󰢴",
        -8.69917050056856
      ],
      [
        "▁󰢉󰋳",
        -8.701948218459309
      ],
      [
        "▁󰟍",
        -8.70198620748797
      ],
      [
        "▁󰟮󰟖󰟠󰋱",
        -8.70488836231874
      ],
      [
        "▁󰋺󰋈󰋳",
        -8.705362571863779
      ],
      [
        "▁󰋖󰟈󰟀󰋱",
        -8.705467124633572
      ],
      [
        "▁󰟌󰟈",
        -8.709593428406018
      ],
      [
        "▁󰞼󰋜",
        -8.710541223472912
      ],
      [
        "▁󰟎󰞼󰟤󰋥",
        -8.710694767029135
      ],
      [
        "▁󰠎󰟆󰋱󰡲󰋩",
        -8.711524057262604
      ],
      [
        "󰟍",
        -8.713905891186675
      ],
      [
        "▁󰋺󰋈󰟇",
        -8.714266664782395
      ],
      [
        "▁󰋷󰥉󰋷",
        -8.714771306687204
      ],
      [
        "▁󰋇󰋳",
        -8.716568317583713
      ],
      [
        "▁󰋹󰥱󰡄",
        -8.71815307061625
      ],
      [
        "▁󰋖󰞻󰋝",
        -8.718702177286104
      ],
      [
        "󰟲",
        -8.7219087694002
      ],
      [
        "▁󰋆󰟯󰟘󰢈",
        -8.722133212097928
      ],
      [
        "▁󰋹󰞼󰋳",
        -8.725169864871832
      ],
      [
        "▁󰠳󰟋󰟄󰟠",
        -8.726566904295574
      ],
      [
        "▁󰟄󰋩󰊴",
        -8.727110753862185
      ],
      [
        "▁󰟏󰟇󰋖",
        -8.727392098975729
      ],
      [
        "▁󰋇󰟨󰋈",
        -8.72746852505869
      ],
      [
        "▁󰋇󰡢󰋺",
        -8.727849951269294
      ],
      [
        "▁󰥥󰞿",
        -8.728667123401458
      ],
      [
        "▁󰡡󰌠",
        -8.728962580731334
      ],
      [
        "󰟒󰋱",
        -8.729282377489445
      ],
      [
        "▁󰡭󰢰󰋱",
        -8.731167194190402
      ],
      [
        "▁󰢟󰋱",
        -8.732920697362655
      ],
      [
        "▁󰟺󰠼󰋱",
        -8.733976770561071
      ],
      [
        "▁󰟕󰌠󰟻󰌠",
        -8.733983105589058
      ],
      [
        "󰋰",
        -8.73615198849275
      ],
      [
        "▁󰢃󰠔󰌠",
        -8.736251185124356
      ],
      [
        "▁󰠦󰋭󰟅",
        -8.739210340517976
      ],
      [
        "▁󰋭󰋈",
        -8.739311591522616
      ],
      [
        "▁󰋱󰠠",
        -8.740009658506498
      ],
      [
        "▁󰟵󰟫󰡓󰠨󰡄",
        -8.740065970100058
      ],
      [
        "▁󰞿󰟦󰞺",
        -8.742310196490214
      ],
      [
        "▁󰋆󰟯󰤤󰋥",
        -8.742516954047822
      ],
      [
        "▁󰋆󰠁󰠠",
        -8.742727753239894
      ],
      [
        "▁󰟞󰋩",
        -8.744582558921904
      ],
      [
        "▁󰟎󰟓󰋭",
        -8.745421807981117
      ],
      [
        "▁󰟲󰠥",
        -8.74801952531273
      ],
      [
        "▁󰞹󰟔",
        -8.749672130754288
      ],
      [
        "▁󰟌󰋱",
        -8.753898415265294
      ],
      [
        "▁󰋈󰡘󰟑",
        -8.75871760233971
      ],
      [
        "▁󰋺󰡘",
        -8.75893003619248
      ],
      [
        "▁󰋐󰠞󰟽",
        -8.760388664990078
      ],
      [
        "▁󰋙󰋠󰞹󰋱",
        -8.761667386224653
      ],
      [
        "▁󰣉󰠉󰞾",
        -8.761717013806546
      ],
      [
        "▁󰟛󰞼󰋱",
        -8.761941746243922
      ],
      [
        "󰠂󰋱",
        -8.762123385269746
      ],
      [
        "▁󰠡󰟨󰋱",
        -8.762195572019253
      ],
      [
        "▁󰞿󰋺󰋥",
        -8.765084543169634
      ],
      [
        "▁󰟬󰋹󰟖󰋯",
        -8.765469595849689
      ],
      [
        "▁󰋇󰟏",
        -8.767156064727581
      ],
      [
        "󰟠",
        -8.76980283950491
      ],
      [
        "▁󰋖󰋱󰟉󰋩",
        -8.769945846973986
      ],
      [
        "▁󰋐󰟋󰞼󰋱",
        -8.772230321280864
      ],
      [
        "▁󰟬󰠘",
        -8.77464750722652
      ],
      [
        "▁󰋭󰤣",
        -8.774716388476705
      ],
      [
        "▁󰋈󰣼",
        -8.774952812061807
      ],
      [
        "▁󰋫󰟈󰞽󰋤",
        -8.775575180764983
      ],
      [
        "▁󰌰",
        -8.775849687852375
      ],
      [
        "▁󰟃󰟢󰋱",
        -8.776664987050768
      ],
      [
        "󰋩󰀌",
        -8.777287927732443
      ],
      [
        "▁󰋙󰋠󰞹󰌠",
        -8.778286659238043
      ],
      [
        "󰋐",
        -8.779023528254928
      ],
      [
        "▁󰣾󰞼󰋱",
        -8.782643549670283
      ],
      [
        "▁󰡺󰋠",
        -8.782971186635697
      ],
      [
        "󰟵󰟖󰋱",
        -8.78369800796937
      ],
      [
        "▁󰠲󰞻",
        -8.785103311760256
      ],
      [
        "▁󰋖󰋗󰠄",
        -8.785329891166025
      ],
      [
        "󰣊",
        -8.78658681782989
      ],
      [
        "▁󰁉󰁎",
        -8.78678206567361
      ],
      [
        "▁󰟎󰋦󰟜",
        -8.787539716342673
      ],
      [
        "▁󰋫󰠇",
        -8.78786372894568
      ],
      [
        "▁󰋐󰞺󰟀󰞷",
        -8.7886321601164
      ],
      [
        "▁󰋇󰋩󰠼",
        -8.79147318843926
      ],
      [
        "▁󰟬",
        -8.795451964004213
      ],
      [
        "▁󰋊󰟌󰌠",
        -8.795887163531837
      ],
      [
        "▁󰟃󰡋󰟃󰢏󰋳󰞾󰋱",
        -8.796609667098595
      ],
      [
        "󰠩",
        -8.79684283437204
      ],
      [
        "▁󰟕󰞿",
        -8.796960185160135
      ],
      [
        "▁󰌨󰌪",
        -8.7969753301244
      ],
      [
        "▁󰟞󰟀󰋱",
        -8.797616770862714
      ],
      [
        "▁󰋭󰠓󰟼",
        -8.799904252822262
      ],
      [
        "▁󰋫󰌝󰟂",
        -8.803090001379973
      ],
      [
        "▁󰋆󰟭󰋥󰋯",
        -8.803432061272794
      ],
      [
        "▁󰟛󰋖󰟇",
        -8.803767063178691
      ],
      [
        "▁󰞺󰡶",
        -8.807853253685474
      ],
      [
        "▁󰋈󰟊󰟍󰋹",
        -8.80868130790178
      ],
      [
        "▁󰟇󰡅",
        -8.810604370455511
      ],
      [
        "▁󰋖󰞷󰟚󰞻󰋩",
        -8.811075489992794
      ],
      [
        "▁󰠨󰡄",
        -8.812294990458387
      ],
      [
        "▁󰋭󰡄󰞹",
        -8.812954987820303
      ],
      [
        "▁󰞽󰟛󰌠",
        -8.813680090062045
      ],
      [
        "▁󰋇󰋹󰞻",
        -8.813817547807181
      ],
      [
        "▁󰋙󰋱",
        -8.81564248176148
      ],
      [
        "󰥕",
        -8.817372504876424
      ],
      [
        "▁󰟄󰋭",
        -8.817965524130942
      ],
      [
        "▁󰟃󰥃󰋱",
        -8.821827002470238
      ],
      [
        "▁󰋇󰠡",
        -8.822705971785593
      ],
      [
        "▁󰟃󰟓󰟨󰋱",
        -8.824659724922288
      ],
      [
        "▁󰟁󰟍󰟄󰋱",
        -8.825133726060612
      ],
      [
        "▁󰠵󰣹",
        -8.826727398516551
      ],
      [
        "▁󰟓󰋱󰟂",
        -8.826941512719598
      ],
      [
        "▁󰋺󰟇󰀌",
        -8.827057620698891
      ],
      [
        "▁󰟹󰞽󰟄󰋱",
        -8.827428215334894
      ],
      [
        "󰞼󰟴",
        -8.827648579994433
      ],
      [
        "▁󰠱",
        -8.827807857131662
      ],
      [
        "▁󰟌󰌠",
        -8.831352338447822
      ],
      [
        "▁󰡿󰟥󰡔󰢊",
        -8.832072999605426
      ],
      [
        "▁󰡰󰋯󰟀󰋱",
        -8.834370945536339
      ],
      [
        "󰟄",
        -8.836169046962072
      ],
      [
        "▁󰋘󰋥󰞼󰋳",
        -8.837683211924016
      ],
      [
        "▁󰠽󰡁",
        -8.83772008848834
      ],
      [
        "▁󰟧󰟛󰋔",
        -8.837779732917348
      ],
      [
        "▁󰁔󰁏",
        -8.837817651503515
      ],
      [
        "󰟨",
        -8.838029373604732
      ],
      [
        "▁󰋐󰟑󰞺",
        -8.839714743528907
      ],
      [
        "▁󰟌󰋩",
        -8.842358428221159
      ],
      [
        "▁󰋮󰣶",
        -8.843294826643001
      ],
      [
        "▁󰟮󰠋",
        -8.844795051956996
      ],
      [
        "▁󰢟󰞷",
        -8.845765897499103
      ],
      [
        "▁󰋷󰋥",
        -8.847531951741828
      ],
      [
        "󰋘󰠐󰋱",
        -8.847828603351404
      ],
      [
        "▁󰞹󰋈󰀌",
        -8.849143113128466
      ],
      [
        "▁󰋘󰡣",
        -8.849299431173332
      ],
      [
        "▁󰟚󰋳󰀌",
        -8.849964547550806
      ],
      [
        "󰟯",
        -8.852291461675817
      ],
      [
        "▁󰟍󰋱",
        -8.852773185498474
      ],
      [
        "󰌠󰊴",
        -8.853064044816147
      ],
      [
        "▁󰌪󰌧",
        -8.853968408985352
      ],
      [
        "▁󰠽󰡨󰋩󰟁",
        -8.854026343606519
      ],
      [
        "▁󰟹󰞽󰞺",
        -8.85531358465714
      ],
      [
        "▁󰡉󰋭󰋈",
        -8.855651181054437
      ],
      [
        "▁󰠻",
        -8.856238762851342
      ],
      [
        "▁󰟃󰢁",
        -8.857424927391113
      ],
      [
        "▁󰟑󰞾󰟉",
        -8.858466816946528
      ],
      [
        "󰟬",
        -8.85887844914251
      ],
      [
        "▁󰟹󰋯󰞸",
        -8.859253621274341
      ],
      [
        "▁󰟅󰟜",
        -8.859736484434308
      ],
      [
        "▁󰞼󰟦󰋱",
        -8.860201694232487
      ],
      [
        "▁󰟛󰞺󰀌",
        -8.862685314432149
      ],
      [
        "▁󰋆󰢧󰋫󰋖",
        -8.864076366431732
      ],
      [
        "󰠁",
        -8.866097254144794
      ],
      [
        "▁󰋇󰋹󰟂",
        -8.867709946859785
      ],
      [
        "▁󰋐󰞺",
        -8.867913541527278
      ],
      [
        "󰟂󰋈",
        -8.869189415382564
      ],
      [
        "▁󰟇󰟈󰞾",
        -8.869263401150842
      ],
      [
        "▁󰠍",
        -8.869583231439103
      ],
      [
        "▁󰠰",
        -8.870336100038385
      ],
      [
        "▁󰞸󰋝",
        -8.87045772564746
      ],
      [
        "▁󰋹󰞽󰋝",
        -8.87075959227935
      ],
      [
        "▁󰌨󰌫",
        -8.871065610123596
      ],
      [
        "▁󰋷󰞿󰟀󰋱",
        -8.871361451429756
      ],
      [
        "󰀇󰊴",
        -8.871761020321784
      ],
      [
        "▁󰟕󰞹󰋩",
        -8.872251544732693
      ],
      [
        "▁󰠣",
        -8.872407674516014
      ],
      [
        "▁󰋖󰋱󰞻󰋩",
        -8.872447459425716
      ],
      [
        "󰟙󰋱",
        -8.87248874642889
      ],
      [
        "▁󰞺󰋺",
        -8.873495636727972
      ],
      [
        "󰡬󰋩",
        -8.8742156790026
      ],
      [
        "▁󰋘",
        -8.875593672953757
      ],
      [
        "▁󰠁󰟂",
        -8.876143799301152
      ],
      [
        "󰟱",
        -8.878862404503774
      ],
      [
        "▁󰟛󰞹󰋱",
        -8.879149704062364
      ],
      [
        "▁󰟅󰋈󰀌",
        -8.879587539642095
      ],
      [
        "▁󰋖󰋱󰟇󰋩",
        -8.88016149290494
      ],
      [
        "▁󰋯󰠙󰋈",
        -8.880737450684636
      ],
      [
        "▁󰋯󰡆󰋳󰟀󰋱",
        -8.881863816838058
      ],
      [
        "▁󰌨󰌭",
        -8.883303489853589
      ],
      [
        "▁󰁁",
        -8.884180297625047
      ],
      [
        "▁󰟌󰞷󰋩󰊴",
        -8.887122458461043
      ],
      [
        "▁󰟀󰟰",
        -8.889856008356332
      ],
      [
        "▁󰌨󰌮",
        -8.890373147142409
      ],
      [
        "▁󰋐󰋗󰠄",
        -8.893680273153189
      ],
      [
        "▁󰋫󰟈󰡯󰟊",
        -8.895050929227944
      ],
      [
        "󰋥󰋯",
        -8.895791821320312
      ],
      [
        "▁󰟎󰟊󰟒",
        -8.897548301300375
      ],
      [
        "▁󰟁󰟍󰞺",
        -8.8988619799668
      ],
      [
        "󰟻",
        -8.899481762817244
      ],
      [
        "▁󰟝󰋩",
        -8.900637703973448
      ],
      [
        "▁󰣂󰢅󰠬󰋱",
        -8.901010087329372
      ],
      [
        "▁󰠛󰟍󰤇󰋧",
        -8.90127625300348
      ],
      [
        "▁󰟙󰞼󰋱",
        -8.901541705213097
      ],
      [
        "▁󰋘󰣍󰋱",
        -8.901814102255905
      ],
      [
        "▁󰡃󰋺󰢣󰟊󰟀󰋱",
        -8.901883860184356
      ],
      [
        "▁󰋖󰋱󰟇󰊴",
        -8.901935637973958
      ],
      [
        "▁󰟻󰠉",
        -8.903365537681607
      ],
      [
        "▁󰟇󰠕",
        -8.90428230825809
      ],
      [
        "▁󰠊󰋨󰟀󰋱",
        -8.905234258608884
      ],
      [
        "󰋦",
        -8.905367659765927
      ],
      [
        "▁󰋭󰣚",
        -8.905683257051319
      ],
      [
        "▁󰋇󰞹",
        -8.907580014779578
      ],
      [
        "▁󰟐󰟀",
        -8.907716311300055
      ],
      [
        "▁󰌨󰌨",
        -8.909028677247958
      ],
      [
        "▁󰠃󰟔󰌏󰟏",
        -8.911681354834064
      ],
      [
        "▁󰞸󰤋󰋱",
        -8.912277878140795
      ],
      [
        "▁󰋫󰟈󰋖󰡣󰞹",
        -8.912347839061674
      ],
      [
        "▁󰠀󰟋",
        -8.912426626290339
      ],
      [
        "▁󰟛󰋖󰞻",
        -8.912923318548305
      ],
      [
        "▁󰠒󰟻󰠒󰋘",
        -8.9140903879543
      ],
      [
        "▁󰋐󰟄󰋱",
        -8.914467330894931
      ],
      [
        "▁󰟊󰋩󰟒",
        -8.916864692386689
      ],
      [
        "󰤢",
        -8.918358791491304
      ],
      [
        "▁󰋫󰟈󰋤󰋥",
        -8.91890151724358
      ],
      [
        "▁󰟿󰡎󰟀󰋱",
        -8.919581790482914
      ],
      [
        "󰠡",
        -8.919917131773785
      ],
      [
        "▁󰋷󰋺󰞷󰋱",
        -8.920166005822177
      ],
      [
        "▁󰋯󰟅󰋱",
        -8.920996909111308
      ],
      [
        "▁󰟀󰠉󰋱",
        -8.921598785477787
      ],
      [
        "▁󰟘󰋩",
        -8.925069663428
      ],
      [
        "▁󰋹󰟀󰋱",
        -8.927551758121291
      ],
      [
        "▁󰟿󰟅",
        -8.929099109634016
      ],
      [
        "▁󰋩󰡚󰋱",
        -8.929285376384259
      ],
      [
        "▁󰟑󰞾󰟉󰋩",
        -8.930409020948588
      ],
      [
        "▁󰟓󰢀󰌠",
        -8.930903963074297
      ],
      [
        "▁󰋆󰟯󰡻󰟅",
        -8.931429557180147
      ],
      [
        "▁󰋹󰋧󰋱",
        -8.933170510071626
      ],
      [
        "▁󰋫󰟈󰟢󰋳󰋖",
        -8.93330988823595
      ],
      [
        "▁󰋙󰞷󰋱",
        -8.934595488370816
      ],
      [
        "󰟷",
        -8.93465746942791
      ],
      [
        "▁󰟄󰡀",
        -8.935014580199322
      ],
      [
        "▁󰟮󰟶",
        -8.935069366024946
      ],
      [
        "▁󰠌󰣃󰋩",
        -8.936261713255753
      ],
      [
        "▁󰠳󰟋󰋱",
        -8.937700608693097
      ],
      [
        "▁󰋇󰡢󰋺󰋱",
        -8.937857997306692
      ],
      [
        "▁󰟄󰋺",
        -8.937915204220445
      ],
      [
        "▁󰋩󰠵",
        -8.938912599127768
      ],
      [
        "▁󰋐󰋯",
        -8.93977812557008
      ],
      [
        "▁󰟢󰋈",
        -8.940229567149093
      ],
      [
        "▁󰋺󰋈󰟇󰊴",
        -8.940640146327242
      ],
      [
        "▁󰋜󰠉󰞾",
        -8.942201838117214
      ],
      [
        "▁󰟎󰞼󰋱",
        -8.943217890179781
      ],
      [
        "▁󰋊󰋫󰞷",
        -8.94445039570861
      ],
      [
        "▁󰋖󰞷󰟚󰞻󰋩󰊴",
        -8.945498629370853
      ],
      [
        "▁󰠌󰋦󰟗󰋖",
        -8.947811473980208
      ],
      [
        "▁󰟜󰟅",
        -8.948033489716199
      ],
      [
        "▁󰟻",
        -8.948126692402992
      ],
      [
        "▁󰡥󰟗󰞼",
        -8.948321144237813
      ],
      [
        "▁󰟮󰋱󰤉󰋱",
        -8.950081789163766
      ],
      [
        "▁󰋆󰟊󰟈󰠓",
        -8.95373454931842
      ],
      [
        "▁󰋯󰟷󰟼",
        -8.953923874508721
      ],
      [
        "▁󰋹󰋯󰞾󰋱",
        -8.953928322540971
      ],
      [
        "▁󰋺󰋈󰟆󰟉󰊴",
        -8.954221921089498
      ],
      [
        "▁󰞿󰟦",
        -8.956015847154557
      ],
      [
        "▁󰞸󰋩",
        -8.956138409561008
      ],
      [
        "▁󰋖󰟈󰞻",
        -8.956784400793618
      ],
      [
        "▁󰟂󰋯󰞿",
        -8.956850151863836
      ],
      [
        "▁󰟕󰌠󰟻",
        -8.958544553641664
      ],
      [
        "▁󰡲󰠎",
        -8.958848086475298
      ],
      [
        "▁󰋆󰡣",
        -8.958969025862956
      ],
      [
        "▁󰠚󰠓",
        -8.95905739620662
      ],
      [
        "▁󰋇󰋺󰋥",
        -8.9592451983495
      ],
      [
        "▁󰟺󰟃󰟰",
        -8.96812987897883
      ],
      [
        "▁󰋝󰟅󰋱",
        -8.968691879347817
      ],
      [
        "▁󰋹󰣞󰋺",
        -8.968895879535568
      ],
      [
        "▁󰋺󰋈󰟆󰟉",
        -8.970550635719748
      ],
      [
        "▁󰋊󰠃󰋥",
        -8.97168803032473
      ],
      [
        "󰣢",
        -8.972684376337668
      ],
      [
        "▁󰋭󰌠󰋹",
        -8.973835050064793
      ],
      [
        "▁󰋫󰋧",
        -8.97403212297715
      ],
      [
        "▁󰤧󰋳",
        -8.975283366391952
      ],
      [
        "▁󰢣󰠸",
        -8.976243686602746
      ],
      [
        "▁󰋹󰋺󰋝",
        -8.976597855893445
      ],
      [
        "▁󰞿󰡷󰋛󰟅",
        -8.976645320794312
      ],
      [
        "󰠹󰋫",
        -8.97764267381847
      ],
      [
        "▁󰟑󰞻",
        -8.97969411627109
      ],
      [
        "▁󰟤󰠇󰋖",
        -8.9829230337952
      ],
      [
        "▁󰋈󰋊󰞿󰌠󰋩",
        -8.983794120806435
      ],
      [
        "▁󰋆󰠢󰋖",
        -8.984801891552848
      ],
      [
        "▁󰋥󰟛",
        -8.985125328013323
      ],
      [
        "▁󰋯󰢐",
        -8.985275341749936
      ],
      [
        "󰟓",
        -8.987107547811013
      ],
      [
        "▁󰋹󰥺󰋭󰞹",
        -8.987855763586753
      ],
      [
        "▁󰋊󰋫",
        -8.988582822087823
      ],
      [
        "󰀼󰁎",
        -8.989125225602972
      ],
      [
        "▁󰢗󰡩",
        -8.989486125516088
      ],
      [
        "▁󰋹󰤈󰟊",
        -8.989578624862013
      ],
      [
        "▁󰟎󰡖󰋭",
        -8.989926366220697
      ],
      [
        "▁󰟳",
        -8.992259837758404
      ],
      [
        "▁󰞽󰟅",
        -8.992316800629768
      ],
      [
        "▁󰋺󰋈󰋳󰊴",
        -8.993256620472556
      ],
      [
        "▁󰋊󰤨󰢖",
        -8.993780738383238
      ],
      [
        "▁󰞽󰟐󰋱",
        -8.993944763809315
      ],
      [
        "▁󰟳󰠪󰋺",
        -8.995636446070087
      ],
      [
        "▁󰋐󰋯󰋩󰟔",
        -8.99606703175873
      ],
      [
        "▁󰋱󰋛󰞹",
        -8.997787145568177
      ],
      [
        "▁󰟲󰠣󰋔",
        -8.998130282255119
      ],
      [
        "▁󰟏󰞽󰟭",
        -8.998194091907166
      ],
      [
        "▁󰠭󰤂",
        -9.000917726126369
      ],
      [
        "󰟛",
        -9.001594888021236
      ],
      [
        "▁󰋫󰟈󰟀󰋱",
        -9.003233282965216
      ],
      [
        "▁󰟕󰞿󰞾",
        -9.003681060828356
      ],
      [
        "󰞼󰞻",
        -9.00400908642534
      ],
      [
        "▁󰟨󰟉󰀌",
        -9.004574065042034
      ],
      [
        "▁󰞿󰊴",
        -9.005032090469705
      ],
      [
        "▁󰋖󰠿󰋩",
        -9.0059569294083
      ],
      [
        "▁󰟎󰟢󰋱",
        -9.007973384961725
      ],
      [
        "▁󰋇󰟨󰋱",
        -9.00803015853635
      ],
      [
        "▁󰟁󰟍󰟂",
        -9.009232515270462
      ],
      [
        "󰟙󰋈",
        -9.009637935974942
      ],
      [
        "▁󰞽󰟯󰋸󰞺",
        -9.009709322002054
      ],
      [
        "▁󰋹󰋖󰞻󰋱",
        -9.010008657501546
      ],
      [
        "▁󰟋󰋳",
        -9.01036736627862
      ],
      [
        "▁󰟔󰠜󰟙",
        -9.010962114406507
      ],
      [
        "▁󰌨󰌯",
        -9.01111864925962
      ],
      [
        "▁󰟌󰞷󰀌",
        -9.01158265824732
      ],
      [
        "▁󰟤󰡣",
        -9.012179766734201
      ],
      [
        "▁󰟡󰞺󰋱",
        -9.014495374623584
      ],
      [
        "▁󰞸󰣦",
        -9.015585183430854
      ],
      [
        "▁󰋇󰟇󰋧󰋩",
        -9.016284135769737
      ],
      [
        "▁󰋭󰋳󰟉󰋩󰀌",
        -9.017237966133413
      ],
      [
        "󰌝",
        -9.0189215977031
      ],
      [
        "󰟪",
        -9.021000744114794
      ],
      [
        "󰠎",
        -9.02160645978282
      ],
      [
        "▁󰋖󰟗󰟒󰋱",
        -9.02171564968375
      ],
      [
        "▁󰋷󰟴󰋱",
        -9.022038913477902
      ],
      [
        "▁󰋢󰀎",
        -9.023161685409837
      ],
      [
        "▁󰋐󰋈󰠹󰋫",
        -9.023919949454871
      ],
      [
        "▁󰋇󰟥󰟆",
        -9.024029431125694
      ],
      [
        "▁󰟏󰠕",
        -9.026124652967397
      ],
      [
        "▁󰟎󰢿󰋥",
        -9.027786527153841
      ],
      [
        "▁󰋧󰋷",
        -9.027809556075779
      ],
      [
        "󰠏",
        -9.029695828519733
      ],
      [
        "▁󰞿󰋝󰠱",
        -9.030087985566235
      ],
      [
        "▁󰟄󰡀󰟂",
        -9.031039527591117
      ],
      [
        "▁󰋺󰞾󰟉󰋩",
        -9.033081621418432
      ],
      [
        "󰟚",
        -9.034865297695857
      ],
      [
        "▁󰟂󰋯󰋩",
        -9.035047547652486
      ],
      [
        "󰀈",
        -9.035745346592453
      ],
      [
        "▁󰞹󰋯󰋖",
        -9.036031688549798
      ],
      [
        "▁󰋆󰋭󰢖󰋈",
        -9.036440195235741
      ],
      [
        "▁󰡕󰟜",
        -9.036494616078862
      ],
      [
        "▁󰠽󰟓󰟃󰋖",
        -9.036752717932012
      ],
      [
        "▁󰟳󰠈",
        -9.037668408341014
      ],
      [
        "▁󰟕󰞹󰠄",
        -9.03773930178168
      ],
      [
        "󰟤",
        -9.038178957142119
      ],
      [
        "󰟘",
        -9.03822314232647
      ],
      [
        "󰠣",
        -9.038537533689151
      ],
      [
        "▁󰋈󰋊󰞿󰌠󰟅󰋱",
        -9.038556750485474
      ],
      [
        "▁󰋫󰟈",
        -9.040073603066665
      ],
      [
        "▁󰠞󰠋",
        -9.041524136091917
      ],
      [
        "▁󰋆󰟅󰞺󰋈",
        -9.042007689023688
      ],
      [
        "▁󰋯󰟪󰟋",
        -9.042100607056996
      ],
      [
        "▁󰡿󰋯",
        -9.04417905546691
      ],
      [
        "▁󰋧󰋱󰞼󰋱",
        -9.04418805754431
      ],
      [
        "▁󰋖󰟫󰋩󰊴",
        -9.045065836998852
      ],
      [
        "▁󰠑󰟍󰞺",
        -9.04526281002964
      ],
      [
        "▁󰋆󰟅󰞺",
        -9.045734118834211
      ],
      [
        "▁󰠆󰡌󰟏",
        -9.046930491964616
      ],
      [
        "󰋝󰋩",
        -9.047233363557483
      ],
      [
        "▁󰞽󰡪",
        -9.04901208195835
      ],
      [
        "▁󰢸󰞷",
        -9.04903036638086
      ],
      [
        "▁󰡕󰋯",
        -9.049390325534478
      ],
      [
        "▁󰟏󰟪󰡈",
        -9.049510037881738
      ],
      [
        "󰟑󰟨󰋱",
        -9.049991838196698
      ],
      [
        "▁󰞽󰦊",
        -9.050139397648788
      ],
      [
        "▁󰟘󰠤󰊴",
        -9.050412329272291
      ],
      [
        "󰢓",
        -9.052355183600433
      ],
      [
        "▁󰟕",
        -9.053298814864636
      ],
      [
        "▁󰟐󰟑󰋩",
        -9.05376935753101
      ],
      [
        "▁󰋰󰟣󰠸",
        -9.053895708470902
      ],
      [
        "▁󰋐󰟋󰞼",
        -9.054571787734567
      ],
      [
        "▁󰟀󰟕󰋱",
        -9.055152162176167
      ],
      [
        "▁󰋆󰟲󰟘󰋩",
        -9.055735797790858
      ],
      [
        "▁󰋆󰟲󰋩󰌠",
        -9.055861589876972
      ],
      [
        "▁󰋯󰟂",
        -9.0564649444933
      ],
      [
        "▁󰟢󰌠",
        -9.056561542898185
      ],
      [
        "󰠬",
        -9.056623218559185
      ],
      [
        "▁󰟢󰡛",
        -9.05679395337588
      ],
      [
        "󰤓",
        -9.058384426241158
      ],
      [
        "▁󰟱󰣐",
        -9.05862965780292
      ],
      [
        "▁󰟄󰡀󰟆",
        -9.059710712801046
      ],
      [
        "▁󰋹󰞽󰟦󰋱",
        -9.062023331209689
      ],
      [
        "▁󰌩󰌬",
        -9.062184665458735
      ],
      [
        "▁󰟅󰟆",
        -9.062863846069064
      ],
      [
        "▁󰋊󰠥󰌠󰋩",
        -9.063896149199103
      ],
      [
        "▁󰟃󰟶󰡨",
        -9.064888236100906
      ],
      [
        "▁󰞸󰋯",
        -9.066203845878631
      ],
      [
        "▁󰟑󰋳",
        -9.067158410588142
      ],
      [
        "▁󰋺󰋔󰟆󰌠",
        -9.067519711773775
      ],
      [
        "▁󰥙󰟦",
        -9.067680551324642
      ],
      [
        "󰠅",
        -9.06787567269102
      ],
      [
        "▁󰋱󰠓",
        -9.068233793393462
      ],
      [
        "▁󰟁󰟍󰞸",
        -9.070343328078382
      ],
      [
        "▁󰋫󰋱󰋭󰤀",
        -9.070693171063217
      ],
      [
        "▁󰋺󰋖",
        -9.071196307316665
      ],
      [
        "▁󰠌󰣨",
        -9.071614711280398
      ],
      [
        "▁󰋐󰞼󰠢󰋖",
        -9.072417777978123
      ],
      [
        "󰠭󰋥",
        -9.072811533845742
      ],
      [
        "▁󰡉󰞻",
        -9.07339469832336
      ],
      [
        "▁󰋘󰋡󰋩",
        -9.073881079443302
      ],
      [
        "▁󰋆󰋫󰋱",
        -9.073972024543554
      ],
      [
        "▁󰤷󰡑󰟴",
        -9.074003067901506
      ],
      [
        "▁󰤺󰟒󰋷",
        -9.074231612904038
      ],
      [
        "▁󰋝󰟗",
        -9.078278339942703
      ],
      [
        "▁󰤱󰋗",
        -9.078332010028072
      ],
      [
        "▁󰟃󰡋󰟃󰢏󰋳󰌠",
        -9.079934273002069
      ],
      [
        "▁󰋇󰟡",
        -9.08094157574402
      ],
      [
        "▁󰟪",
        -9.08159890312736
      ],
      [
        "󰋯󰌠",
        -9.081626952775164
      ],
      [
        "▁󰟕󰞿󰞾󰟉󰋩",
        -9.081925787083488
      ],
      [
        "▁󰡲󰋛",
        -9.082006013497095
      ],
      [
        "▁󰋇󰡑󰞿󰋖",
        -9.082649028813186
      ],
      [
        "▁󰋹󰦹󰣠",
        -9.083617426021783
      ],
      [
        "▁󰋥󰠊",
        -9.084275954706648
      ],
      [
        "▁󰋐󰟐󰟉",
        -9.084731658810938
      ],
      [
        "▁󰞹󰟜󰋱",
        -9.086270665437345
      ],
      [
        "󰋘󰋥",
        -9.086294842523644
      ],
      [
        "▁󰞿󰞸󰋫󰤒",
        -9.0864112293345
      ],
      [
        "▁󰟞󰞸󰋫",
        -9.087913546629277
      ],
      [
        "󰞽󰋩",
        -9.088650852338112
      ],
      [
        "▁󰞽󰞾󰋱",
        -9.089517035023084
      ],
      [
        "▁󰋖󰠸",
        -9.089935774165449
      ],
      [
        "▁󰟎󰠭󰋥",
        -9.092250925632069
      ],
      [
        "▁󰟘󰋩󰊴",
        -9.0936652596827
      ],
      [
        "󰟵󰟡󰋱",
        -9.093821871443245
      ],
      [
        "▁󰋊󰠓",
        -9.094948332898129
      ],
      [
        "▁󰡇󰥵",
        -9.09497830866781
      ],
      [
        "▁󰋥󰋧󰟷",
        -9.096259322285919
      ],
      [
        "▁󰋖󰟈󰞻󰋩󰊴",
        -9.096381565267171
      ],
      [
        "▁󰟏󰋥",
        -9.096919860657248
      ],
      [
        "▁󰞽󰋩",
        -9.097985379217373
      ],
      [
        "▁󰟶󰋘",
        -9.098359363557806
      ],
      [
        "▁󰟏󰋳",
        -9.098483431060298
      ],
      [
        "▁󰌬󰌧",
        -9.098859182232085
      ],
      [
        "󰡛",
        -9.099111046847442
      ],
      [
        "▁󰟏󰋯󰟈󰋖",
        -9.099455682259284
      ],
      [
        "▁󰋫󰟄",
        -9.100045374195352
      ],
      [
        "▁󰋇󰠊",
        -9.100057367767448
      ],
      [
        "▁󰟑󰞾󰟉󰊴",
        -9.100643803907914
      ],
      [
        "▁󰋖󰋳󰞼󰟁",
        -9.101912763734232
      ],
      [
        "▁󰣎󰋩",
        -9.102141221391136
      ],
      [
        "▁󰞿󰌠󰋯",
        -9.104465501704695
      ],
      [
        "▁󰋇󰋱󰢬",
        -9.106426343524946
      ],
      [
        "▁󰋆󰋥󰋐󰋭",
        -9.106545145256515
      ],
      [
        "▁󰠭󰣖",
        -9.107237534040317
      ],
      [
        "󰟀󰠊",
        -9.10914519745135
      ],
      [
        "▁󰡘󰋘",
        -9.110071027689706
      ],
      [
        "▁󰋇󰋈",
        -9.111065156930925
      ],
      [
        "▁󰟢󰟖󰞾",
        -9.111716712198113
      ],
      [
        "▁󰟀󰟕󰞷",
        -9.112082746506434
      ],
      [
        "▁󰋩󰠵󰋱",
        -9.112128367110094
      ],
      [
        "▁󰋭󰟖",
        -9.112425853830244
      ],
      [
        "▁󰋝󰋩󰊴",
        -9.112575930648
      ],
      [
        "▁󰟀󰟔",
        -9.112678913993767
      ],
      [
        "▁󰋗󰋱󰋛",
        -9.112845964679538
      ],
      [
        "▁󰠍󰟁",
        -9.113603397973437
      ],
      [
        "▁󰟵󰟖",
        -9.114309495815968
      ],
      [
        "▁󰋔󰟄󰋱",
        -9.1143471705192
      ],
      [
        "▁󰋖󰟃󰟁",
        -9.115341887563844
      ],
      [
        "▁󰟵󰋤",
        -9.115884810260605
      ],
      [
        "▁󰠀󰟂",
        -9.11695376982633
      ],
      [
        "▁󰋇󰋠󰋖",
        -9.11824123253229
      ],
      [
        "▁󰋇󰤝󰋳󰋩",
        -9.118287256153732
      ],
      [
        "▁󰟃󰞸󰋠",
        -9.119219152847464
      ],
      [
        "▁󰠡󰋘",
        -9.119422045074064
      ],
      [
        "▁󰋭󰞻󰟉󰋩",
        -9.119748189052045
      ],
      [
        "▁󰡯󰋱",
        -9.11992722735755
      ],
      [
        "▁󰞼󰟡",
        -9.12263360354455
      ],
      [
        "▁󰞿󰦈󰠸",
        -9.122656336560999
      ],
      [
        "▁󰟸󰢶",
        -9.122671722872818
      ],
      [
        "▁󰋖󰟈󰊴",
        -9.122743367548932
      ],
      [
        "▁󰠴󰋫󰋖",
        -9.123326286468624
      ],
      [
        "▁󰋫󰞸󰋯󰡸",
        -9.123552339955486
      ],
      [
        "▁󰡫󰡝",
        -9.124305036272945
      ],
      [
        "▁󰟀󰡊",
        -9.124355214134027
      ],
      [
        "▁󰢼󰤃",
        -9.125724410027226
      ],
      [
        "▁󰠱󰨐",
        -9.126360729316886
      ],
      [
        "▁󰠷󰣙",
        -9.126567248573659
      ],
      [
        "▁󰋇󰌠",
        -9.126672224847953
      ],
      [
        "▁󰟼󰠘󰋱",
        -9.127304240568742
      ],
      [
        "▁󰋇󰢑󰌠",
        -9.128947318037161
      ],
      [
        "▁󰢁󰞺󰋠",
        -9.130365558484694
      ],
      [
        "▁󰋷󰋺󰞷",
        -9.130379628028004
      ],
      [
        "▁󰟃󰟃󰟥",
        -9.13053403588146
      ],
      [
        "▁󰋧󰞻",
        -9.130808292460074
      ],
      [
        "▁󰋭󰋳󰞻󰋩",
        -9.130872723709183
      ],
      [
        "󰧯",
        -9.131675241298005
      ],
      [
        "󰀎󰀎󰀎",
        -9.131712466436241
      ],
      [
        "▁󰋫󰢪󰋯",
        -9.13282184782736
      ],
      [
        "▁󰋛󰥈󰡕󰋯",
        -9.132993929640525
      ],
      [
        "▁󰞺󰋩󰀟",
        -9.13350379160896
      ],
      [
        "▁󰠴󰡵",
        -9.13447588544782
      ],
      [
        "󰠛",
        -9.13451108110744
      ],
      [
        "▁󰟍󰟈󰞾",
        -9.135063905326616
      ],
      [
        "▁󰋫󰢝󰞾",
        -9.13514154631777
      ],
      [
        "▁󰞻󰋗󰋖",
        -9.13537524534868
      ],
      [
        "󰠻",
        -9.136057078152785
      ],
      [
        "▁󰋰",
        -9.137220036504404
      ],
      [
        "▁󰋇󰟏󰋱",
        -9.137449983144615
      ],
      [
        "▁󰞿󰣓󰋤",
        -9.138558953642086
      ],
      [
        "▁󰢇󰟘",
        -9.139550798969838
      ],
      [
        "▁󰢥󰌠",
        -9.139953948210078
      ],
      [
        "▁󰟎󰟊󰤤󰋥",
        -9.140580514496913
      ],
      [
        "▁󰋆󰣰󰋩",
        -9.140581239343692
      ],
      [
        "▁󰋆󰟯󰋯󰟊",
        -9.14063940509326
      ],
      [
        "󰞺󰋈",
        -9.141112512623975
      ],
      [
        "▁󰠌󰡽",
        -9.142797718476372
      ],
      [
        "▁󰟄",
        -9.143476376627678
      ],
      [
        "▁󰟤󰞼󰋱",
        -9.144020021720175
      ],
      [
        "▁󰠰󰋳",
        -9.144099404044113
      ],
      [
        "▁󰋭󰞻󰋈",
        -9.144157569655299
      ],
      [
        "▁󰟑󰞻󰋩",
        -9.14422431399358
      ],
      [
        "󰡍",
        -9.144678866649086
      ],
      [
        "▁󰋫󰟽",
        -9.144824219185875
      ],
      [
        "▁󰡳󰋖",
        -9.144960884884947
      ],
      [
        "▁󰋫󰠕󰊴",
        -9.145232366612754
      ],
      [
        "▁󰟘󰟄󰋱",
        -9.146607764853687
      ],
      [
        "▁󰟃󰞽󰋩",
        -9.146733252737675
      ],
      [
        "▁󰋹󰢱󰋩",
        -9.148239591364185
      ],
      [
        "▁󰠈󰋫󰋩",
        -9.1484763572787
      ],
      [
        "▁󰋹󰟓󰌠",
        -9.148595479847637
      ],
      [
        "▁󰋭󰋜󰞷",
        -9.149095773232007
      ],
      [
        "▁󰋷󰋺󰋱",
        -9.14925505796592
      ],
      [
        "▁󰋇󰡎󰋯󰋤",
        -9.149414740506074
      ],
      [
        "▁󰠺󰣬",
        -9.14975932453429
      ],
      [
        "▁󰞸󰟞󰋱",
        -9.150848637848272
      ],
      [
        "▁󰟕󰟊󰋱",
        -9.151179092904204
      ],
      [
        "󰡗",
        -9.151283259301351
      ],
      [
        "▁󰟾󰟊",
        -9.15299591832635
      ],
      [
        "▁󰠀󰞾",
        -9.154696392437918
      ],
      [
        "󰞼󰋳",
        -9.155545123653557
      ],
      [
        "▁󰟇󰟋",
        -9.155741937245567
      ],
      [
        "▁󰋫󰟈󰠃󰋥",
        -9.156177005250205
      ],
      [
        "▁󰟌󰋱󰟇",
        -9.15956803075331
      ],
      [
        "▁󰋧󰡸󰋩",
        -9.159928037060965
      ],
      [
        "▁󰋐󰋳",
        -9.160022513135448
      ],
      [
        "▁󰞺󰠂",
        -9.16228550940495
      ],
      [
        "▁󰟔󰞹",
        -9.163473225452718
      ],
      [
        "▁󰋇󰟋󰟝",
        -9.164159743185984
      ],
      [
        "▁󰟃󰟦󰠍",
        -9.1649853814085
      ],
      [
        "▁󰋮",
        -9.165704989439085
      ],
      [
        "▁󰟵󰟫",
        -9.16596779383306
      ],
      [
        "▁󰋺󰟀󰋱",
        -9.166802790480599
      ],
      [
        "▁󰋖󰋱󰋳",
        -9.16906358222281
      ],
      [
        "▁󰋇󰟐󰊴",
        -9.170289863276073
      ],
      [
        "󰠵",
        -9.170370506200051
      ],
      [
        "▁󰣇󰋬󰟁󰋱",
        -9.170419047928627
      ],
      [
        "▁󰠃󰠿",
        -9.170884675294745
      ],
      [
        "▁󰟞󰣊",
        -9.17156219313915
      ],
      [
        "▁󰟎󰟊󰡻󰋩",
        -9.171843397281917
      ],
      [
        "▁󰟧",
        -9.171906129458991
      ],
      [
        "▁󰞽󰋩󰋭",
        -9.172203276910956
      ],
      [
        "󰡞",
        -9.172796065560282
      ],
      [
        "▁󰋭󰢿",
        -9.172962705363341
      ],
      [
        "󰠷",
        -9.172970221597582
      ],
      [
        "▁󰋖󰟛󰌠",
        -9.173118154103953
      ],
      [
        "▁󰠇󰟊",
        -9.173257445277113
      ],
      [
        "▁󰟃󰟱󰋳",
        -9.173647539468432
      ],
      [
        "▁󰋺󰋰󰋱󰋥",
        -9.173855715636831
      ],
      [
        "▁󰋇󰟵󰋩",
        -9.174124250376249
      ],
      [
        "▁󰋇󰡙󰋝󰋩",
        -9.176235344048528
      ],
      [
        "▁󰟓",
        -9.176327613864936
      ],
      [
        "▁󰟕󰟊",
        -9.177250257586428
      ],
      [
        "▁󰠁󰋜󰟅",
        -9.180254100249243
      ],
      [
        "▁󰟱",
        -9.180905458524595
      ],
      [
        "▁󰋊󰤨󰦩",
        -9.182610509980808
      ],
      [
        "▁󰋇󰟉󰋩",
        -9.182650570622288
      ],
      [
        "▁󰢆󰋳",
        -9.183170682606157
      ],
      [
        "▁󰋭󰌏󰋹󰋱",
        -9.184274583017347
      ],
      [
        "▁󰋹󰟍󰌠󰟁",
        -9.184321917003677
      ],
      [
        "▁󰋫󰟈󰟢󰋳󰞹",
        -9.18459730816345
      ],
      [
        "▁󰋘󰟇󰋸󰠶",
        -9.184757137099883
      ],
      [
        "▁󰟎󰣪󰋖",
        -9.185398668450754
      ],
      [
        "▁󰟐󰟒",
        -9.185555760196324
      ],
      [
        "▁󰨰",
        -9.185925007593472
      ],
      [
        "▁󰋔󰞸",
        -9.186335811197914
      ],
      [
        "󰡆",
        -9.186546110343382
      ],
      [
        "▁󰟎󰡹󰋱",
        -9.188738380548731
      ],
      [
        "󰟦󰋱",
        -9.189981399445427
      ],
      [
        "▁󰋧󰋱󰟕",
        -9.190540943213799
      ],
      [
        "▁󰟏󰠖󰋭",
        -9.190612316034306
      ],
      [
        "▁󰋔󰟆",
        -9.190968432839956
      ],
      [
        "▁󰟁󰟔󰞾",
        -9.192479703717785
      ],
      [
        "▁󰋛󰋳󰦫󰠋",
        -9.193228118117581
      ],
      [
        "󰋹󰠺󰋺",
        -9.194411088355297
      ],
      [
        "▁󰟬󰠓",
        -9.194420179173482
      ],
      [
        "▁󰢕󰋱",
        -9.195265305253363
      ],
      [
        "▁󰋹󰋯",
        -9.19560543174848
      ],
      [
        "▁󰋐󰠹󰋫",
        -9.196088892777855
      ],
      [
        "▁󰟃󰟀󰋺",
        -9.196810238825888
      ],
      [
        "▁󰀟󰀂",
        -9.201266269395946
      ],
      [
        "󰋨",
        -9.201687545833277
      ],
      [
        "▁󰋖󰋗󰋩",
        -9.203083978856865
      ],
      [
        "▁󰠨󰥎",
        -9.203926455977296
      ],
      [
        "▁󰋭󰟖󰞻󰋩󰀌",
        -9.204389521370498
      ],
      [
        "▁󰟍󰟏󰋩",
        -9.20460682565277
      ],
      [
        "▁󰥀󰟉",
        -9.205856536050057
      ],
      [
        "▁󰥄󰣇󰋹",
        -9.206074399590822
      ],
      [
        "▁󰋆󰟭󰟑󰞺",
        -9.206401845640857
      ],
      [
        "▁󰋜󰌠",
        -9.206595803865891
      ],
      [
        "▁󰡞󰟓󰟇",
        -9.206970218866246
      ],
      [
        "▁󰠏󰞽󰋱",
        -9.207502589576126
      ],
      [
        "▁󰋇󰋫󰋩",
        -9.209188159394904
      ],
      [
        "▁󰟮",
        -9.209816242895698
      ],
      [
        "▁󰠆",
        -9.20982343261338
      ],
      [
        "▁󰡤󰋩",
        -9.210765105270902
      ],
      [
        "▁󰡭󰋥",
        -9.211082627334115
      ],
      [
        "󰠃",
        -9.212192988332502
      ],
      [
        "▁󰟃󰡌󰋩",
        -9.212420185503385
      ],
      [
        "▁󰋹󰋖󰞻󰋈",
        -9.21267955492122
      ],
      [
        "▁󰋆󰤴",
        -9.214046668336414
      ],
      [
        "▁󰋹󰋯󰠮󰋩",
        -9.214072506232242
      ],
      [
        "▁󰋆󰟯",
        -9.214753489632058
      ],
      [
        "▁󰋆󰟷󰋥",
        -9.214859350952546
      ],
      [
        "▁󰟀󰋧",
        -9.215650995657471
      ],
      [
        "󰟵",
        -9.215912551232915
      ],
      [
        "▁󰟦󰞹󰞷󰋳",
        -9.216746373235102
      ],
      [
        "▁󰟌󰟔󰡖󰟅󰋱",
        -9.217503543597296
      ],
      [
        "▁󰢢󰠀󰋱",
        -9.219099571657258
      ],
      [
        "▁󰟰󰋱󰋤",
        -9.220419178739292
      ],
      [
        "▁󰠅󰋳󰞹󰌠",
        -9.220502579013486
      ],
      [
        "▁󰟍󰋯󰟋",
        -9.220855443514298
      ],
      [
        "▁󰋨󰋱󰠐󰋱",
        -9.222054509550038
      ],
      [
        "▁󰋝󰞽",
        -9.22257285594265
      ],
      [
        "▁󰋩󰠸",
        -9.22395753730589
      ],
      [
        "▁󰥷󰋥󰋩",
        -9.225174790794712
      ],
      [
        "▁󰟃󰋐󰋩󰠍",
        -9.225241100438192
      ],
      [
        "▁󰋖󰋱󰟉󰋩󰊴",
        -9.225852769209576
      ],
      [
        "▁󰋫󰟃󰠋",
        -9.225860266311422
      ],
      [
        "▁󰟃󰋐󰋩󰠍󰋱",
        -9.226660542677399
      ],
      [
        "▁󰋹󰟓",
        -9.228280110141606
      ],
      [
        "󰁅󰁄",
        -9.228572153104826
      ],
      [
        "󰋈󰟆",
        -9.228838582350562
      ],
      [
        "󰟝󰋱",
        -9.22919393559138
      ],
      [
        "▁󰠑󰟍󰞸",
        -9.229645039550295
      ],
      [
        "▁󰀊",
        -9.231266877277182
      ],
      [
        "▁󰋫󰟈󰟇󰋷",
        -9.232131084160878
      ],
      [
        "󰟇󰋱",
        -9.232232227521486
      ],
      [
        "▁󰟗󰧬",
        -9.232778168624455
      ],
      [
        "▁󰟍󰟥",
        -9.233303276598152
      ],
      [
        "▁󰟼󰋭󰟏",
        -9.234392666456916
      ],
      [
        "▁󰞸󰤋",
        -9.234909863051925
      ],
      [
        "▁󰠃󰠋",
        -9.235821924642906
      ],
      [
        "▁󰋖󰟜",
        -9.237863625109176
      ],
      [
        "󰀂󰊴",
        -9.238406812826268
      ],
      [
        "▁󰟌󰟔󰡖󰋩",
        -9.238593785809305
      ],
      [
        "▁󰟌󰋡",
        -9.238622990093909
      ],
      [
        "▁󰋖󰥇󰋖",
        -9.23938309474084
      ],
      [
        "▁󰟢󰋫",
        -9.239588850102447
      ],
      [
        "▁󰋐󰋹",
        -9.241485012253525
      ],
      [
        "▁󰟛󰋖󰟇󰊴",
        -9.241542562296495
      ],
      [
        "▁󰟀󰠊",
        -9.241710111757952
      ],
      [
        "▁󰟛󰞼󰌠",
        -9.24180324557018
      ],
      [
        "▁󰟌󰡠󰠄",
        -9.243273340247907
      ],
      [
        "󰢶",
        -9.243344118241106
      ],
      [
        "󰁅",
        -9.244456359524753
      ],
      [
        "▁󰞸󰡖",
        -9.244641157388864
      ],
      [
        "▁󰟼󰠘󰋘󰋥",
        -9.245233839733427
      ],
      [
        "▁󰋫󰋱󰋯",
        -9.245501241820927
      ],
      [
        "▁󰟻󰞾",
        -9.245955866620339
      ],
      [
        "▁󰋇󰟄󰋷",
        -9.246083386444123
      ],
      [
        "▁󰋇󰢡󰋥",
        -9.246371875783918
      ],
      [
        "▁󰟟󰋹󰋭",
        -9.247821953167712
      ],
      [
        "▁󰋆󰢄󰞻",
        -9.248829602718695
      ],
      [
        "▁󰟘󰋈",
        -9.24954291684788
      ],
      [
        "▁󰟛󰞺󰋩󰊴",
        -9.249975198051207
      ],
      [
        "▁󰢃󰋤󰠺󰋳",
        -9.251135742252147
      ],
      [
        "▁󰟌󰋔󰟆󰋱",
        -9.252909963570609
      ],
      [
        "󰀇󰀌",
        -9.254376870993632
      ],
      [
        "▁󰡧󰞹",
        -9.255957773464418
      ],
      [
        "▁󰋙󰠂",
        -9.2563439705096
      ],
      [
        "▁󰋇󰣋",
        -9.257503266691105
      ],
      [
        "▁󰋺󰞻󰋩",
        -9.257935125284375
      ],
      [
        "󰟺",
        -9.258524712607258
      ],
      [
        "▁󰋊󰌏󰟌󰋧󰋩",
        -9.25916367078232
      ],
      [
        "󰡙",
        -9.259287068008891
      ],
      [
        "▁󰋖󰡡",
        -9.25976065548004
      ],
      [
        "▁󰟑",
        -9.259775201776334
      ],
      [
        "▁󰠣󰟐󰡚󰋱",
        -9.260356908063214
      ],
      [
        "▁󰣿󰟀󰟑󰋖",
        -9.260452024545394
      ],
      [
        "▁󰋭󰋩",
        -9.261812685959818
      ],
      [
        "▁󰋭󰟖󰟂",
        -9.262479855043255
      ],
      [
        "▁󰋇󰋧󰡸",
        -9.263384245317443
      ],
      [
        "▁󰟛󰋖󰞻󰋔",
        -9.263580881593967
      ],
      [
        "▁󰠺󰋳󰋥",
        -9.26369874465107
      ],
      [
        "▁󰟱󰋺",
        -9.264323470430773
      ],
      [
        "▁󰟀󰟪󰟾",
        -9.264411527927003
      ],
      [
        "▁󰋹󰠿󰋖",
        -9.26493595168898
      ],
      [
        "▁󰞽󰋜",
        -9.265218005710501
      ],
      [
        "▁󰋙󰠂󰊴",
        -9.266621765381725
      ],
      [
        "▁󰟌󰋈",
        -9.266925999313605
      ],
      [
        "▁󰋫󰋜󰠼",
        -9.267197418293422
      ],
      [
        "▁󰋇󰟝󰋳󰟂",
        -9.267289864965043
      ],
      [
        "󰟸",
        -9.269940700921614
      ],
      [
        "▁󰠰󰟙",
        -9.271659014784598
      ],
      [
        "▁󰟛󰞹󰌠",
        -9.271771672885018
      ],
      [
        "▁󰟕󰟅",
        -9.272722833983053
      ],
      [
        "▁󰋘󰟊",
        -9.274528486421845
      ],
      [
        "▁󰋆󰟓󰋭",
        -9.275439924721027
      ],
      [
        "▁󰥡󰋖",
        -9.27554170283168
      ],
      [
        "▁󰋆󰠧󰟏󰋱",
        -9.275647263414672
      ],
      [
        "▁󰋫󰟈󰥢󰋱",
        -9.276187297558772
      ],
      [
        "▁󰟄󰟆󰋱",
        -9.27647263204751
      ],
      [
        "▁󰋈󰟊",
        -9.276991889213496
      ],
      [
        "▁󰟎󰟊󰟑󰋩",
        -9.278546993932496
      ],
      [
        "▁󰠚󰠓󰞸󰥶󰋱",
        -9.2785931953259
      ],
      [
        "▁󰢯󰞼󰋱",
        -9.278794515540515
      ],
      [
        "▁󰡎󰟜",
        -9.279061342677238
      ],
      [
        "▁󰋝󰋩󰢥󰌠",
        -9.279772032854304
      ],
      [
        "▁󰋆󰠮󰣄󰟊󰋖",
        -9.280419488016683
      ],
      [
        "󰠺󰋳󰋖",
        -9.280580921295128
      ],
      [
        "󰟑󰋩",
        -9.281760396789837
      ],
      [
        "▁󰋖󰟫󰋩",
        -9.283417618855749
      ],
      [
        "▁󰋖󰟃󰋱",
        -9.284991848109174
      ],
      [
        "▁󰞼󰟶",
        -9.285024495626542
      ],
      [
        "󰠰",
        -9.285341264167414
      ],
      [
        "▁󰟀󰤸󰟖",
        -9.286269408403411
      ],
      [
        "▁󰣏󰟋",
        -9.286725430509353
      ],
      [
        "▁󰡤󰟋󰋈",
        -9.286728395861356
      ],
      [
        "▁󰟬󰋹󰋳󰞽󰋩",
        -9.2873964770357
      ],
      [
        "▁󰟛󰞺󰋩",
        -9.288060797327228
      ],
      [
        "▁󰟳󰋹󰋧",
        -9.289256358201692
      ],
      [
        "▁󰞿󰌠󰢌󰋤",
        -9.289598050478945
      ],
      [
        "▁󰟵󰟫󰡓",
        -9.290063023941387
      ],
      [
        "▁󰟟󰠖󰠅",
        -9.292445018227381
      ],
      [
        "▁󰋛󰡶",
        -9.293014239659755
      ],
      [
        "▁󰟺󰢓",
        -9.293632224772285
      ],
      [
        "▁󰡇󰋥󰞷",
        -9.294988369827056
      ],
      [
        "▁󰋇󰧞󰋖",
        -9.295536481948147
      ],
      [
        "▁󰟃󰟤󰠸",
        -9.297095366496915
      ],
      [
        "▁󰟎󰟊󰡻",
        -9.297266023559313
      ],
      [
        "▁󰠴󰟌󰋱",
        -9.297657142048408
      ],
      [
        "▁󰋙󰥽",
        -9.297957633079369
      ],
      [
        "▁󰋊󰋮󰌠",
        -9.298040518716515
      ],
      [
        "󰟽",
        -9.298114631267044
      ],
      [
        "▁󰤟󰢭",
        -9.299155725588758
      ],
      [
        "󰡅",
        -9.299455821841532
      ],
      [
        "▁󰋇󰋫󰞹󰟄󰋱",
        -9.300610082701231
      ],
      [
        "▁󰋐󰟅",
        -9.300904036520025
      ],
      [
        "▁󰟲󰋥󰋱",
        -9.301630545013387
      ],
      [
        "󰠖",
        -9.301745298184334
      ],
      [
        "▁󰋐󰞼",
        -9.30513950769665
      ],
      [
        "󰠦",
        -9.305725314425398
      ],
      [
        "▁󰟎󰡙󰋘",
        -9.305900535146646
      ],
      [
        "▁󰠑󰟍󰟄󰋱",
        -9.306170349535805
      ],
      [
        "▁󰟢󰋩",
        -9.306784446836252
      ],
      [
        "󰟀󰋧",
        -9.306850710847225
      ],
      [
        "▁󰟮󰟖󰋷󰊴",
        -9.307622335228976
      ],
      [
        "▁󰋖󰟗󰟒",
        -9.307992244706353
      ],
      [
        "▁󰋖󰞷󰟚󰋳",
        -9.309081011548122
      ],
      [
        "▁󰠧",
        -9.309564595030281
      ],
      [
        "󰟢",
        -9.311858452574675
      ],
      [
        "▁󰋺󰞾󰟉󰋩󰊴",
        -9.312013319892518
      ],
      [
        "▁󰋺󰠤󰀌",
        -9.312066693143164
      ],
      [
        "▁󰟞󰋔󰟆",
        -9.312187306688736
      ],
      [
        "󰀟󰀇",
        -9.313291641633224
      ],
      [
        "▁󰋖󰡒",
        -9.313754387732036
      ],
      [
        "󰟞",
        -9.316627544323278
      ],
      [
        "▁󰟀󰟪󰟾󰋱",
        -9.317986777984704
      ],
      [
        "▁󰡹󰠘",
        -9.318524057239248
      ],
      [
        "▁󰋝󰟀󰋭",
        -9.319423810285945
      ],
      [
        "▁󰠔󰢼",
        -9.320726317603826
      ],
      [
        "▁󰞿󰌠󰟗󰋥",
        -9.321180210269407
      ],
      [
        "▁󰋺󰋳󰊴",
        -9.32131502347251
      ],
      [
        "▁󰞽󰋩󰟥󰋖",
        -9.321460623061629
      ],
      [
        "▁󰠽󰡨󰋩",
        -9.32220393212348
      ],
      [
        "▁󰟃󰡵󰋥",
        -9.323439809999645
      ],
      [
        "▁󰋈󰋹󰟋󰟜󰋱",
        -9.32358337923596
      ],
      [
        "▁󰋐󰞸",
        -9.325893997502117
      ],
      [
        "▁󰡇󰟇",
        -9.326035109047531
      ],
      [
        "▁󰋭󰋧󰞻",
        -9.326407021482677
      ],
      [
        "▁󰞿󰡷󰡬",
        -9.32745367334969
      ],
      [
        "▁󰋖󰞾󰋖󰋝󰋩",
        -9.327814613088679
      ],
      [
        "▁󰣻󰋧󰌠",
        -9.328412889551018
      ],
      [
        "▁󰋔󰡪",
        -9.328429585870527
      ],
      [
        "󰟆󰋱",
        -9.329167930017402
      ],
      [
        "󰠸",
        -9.329192677822684
      ],
      [
        "▁󰠪󰦕",
        -9.329230858545646
      ],
      [
        "▁󰋹󰞸󰋹󰟈",
        -9.329530944750685
      ],
      [
        "▁󰟘󰢽",
        -9.329679932553697
      ],
      [
        "▁󰟥󰟒",
        -9.330980421615541
      ],
      [
        "▁󰋫󰡏󰟊",
        -9.33200277019729
      ],
      [
        "▁󰋊󰟍",
        -9.332367405414173
      ],
      [
        "󰢘",
        -9.332424642447856
      ],
      [
        "▁󰋹󰋯󰠪",
        -9.33271459113105
      ],
      [
        "󰠓",
        -9.334617962806421
      ],
      [
        "󰠚󰠓",
        -9.335472002091665
      ],
      [
        "▁󰋇󰦻󰋳",
        -9.33559444703851
      ],
      [
        "▁󰞸󰡖󰌠",
        -9.336421776890266
      ],
      [
        "▁󰠬󰋱",
        -9.336493346762726
      ],
      [
        "▁󰋐󰢥󰋳",
        -9.33683694843969
      ],
      [
        "▁󰋇󰧴󰋩",
        -9.336897460174963
      ],
      [
        "▁󰋫󰞷󰋱",
        -9.337047874476687
      ],
      [
        "▁󰠦󰋭",
        -9.337054100385503
      ],
      [
        "▁󰋛󰋳󰟉",
        -9.337385668853567
      ],
      [
        "▁󰞿󰟦󰋈",
        -9.33785454071484
      ],
      [
        "▁󰟛󰞹",
        -9.33888922272565
      ],
      [
        "▁󰋐󰋖󰟛",
        -9.339124723209164
      ],
      [
        "▁󰟎󰋹󰠟",
        -9.33974113474131
      ],
      [
        "▁󰠚󰢍",
        -9.34065830475266
      ],
      [
        "▁󰋹󰡜󰠥",
        -9.340865767349774
      ],
      [
        "▁󰋹󰞽󰋩",
        -9.34086856758605
      ],
      [
        "▁󰞼󰋊󰞺",
        -9.341227805089392
      ],
      [
        "󰋔󰟆",
        -9.341335559376695
      ],
      [
        "▁󰋐󰟓󰟇",
        -9.34233262659764
      ],
      [
        "▁󰋐󰋱󰋖󰋯",
        -9.342799483158027
      ],
      [
        "󰁄",
        -9.342952595430495
      ],
      [
        "▁󰋰󰟛",
        -9.34346118963124
      ],
      [
        "▁󰋆󰟯󰟶󰋨",
        -9.344752945588052
      ],
      [
        "▁󰟢󰋖󰟈",
        -9.345775397271172
      ],
      [
        "▁󰡐󰋖",
        -9.346129047153147
      ],
      [
        "▁󰟑󰞾󰟉󰋩󰊴",
        -9.346209882150639
      ],
      [
        "▁󰟄󰟇",
        -9.347010865250487
      ],
      [
        "▁󰋆󰋬",
        -9.3474687697322
      ],
      [
        "▁󰋹󰌝󰋖",
        -9.348140142637451
      ],
      [
        "󰟎",
        -9.34825384300946
      ],
      [
        "▁󰌩󰌨",
        -9.348966281216816
      ],
      [
        "▁󰠲󰋱",
        -9.349786912031007
      ],
      [
        "▁󰟚󰟡",
        -9.3503130648037
      ],
      [
        "▁󰟙󰞼󰊴",
        -9.351063116124829
      ],
      [
        "▁󰠊󰤁",
        -9.351129492430168
      ],
      [
        "▁󰟺󰋗",
        -9.351499567027382
      ],
      [
        "▁󰞼󰋱",
        -9.352522652480953
      ],
      [
        "▁󰟼󰋭󰣻󰋥",
        -9.353458903759716
      ],
      [
        "▁󰠁",
        -9.35387986659246
      ],
      [
        "▁󰋇󰋳󰋯",
        -9.353908898876178
      ],
      [
        "▁󰌩󰌩",
        -9.354181040783134
      ],
      [
        "󰟠󰋱",
        -9.35425230269502
      ],
      [
        "▁󰠨󰟕",
        -9.354776802675907
      ],
      [
        "▁󰟬󰠀󰋱",
        -9.355205526737498
      ],
      [
        "▁󰡐󰤔󰋱",
        -9.356020319033691
      ],
      [
        "󰟒󰞺",
        -9.357711303207315
      ],
      [
        "󰠔",
        -9.35778602311461
      ],
      [
        "▁󰋊󰠥󰋥",
        -9.358860465587064
      ],
      [
        "▁󰋇󰞼󰋷",
        -9.359433729993151
      ],
      [
        "▁󰟐󰞸",
        -9.359628882387451
      ],
      [
        "▁󰞿󰡷󰠃󰋥",
        -9.361752077799816
      ],
      [
        "󰤶",
        -9.361795919038812
      ],
      [
        "▁󰟗󰞻",
        -9.361834388294428
      ],
      [
        "󰊴󰀼󰁎",
        -9.362032185284338
      ],
      [
        "▁󰟝",
        -9.362088190511729
      ],
      [
        "▁󰁉󰁓",
        -9.362362722607712
      ],
      [
        "▁󰟏󰟝",
        -9.362640189218487
      ],
      [
        "󰁙",
        -9.364427746577986
      ],
      [
        "▁󰞹󰀟",
        -9.364451611210706
      ],
      [
        "▁󰋷󰟴󰞷",
        -9.364696093217072
      ],
      [
        "▁󰟃󰞾󰋱",
        -9.36631771421195
      ],
      [
        "▁󰟲󰢔󰟂",
        -9.366802667451557
      ],
      [
        "▁󰟎󰡙󰋝󰟾󰌠",
        -9.36705123116819
      ],
      [
        "▁󰟒󰞼",
        -9.367284411092824
      ],
      [
        "▁󰋆󰟯󰋮󰋭",
        -9.367419238415016
      ],
      [
        "▁󰞿󰡙󰋘",
        -9.367429586495325
      ],
      [
        "▁󰟅󰢃󰤌",
        -9.36881233498004
      ],
      [
        "▁󰞽󰟖󰋖",
        -9.36930196062559
      ],
      [
        "▁󰟰󰞸",
        -9.369416286276504
      ],
      [
        "▁󰞽󰋯󰟋󰋱",
        -9.370646686930316
      ],
      [
        "▁󰢲󰋸",
        -9.371774647203683
      ],
      [
        "▁󰟗󰀎",
        -9.371809877312028
      ],
      [
        "󰞻󰋩",
        -9.372252272576544
      ],
      [
        "▁󰟔󰟓󰟇",
        -9.374811135580595
      ],
      [
        "▁󰌨󰌰",
        -9.376021085047865
      ],
      [
        "▁󰠆󰞿󰋹",
        -9.37798988415729
      ],
      [
        "▁󰋐󰟐󰟉󰊴",
        -9.378324392572084
      ],
      [
        "󰢞",
        -9.378357303635703
      ],
      [
        "▁󰟃󰋫󰠯",
        -9.378650955487885
      ],
      [
        "▁󰟕󰟯󰟆󰟈",
        -9.37984671267385
      ],
      [
        "▁󰟃󰟓󰋘",
        -9.381828595598494
      ],
      [
        "▁󰋇󰋺󰋯󰋧",
        -9.38198258087425
      ],
      [
        "▁󰋫󰤮",
        -9.381996711306458
      ],
      [
        "▁󰞿󰠎",
        -9.38483073662478
      ],
      [
        "▁󰟼󰌠",
        -9.385424377427505
      ],
      [
        "▁󰋇󰋺󰟜󰋧",
        -9.385530740856607
      ],
      [
        "󰟄󰋭",
        -9.388093489773313
      ],
      [
        "▁󰟱󰣡",
        -9.389318609591749
      ],
      [
        "▁󰋊󰤹󰋩",
        -9.390135685854206
      ],
      [
        "▁󰋭󰞻󰀌",
        -9.390610119480604
      ],
      [
        "▁󰟦󰟋󰌠",
        -9.39080959013823
      ],
      [
        "▁󰋐󰟑󰋩",
        -9.390999288691852
      ],
      [
        "▁󰋮󰠘",
        -9.392313444027863
      ],
      [
        "▁󰟘󰋈󰟂",
        -9.393381742495242
      ],
      [
        "▁󰋳󰟽󰋈",
        -9.394226401746238
      ],
      [
        "▁󰋩󰋭",
        -9.39490029373738
      ],
      [
        "▁󰋯󰋯󰟁",
        -9.395248688183187
      ],
      [
        "▁󰠰󰋫󰋩",
        -9.3953888555086
      ],
      [
        "󰠇",
        -9.395883113800117
      ],
      [
        "▁󰟺󰟌󰋱",
        -9.396148614093553
      ],
      [
        "▁󰋜󰟃󰋱",
        -9.396163402271512
      ],
      [
        "▁󰢉󰞻",
        -9.396830490308586
      ],
      [
        "▁󰋖󰞷󰟚󰋳󰊴",
        -9.39736032163412
      ],
      [
        "▁󰋆󰟯󰡻󰋩",
        -9.398636940100138
      ],
      [
        "▁󰋆󰠧󰋹",
        -9.39894749572375
      ],
      [
        "▁󰟠󰟆󰋱",
        -9.400944176220326
      ],
      [
        "▁󰋊󰋡󰟂",
        -9.40203188426817
      ],
      [
        "▁󰋫󰟈󰋸󰟄󰋱",
        -9.40265243492697
      ],
      [
        "▁󰋱󰋹",
        -9.402792554515056
      ],
      [
        "▁󰟎󰨥󰋱",
        -9.403019619368443
      ],
      [
        "▁󰟾󰋳",
        -9.40383786758346
      ],
      [
        "▁󰟱󰋹󰋩",
        -9.403918284729771
      ],
      [
        "▁󰠳󰟋󰌠",
        -9.404208149586204
      ],
      [
        "󰞸󰋝",
        -9.404684890577732
      ],
      [
        "▁󰟎󰟊󰞿󰠢",
        -9.405800023753248
      ],
      [
        "▁󰋨󰣩󰌠",
        -9.407851549694792
      ],
      [
        "▁󰋹󰋬󰋳",
        -9.408287095544383
      ],
      [
        "▁󰟎󰠭󰟊",
        -9.409961992739824
      ],
      [
        "▁󰧉󰟊",
        -9.410293604690288
      ],
      [
        "▁󰟔󰀟",
        -9.410299544316425
      ],
      [
        "▁󰡃󰡩",
        -9.411142981833716
      ],
      [
        "▁󰤖󰟑",
        -9.411618832900142
      ],
      [
        "▁󰠛󰟀󰋈󰋳",
        -9.411858511185565
      ],
      [
        "▁󰟀󰟀󰋱",
        -9.41344535493758
      ],
      [
        "󰢀",
        -9.413684187333986
      ],
      [
        "▁󰋉󰡋󰋱",
        -9.413706728981115
      ],
      [
        "▁󰋆󰠢󰧍󰋷",
        -9.41377836812546
      ],
      [
        "▁󰠚󰢍󰋱",
        -9.414451537866269
      ],
      [
        "▁󰡺󰋘",
        -9.414549661967792
      ],
      [
        "▁󰋖󰋱󰟀󰋱",
        -9.415048317197037
      ],
      [
        "▁󰟁󰟄󰋱󰞺",
        -9.415637709007225
      ],
      [
        "▁󰧀󰠎",
        -9.415940017061349
      ],
      [
        "▁󰋹󰡟",
        -9.416382753500493
      ],
      [
        "▁󰞸󰋝󰟰󰟾",
        -9.416567444261089
      ],
      [
        "▁󰋭󰡆󰋭󰣚",
        -9.4168082974393
      ],
      [
        "󰠕",
        -9.416930845313777
      ],
      [
        "▁󰟵",
        -9.41744864737131
      ],
      [
        "▁󰋫󰠋",
        -9.417777125504124
      ],
      [
        "▁󰋆󰟊󰢅",
        -9.41790678366604
      ],
      [
        "▁󰟮󰋩󰞸󰌠",
        -9.417963908797153
      ],
      [
        "▁󰠚󰠘",
        -9.419744952997727
      ],
      [
        "󰠊",
        -9.421028984339419
      ],
      [
        "▁󰌫󰌧",
        -9.421663697141971
      ],
      [
        "▁󰤏󰣲",
        -9.42194931035895
      ],
      [
        "▁󰋆󰟲󰣤󰟁",
        -9.422189826452836
      ],
      [
        "▁󰞼󰠫󰡎󰋯",
        -9.422973101253966
      ],
      [
        "▁󰋝󰟭󰋈",
        -9.423021713795768
      ],
      [
        "▁󰡫󰠋",
        -9.425813523214117
      ],
      [
        "▁󰟘󰟀󰋱",
        -9.425938093222621
      ],
      [
        "▁󰋛󰋳󰟂",
        -9.426197177645335
      ],
      [
        "▁󰋇󰟝󰌠",
        -9.42621355541296
      ],
      [
        "▁󰋭󰟖󰋳󰀌",
        -9.428396041950721
      ],
      [
        "▁󰋥󰥳",
        -9.428874253223674
      ],
      [
        "▁󰋐󰠞󰟽󰋔",
        -9.428973748966836
      ],
      [
        "▁󰟅󰋔󰟆󰋱",
        -9.42924035917895
      ],
      [
        "▁󰟎󰋭󰋳",
        -9.42950414355193
      ],
      [
        "▁󰋮󰞾",
        -9.429935217160878
      ],
      [
        "󰟵󰟖󰟂",
        -9.431153236424112
      ],
      [
        "▁󰋛󰋳󰟊",
        -9.431280484961139
      ],
      [
        "▁󰋫󰋧󰠯󰋫",
        -9.431604587873151
      ],
      [
        "▁󰞼󰞻",
        -9.43177764568482
      ],
      [
        "󰟉󰊴",
        -9.431911405252189
      ],
      [
        "▁󰋖󰟇",
        -9.432186767301484
      ],
      [
        "▁󰟖󰡀󰋥",
        -9.43240224885354
      ],
      [
        "▁󰋱󰟃󰟀󰋱",
        -9.433118369005836
      ],
      [
        "▁󰋖󰧒󰋱",
        -9.433122830008525
      ],
      [
        "▁󰡤󰠕",
        -9.433136698632337
      ],
      [
        "▁󰠁󰞻",
        -9.433387991156955
      ],
      [
        "▁󰋹󰥪",
        -9.434488936494041
      ],
      [
        "▁󰞿󰡈",
        -9.434653999596145
      ],
      [
        "󰀍󰋆",
        -9.436512429558519
      ],
      [
        "▁󰋇󰋫󰞹󰞸",
        -9.437011154126333
      ],
      [
        "▁󰞷󰋖󰣗",
        -9.437545372837366
      ],
      [
        "▁󰟲󰋥󰞷",
        -9.43763160569029
      ],
      [
        "▁󰋭󰋳󰋳",
        -9.437763181579072
      ],
      [
        "▁󰋇󰤝󰋳󰟅󰋱",
        -9.437791172869261
      ],
      [
        "▁󰋇󰋹󰟉",
        -9.437900378456746
      ],
      [
        "▁󰟁󰟖󰞼",
        -9.438251430001175
      ],
      [
        "▁󰋝󰞻",
        -9.43844707352082
      ],
      [
        "▁󰋑󰟊󰟍󰟥󰋖",
        -9.440724176621318
      ],
      [
        "▁󰋧󰋗󰋳",
        -9.440841272452042
      ],
      [
        "▁󰋺󰌠󰋥",
        -9.44089746953348
      ],
      [
        "▁󰟜󰠣󰞺󰋳",
        -9.441104665451714
      ],
      [
        "▁󰠅󰋈",
        -9.44280312567958
      ],
      [
        "▁󰤊󰤃󰋤",
        -9.444203945095648
      ],
      [
        "▁󰋹󰋖󰞻",
        -9.44436093954328
      ],
      [
        "▁󰋇󰋱󰋭",
        -9.44446462879458
      ],
      [
        "▁󰟸󰟮󰞷",
        -9.444728498666052
      ],
      [
        "▁󰋷󰡬󰋧",
        -9.444945320322267
      ],
      [
        "▁󰋈󰋹󰟋󰡁",
        -9.444966529840404
      ],
      [
        "▁󰞿󰥖󰋱",
        -9.445874021094513
      ],
      [
        "▁󰟕󰟈",
        -9.447388898873449
      ],
      [
        "▁󰞽󰋯󰟋󰌠",
        -9.448003269444918
      ],
      [
        "▁󰋐󰋖󰤓",
        -9.448467023022737
      ],
      [
        "▁󰟐󰟞󰋩",
        -9.448623064565059
      ],
      [
        "▁󰠞󰟽󰋔",
        -9.448665614334432
      ],
      [
        "▁󰋷󰠘󰟱󰠡",
        -9.449047834548821
      ],
      [
        "▁󰟲",
        -9.450362581860082
      ],
      [
        "▁󰋆󰋭󰡯󰋥",
        -9.450367835217188
      ],
      [
        "▁󰋺󰟈",
        -9.450495055738328
      ],
      [
        "▁󰟬󰦛󰥨",
        -9.450855089156756
      ],
      [
        "▁󰢑󰟗󰋖",
        -9.451315126673109
      ],
      [
        "▁󰟺󰋱",
        -9.45184097167244
      ],
      [
        "▁󰋭󰋳󰟉󰋩",
        -9.452134879393142
      ],
      [
        "󰟋󰋱",
        -9.452291225214541
      ],
      [
        "▁󰋌󰋤",
        -9.452614253599462
      ],
      [
        "▁󰡠󰠏󰋱",
        -9.453481061125336
      ],
      [
        "▁󰢕",
        -9.453561485593843
      ],
      [
        "▁󰋛󰋱󰋯",
        -9.453567594836702
      ],
      [
        "▁󰠊󰢺",
        -9.45378308746669
      ],
      [
        "▁󰥴󰞿󰋖",
        -9.454797706372624
      ],
      [
        "▁󰟡󰞺",
        -9.454914713694915
      ],
      [
        "▁󰋭󰋳󰞻",
        -9.455159305733694
      ],
      [
        "▁󰟎󰢿󰟊",
        -9.456195272340638
      ],
      [
        "▁󰥬󰋱󰋤",
        -9.45638549540276
      ],
      [
        "▁󰢸󰋯",
        -9.456661770678334
      ],
      [
        "▁󰟀󰤑",
        -9.456669660126932
      ],
      [
        "▁󰟃󰦲󰌏",
        -9.457164932624007
      ],
      [
        "▁󰞼󰋱󰋤󰀌",
        -9.457470981544743
      ],
      [
        "▁󰞿󰡷󰋛󰟅󰋱",
        -9.457545931505644
      ],
      [
        "▁󰡇󰋥󰋱",
        -9.458617363003656
      ],
      [
        "▁󰠌󰠮󰞹",
        -9.458741922465348
      ],
      [
        "󰡇",
        -9.458965298864557
      ],
      [
        "▁󰟎󰋛󰟖󰋥",
        -9.46014073638887
      ],
      [
        "󰠧",
        -9.460422739958863
      ],
      [
        "󰟟",
        -9.460549313458907
      ],
      [
        "▁󰞼󰟦󰋈",
        -9.461022584682578
      ],
      [
        "▁󰋘󰋱󰋯",
        -9.46104997108683
      ],
      [
        "▁󰟃󰟇󰋛󰞹",
        -9.461209484310395
      ],
      [
        "▁󰠝󰟆",
        -9.462031213568235
      ],
      [
        "▁󰟗󰞿󰋠",
        -9.462854114708275
      ],
      [
        "▁󰋺󰌠󰞿",
        -9.463634213895222
      ],
      [
        "▁󰠖󰟐",
        -9.46410184807859
      ],
      [
        "▁󰠲󰧐󰟆󰟈",
        -9.46424006251888
      ],
      [
        "▁󰋆󰋫󰞸󰋨",
        -9.464734437076222
      ],
      [
        "▁󰡗",
        -9.465139223792576
      ],
      [
        "▁󰠃",
        -9.465435208583534
      ],
      [
        "▁󰡉󰟤",
        -9.465817024828898
      ],
      [
        "▁󰋆󰧾󰋭󰋱",
        -9.466056397904852
      ],
      [
        "▁󰋘󰟋󰌠",
        -9.466504540618295
      ],
      [
        "▁󰋊󰋈󰞺󰋠",
        -9.467340658595846
      ],
      [
        "▁󰟔󰠜󰟑󰋩",
        -9.469099659978138
      ],
      [
        "▁󰟤",
        -9.469264187541093
      ],
      [
        "▁󰋆󰟯󰟏󰞷",
        -9.471017504754037
      ],
      [
        "▁󰋹󰧵󰋔",
        -9.47157238811421
      ],
      [
        "▁󰠅",
        -9.471846058096249
      ],
      [
        "▁󰞿󰤗󰌠󰋈",
        -9.471937877242832
      ],
      [
        "▁󰋖󰞷󰋈",
        -9.472620564585064
      ],
      [
        "▁󰟀󰣁",
        -9.474984209009339
      ],
      [
        "▁󰟳󰟏󰋱",
        -9.475294210172589
      ],
      [
        "▁󰋈󰋭󰟅",
        -9.475653480631145
      ],
      [
        "▁󰠂󰢞",
        -9.47588958724832
      ],
      [
        "▁󰋹󰋺󰞼󰟴",
        -9.476192067377761
      ],
      [
        "▁󰟳󰨭󰠸",
        -9.476646133411144
      ],
      [
        "▁󰟻󰋜",
        -9.476755492571685
      ],
      [
        "▁󰟎󰟊󰟀󰋧",
        -9.477909437266316
      ],
      [
        "▁󰟃󰢏󰋳󰌠",
        -9.477925950387572
      ],
      [
        "▁󰟹󰟋",
        -9.478154450839442
      ],
      [
        "▁󰋛󰋳󰟉󰊴",
        -9.4785748659693
      ],
      [
        "▁󰠌󰠓󰋩",
        -9.479627744071884
      ],
      [
        "󰠶",
        -9.48045819157796
      ],
      [
        "▁󰟏󰟍󰨹",
        -9.480960141026198
      ],
      [
        "▁󰋛󰠅󰠮",
        -9.481155242892337
      ],
      [
        "▁󰠚󰟨",
        -9.481662218762915
      ],
      [
        "▁󰠜󰠂",
        -9.481820704722658
      ],
      [
        "▁󰋩󰠖󰊴",
        -9.482152608987201
      ],
      [
        "▁󰟄󰠬",
        -9.482425077934177
      ],
      [
        "▁󰋇󰋠",
        -9.484145497309488
      ],
      [
        "󰟼",
        -9.484388457112296
      ],
      [
        "▁󰟈󰡴󰣑",
        -9.484472237613536
      ],
      [
        "󰁁󰁌",
        -9.484729848827147
      ],
      [
        "▁󰋝󰠉󰋥",
        -9.485336019880178
      ],
      [
        "▁󰟏󰟰󰋱󰋤󰋥",
        -9.485559171692355
      ],
      [
        "▁󰋫󰞷󰋈",
        -9.485727347249192
      ],
      [
        "▁󰋊󰠥󰟊",
        -9.485838397126567
      ],
      [
        "▁󰋛󰟈󰠋",
        -9.488122468430374
      ],
      [
        "▁󰠛",
        -9.488531887610366
      ],
      [
        "▁󰟇󰋘󰋯",
        -9.488890187158555
      ],
      [
        "▁󰟦󰟅",
        -9.48912992301611
      ],
      [
        "▁󰟿󰋩󰟂",
        -9.49048537391015
      ],
      [
        "▁󰟐󰞹",
        -9.490532642978852
      ],
      [
        "▁󰋆󰋭󰟠󰠾",
        -9.490557555122617
      ],
      [
        "▁󰌩󰌭",
        -9.492370600701706
      ],
      [
        "󰠋",
        -9.492752555983316
      ],
      [
        "▁󰣇󰤛󰋱",
        -9.493083128927305
      ],
      [
        "▁󰟿",
        -9.493531455062572
      ],
      [
        "▁󰢯󰞼󰌠",
        -9.493731372899715
      ],
      [
        "󰦌",
        -9.494056484187858
      ],
      [
        "▁󰟗󰟖󰞾",
        -9.494945248679729
      ],
      [
        "▁󰣃󰟅󰋱",
        -9.495341144736516
      ],
      [
        "▁󰟓󰢀󰋱",
        -9.495607709741257
      ],
      [
        "▁󰠍󰋜󰟅",
        -9.495813383385013
      ],
      [
        "󰡁",
        -9.49595316566307
      ],
      [
        "▁󰋭󰌠󰟐",
        -9.496779291702104
      ],
      [
        "▁󰋈󰋩",
        -9.497709981377012
      ],
      [
        "▁󰡔󰞺",
        -9.498455472799346
      ],
      [
        "▁󰋊󰋫󰋳󰠯",
        -9.498742053468556
      ],
      [
        "▁󰨂󰋹",
        -9.499598772593286
      ],
      [
        "󰟒󰟂",
        -9.501172760719822
      ],
      [
        "󰡔",
        -9.502131021918022
      ],
      [
        "▁󰀇󰋆",
        -9.50221033866975
      ],
      [
        "󰟓󰋭",
        -9.502393237001396
      ],
      [
        "▁󰠂󰟅",
        -9.502872153203075
      ],
      [
        "▁󰋩󰠬",
        -9.503160687828736
      ],
      [
        "▁󰋷󰟴󰞷󰋱",
        -9.503236876051439
      ],
      [
        "▁󰋖󰋱󰟇󰋩󰊴",
        -9.503852204124836
      ],
      [
        "▁󰋹󰠇󰋯",
        -9.503948761063635
      ],
      [
        "▁󰋇󰞽󰌠",
        -9.504554493570847
      ],
      [
        "▁󰋝󰠉󰞾",
        -9.506293320310535
      ],
      [
        "▁󰟶󰢒",
        -9.507236539704207
      ],
      [
        "▁󰟼󰠮",
        -9.507776300725704
      ],
      [
        "▁󰌩󰌪",
        -9.508023612056984
      ],
      [
        "▁󰟀󰟪󰋱",
        -9.508736068655645
      ],
      [
        "▁󰟐󰧡󰡚󰋱",
        -9.5091430097186
      ],
      [
        "▁󰡴󰢞",
        -9.509247463355475
      ],
      [
        "▁󰋊󰦑󰋘",
        -9.509698214932817
      ],
      [
        "▁󰟌󰟇",
        -9.510493243552332
      ],
      [
        "▁󰋝󰋩󰋘󰠐󰋱",
        -9.511354776302932
      ],
      [
        "▁󰋆󰟯󰋹󰋱󰋤",
        -9.511583288030932
      ],
      [
        "▁󰟁󰟈󰋗",
        -9.512663704643462
      ],
      [
        "▁󰣧󰞷󰋝",
        -9.513448446679535
      ],
      [
        "▁󰋥󰋗󰋩󰋈",
        -9.51381498348045
      ],
      [
        "󰀅",
        -9.514131781314116
      ],
      [
        "▁󰋖󰋱󰞻󰋩󰊴",
        -9.5143284139508
      ],
      [
        "▁󰟌󰋫",
        -9.514568701249056
      ],
      [
        "▁󰟌󰋷",
        -9.515614818074008
      ],
      [
        "▁󰢇󰟘󰢫",
        -9.516580584404904
      ],
      [
        "▁󰟌󰟖󰞾",
        -9.516766671778216
      ],
      [
        "▁󰋖󰣩",
        -9.51829373833737
      ],
      [
        "▁󰟟󰟓󰟇",
        -9.518440926116194
      ],
      [
        "▁󰋊󰠃󰋥󰊴",
        -9.518887994200352
      ],
      [
        "▁󰋷󰟁󰨅󰋱",
        -9.519093551535212
      ],
      [
        "▁󰟑󰋭󰋹",
        -9.519183216137609
      ],
      [
        "▁󰠧󰟈󰞾",
        -9.519908691081502
      ],
      [
        "▁󰋹󰠃󰋭",
        -9.520351029797244
      ],
      [
        "▁󰟢󰋈󰞻",
        -9.520417923855911
      ],
      [
        "󰩊",
        -9.521289426450963
      ],
      [
        "▁󰟃󰟮󰋳",
        -9.522321334477077
      ],
      [
        "▁󰋆󰣾󰞼󰋱",
        -9.52372864331213
      ],
      [
        "▁󰞿󰋊󰋝",
        -9.5243751637082
      ],
      [
        "▁󰋇󰟝󰋳󰋥",
        -9.52569586900493
      ],
      [
        "▁󰟏󰋱",
        -9.527147247712845
      ],
      [
        "▁󰋆󰟀󰋖",
        -9.527413290976245
      ],
      [
        "▁󰋆󰧏",
        -9.527424630554234
      ],
      [
        "▁󰋫󰠕󰟉",
        -9.527700597984806
      ],
      [
        "▁󰠱󰦵",
        -9.528201243118636
      ],
      [
        "▁󰟕󰞹󰋩󰊴",
        -9.528212432734254
      ],
      [
        "▁󰠇󰞽",
        -9.528500760498016
      ],
      [
        "▁󰋹󰡜󰋧",
        -9.531504323992994
      ],
      [
        "▁󰋩󰡇󰡚󰋱",
        -9.531862041510573
      ],
      [
        "▁󰟬󰤎󰋯󰢐",
        -9.531989581959124
      ],
      [
        "▁󰟂󰋳",
        -9.53235937848934
      ],
      [
        "▁󰣂󰢅󰠬",
        -9.53246356433712
      ],
      [
        "▁󰋺󰋥",
        -9.533075248883973
      ],
      [
        "▁󰋖󰞷󰟚󰊴",
        -9.53322219922591
      ],
      [
        "▁󰋐󰞻",
        -9.534095699952916
      ],
      [
        "▁󰋨󰥍󰋱",
        -9.534174094273155
      ],
      [
        "▁󰟳󰣥󰟷",
        -9.534179826831592
      ],
      [
        "▁󰋥󰟫󰋤",
        -9.534322715102498
      ],
      [
        "▁󰋫󰟽󰋱",
        -9.534572023904428
      ],
      [
        "▁󰟞",
        -9.5350676272545
      ],
      [
        "▁󰋭󰧖󰋥",
        -9.535346535055359
      ],
      [
        "▁󰟲󰢔",
        -9.536093670943725
      ],
      [
        "▁󰋖󰞻󰟦󰋱",
        -9.536160872392797
      ],
      [
        "▁󰋊󰋫󰠚󰠓",
        -9.536368288757213
      ],
      [
        "▁󰋇󰋈󰟅󰋱",
        -9.536797814764324
      ],
      [
        "▁󰦦󰞺",
        -9.537932838842018
      ],
      [
        "▁󰋖󰋳",
        -9.540746274083343
      ],
      [
        "󰤗",
        -9.54079919680039
      ],
      [
        "▁󰋧󰋷󰟗󰋖",
        -9.541163541617063
      ],
      [
        "▁󰋺󰟡󰊴",
        -9.541351027360703
      ],
      [
        "▁󰟌󰟁",
        -9.541477994554532
      ],
      [
        "▁󰢑󰢋",
        -9.541538724540116
      ],
      [
        "󰟚󰋳",
        -9.54209670932455
      ],
      [
        "▁󰞹󰊴󰀂",
        -9.542461129764387
      ],
      [
        "󰋷󰋩",
        -9.543250560432732
      ],
      [
        "▁󰡥󰟗",
        -9.543339421140216
      ],
      [
        "󰠨󰡄",
        -9.543627635757627
      ],
      [
        "▁󰨁󰞷",
        -9.544089907367786
      ],
      [
        "▁󰟃󰋸󰌠󰋖",
        -9.544155637652862
      ],
      [
        "▁󰋇󰟑",
        -9.54559041157777
      ],
      [
        "▁󰋖󰟛󰟙",
        -9.546368560165025
      ],
      [
        "▁󰋺󰀇󰋳",
        -9.546544104697842
      ],
      [
        "▁󰟓󰟽",
        -9.54666045629229
      ],
      [
        "▁󰋫󰟴󰠠󰋱",
        -9.547088821372693
      ],
      [
        "▁󰋇󰋹󰋩",
        -9.547801052529275
      ],
      [
        "󰁉󰁎󰁇",
        -9.547907726051443
      ],
      [
        "󰞽󰋱",
        -9.549455103900984
      ],
      [
        "▁󰞽󰟆",
        -9.549535319573048
      ],
      [
        "▁󰟌󰞾",
        -9.549617157514088
      ],
      [
        "▁󰞼󰋱󰠐󰋈",
        -9.549935947144467
      ],
      [
        "▁󰋙󰋩",
        -9.550399013015051
      ],
      [
        "▁󰟳󰡎󰋯󰋤",
        -9.551280494671206
      ],
      [
        "▁󰋹󰞽󰟰󰋩",
        -9.552225287614586
      ],
      [
        "▁󰟓󰋱",
        -9.55252582261515
      ],
      [
        "▁󰋨󰦇",
        -9.552538407870431
      ],
      [
        "▁󰟋󰟨",
        -9.55359042252497
      ],
      [
        "▁󰋖󰞷󰟉󰋩󰀌",
        -9.554350087587924
      ],
      [
        "󰠢",
        -9.554961905685117
      ],
      [
        "▁󰠱󰠹󰋫",
        -9.556638587765253
      ],
      [
        "▁󰠷",
        -9.558031507072963
      ],
      [
        "▁󰟃󰟝󰌠",
        -9.559200890072512
      ],
      [
        "▁󰟌󰋱󰟇󰋩",
        -9.559449905629997
      ],
      [
        "▁󰢤󰟴",
        -9.559658482375246
      ],
      [
        "󰡈",
        -9.559734766701332
      ],
      [
        "▁󰋹󰟈󰞾",
        -9.559933884867363
      ],
      [
        "▁󰀇󰋇",
        -9.560390993036679
      ],
      [
        "▁󰋇󰋠󰞺",
        -9.560599947879819
      ],
      [
        "▁󰋆󰡱󰞼󰋱",
        -9.561052483545891
      ],
      [
        "▁󰋈󰞽󰋯",
        -9.56120190616707
      ],
      [
        "▁󰟇󰋹󰋱󰞼󰟈",
        -9.562158336946412
      ],
      [
        "▁󰋹󰞽󰟦",
        -9.562190405310066
      ],
      [
        "▁󰟤󰠠󰋱",
        -9.56282776723213
      ],
      [
        "▁󰟄󰡀󰞾",
        -9.563471936698567
      ],
      [
        "▁󰟜󰌠󰋱",
        -9.563809403940414
      ],
      [
        "▁󰟀󰠉󰞾",
        -9.564952690545955
      ],
      [
        "▁󰟃󰋩",
        -9.565095984416931
      ],
      [
        "▁󰟜󰞾󰟄󰋱",
        -9.565568538377878
      ],
      [
        "▁󰟄󰋷󰟒󰋱",
        -9.567384580275533
      ],
      [
        "▁󰋫󰟈󰞽󰠐",
        -9.568488585573002
      ],
      [
        "▁󰋫󰦀󰋥",
        -9.57020953665623
      ],
      [
        "▁󰡐󰀎",
        -9.571415246294404
      ],
      [
        "▁󰋇󰋩󰟂",
        -9.571439504760216
      ],
      [
        "▁󰋘󰠿󰋥",
        -9.571531226140513
      ],
      [
        "▁󰟍󰋹󰟌󰟁󰋳",
        -9.571539955886909
      ],
      [
        "▁󰋇󰋹󰋳",
        -9.572105217477656
      ],
      [
        "▁󰟳󰋘󰋡󰋩",
        -9.57231846356529
      ],
      [
        "󰟳",
        -9.57243469778611
      ],
      [
        "▁󰠊",
        -9.573089229437658
      ],
      [
        "▁󰋘󰋯󰋩",
        -9.573109233385818
      ],
      [
        "▁󰋹󰦰󰋳󰟅",
        -9.573360025499856
      ],
      [
        "▁󰠆󰧳󰋹",
        -9.57338558822914
      ],
      [
        "▁󰋳󰥁",
        -9.573845994337615
      ],
      [
        "▁󰡹󰟈",
        -9.574223032930133
      ],
      [
        "▁󰋆󰢄󰞻󰋱",
        -9.574681556838094
      ],
      [
        "▁󰟍󰋈",
        -9.574802052228433
      ],
      [
        "▁󰡹󰋫",
        -9.57545858088635
      ],
      [
        "󰠮",
        -9.575732839328458
      ],
      [
        "▁󰟎󰠚󰠘",
        -9.577183993481894
      ],
      [
        "▁󰋆󰢄󰋳",
        -9.577766797332716
      ],
      [
        "▁󰟎󰢉",
        -9.578974191118082
      ],
      [
        "▁󰋇󰠊󰋳",
        -9.579865402696806
      ],
      [
        "▁󰞿󰠚󰠓",
        -9.579892042982577
      ],
      [
        "▁󰞼󰟼",
        -9.580182070807552
      ],
      [
        "▁󰋫󰟝󰠮",
        -9.580292861764823
      ],
      [
        "󰡖",
        -9.580856910093399
      ],
      [
        "▁󰠊󰞺",
        -9.581279821250716
      ],
      [
        "▁󰌩󰌯",
        -9.58147757028002
      ],
      [
        "▁󰀂󰋇󰟗",
        -9.581504453032162
      ],
      [
        "▁󰌩󰌮",
        -9.581962944528597
      ],
      [
        "▁󰋛󰞻󰟉",
        -9.582074131081427
      ],
      [
        "▁󰞸󰋝󰟾󰟊",
        -9.582384044182595
      ],
      [
        "▁󰋈󰠤",
        -9.582728882940296
      ],
      [
        "▁󰟁󰞸󰊴",
        -9.582986017106297
      ],
      [
        "▁󰤥",
        -9.583038676961674
      ],
      [
        "▁󰟝󰞾󰋱",
        -9.583680265537659
      ],
      [
        "▁󰟹󰋱",
        -9.583695556041103
      ],
      [
        "▁󰟍󰠆󰋱",
        -9.584253043627228
      ],
      [
        "▁󰟱󰟷",
        -9.585070692530701
      ],
      [
        "▁󰟘󰌠󰞿󰊴",
        -9.585429753950473
      ],
      [
        "▁󰟜󰞷",
        -9.586372420163645
      ],
      [
        "▁󰋆󰟅󰋖󰟙",
        -9.586563849350796
      ],
      [
        "▁󰟤󰋭",
        -9.586894686589822
      ],
      [
        "▁󰟃󰋝󰌠",
        -9.586928071203497
      ],
      [
        "▁󰢂󰋡󰋖",
        -9.589305271328186
      ],
      [
        "▁󰤧󰞻",
        -9.58987546716638
      ],
      [
        "▁󰋝󰋘󰟂󰋱",
        -9.590489132041705
      ],
      [
        "󰠉",
        -9.590725102970318
      ],
      [
        "▁󰟍󰟂󰋱",
        -9.590905541728853
      ],
      [
        "▁󰟧󰢨󰞿",
        -9.591047705697907
      ],
      [
        "󰋆",
        -9.591793875293124
      ],
      [
        "▁󰋜󰟃󰟂",
        -9.592315999803551
      ],
      [
        "▁󰟱󰟴󰟈󰋖",
        -9.593541791870662
      ],
      [
        "▁󰟻󰟉󰋱",
        -9.593692280434274
      ],
      [
        "󰟰",
        -9.593796349144991
      ],
      [
        "▁󰋩󰠖",
        -9.594793386353876
      ],
      [
        "▁󰞼󰋱󰋔",
        -9.595022858130942
      ],
      [
        "▁󰋔󰡪󰊴",
        -9.595207603334934
      ],
      [
        "▁󰟿󰋮",
        -9.595254391259342
      ],
      [
        "▁󰟃󰟰󰋩",
        -9.595382249122354
      ],
      [
        "▁󰟝󰋹",
        -9.59656433963342
      ],
      [
        "▁󰋇󰋷󰤦",
        -9.59686437948664
      ],
      [
        "▁󰢲󰞼󰋩",
        -9.597272670190547
      ],
      [
        "▁󰟕󰞿󰞾󰟉󰋩󰀌",
        -9.597504420933213
      ],
      [
        "▁󰋇󰋭󰟸󰋳",
        -9.597596129105483
      ],
      [
        "▁󰞹󰟴󰋱",
        -9.597819611770344
      ],
      [
        "▁󰋷󰦓",
        -9.598399298287642
      ],
      [
        "▁󰠽󰡁󰋱",
        -9.598966449081999
      ],
      [
        "▁󰋆󰡆",
        -9.599204230315546
      ],
      [
        "▁󰟃󰞹",
        -9.599204607578395
      ],
      [
        "▁󰠌",
        -9.599230200532116
      ],
      [
        "▁󰋖󰟈󰟆󰟉󰋩󰊴",
        -9.60046804622942
      ],
      [
        "▁󰞹󰋠󰋖",
        -9.600503441510565
      ],
      [
        "▁󰋳󰩡",
        -9.600549031338048
      ],
      [
        "▁󰋷󰠘󰋱",
        -9.600676690195353
      ],
      [
        "▁󰋖󰋥󰟙",
        -9.60097109483919
      ],
      [
        "▁󰢂󰋡󰞺",
        -9.60106619785182
      ],
      [
        "󰢄",
        -9.601467107721675
      ],
      [
        "▁󰞼󰟪󰟾",
        -9.60153356164055
      ],
      [
        "󰢹",
        -9.601870049338524
      ],
      [
        "▁󰋹󰥔󰋩",
        -9.602217359161983
      ],
      [
        "▁󰋇󰋹󰟇",
        -9.602623581472143
      ],
      [
        "▁󰀡",
        -9.602784093296028
      ],
      [
        "▁󰢚",
        -9.602922670442204
      ],
      [
        "▁󰋇󰋘󰢞",
        -9.602965669652153
      ],
      [
        "󰡾",
        -9.604098168086338
      ],
      [
        "▁󰋹󰋺󰠒󰠝󰟁",
        -9.604624575412402
      ],
      [
        "▁󰋖󰋳󰞼󰟁󰋱",
        -9.60481445068739
      ],
      [
        "▁󰟳󰠈󰋱",
        -9.605586093662446
      ],
      [
        "▁󰋹󰞽󰟡󰋛󰞹",
        -9.605634759773102
      ],
      [
        "▁󰡴󰟱󰋖",
        -9.605660385892214
      ],
      [
        "▁󰋖󰡣󰞹",
        -9.606450708574668
      ],
      [
        "󰢫",
        -9.60695412314207
      ],
      [
        "▁󰟀󰟊󰋳",
        -9.608341802382583
      ],
      [
        "▁󰠈󰢈",
        -9.608996360930705
      ],
      [
        "▁󰋹󰋥󰢴",
        -9.610785135356773
      ],
      [
        "▁󰟕󰟅󰋩",
        -9.61162945889961
      ],
      [
        "▁󰋩󰋝󰋱",
        -9.61165362754973
      ],
      [
        "▁󰋇󰦗",
        -9.612057722319552
      ],
      [
        "▁󰟇󰟤󰊴",
        -9.612297224552355
      ],
      [
        "▁󰋯󰟍󰋩",
        -9.612330987083578
      ],
      [
        "▁󰋖󰞸󰌠",
        -9.612548859827756
      ],
      [
        "▁󰋹󰟀󰋈󰞺",
        -9.612983364347937
      ],
      [
        "▁󰋇󰋯",
        -9.613095291449287
      ],
      [
        "▁󰞼󰋫󰌝",
        -9.614491533481848
      ],
      [
        "󰋳󰊴",
        -9.614669536629542
      ],
      [
        "▁󰟿󰡑󰞽󰠋",
        -9.614893876750171
      ],
      [
        "▁󰟼󰠩",
        -9.61492789178033
      ],
      [
        "▁󰠀󰞻",
        -9.614970859664671
      ],
      [
        "▁󰠚󰋭󰋖",
        -9.615358953872317
      ],
      [
        "▁󰟑󰞻󰋩󰊴",
        -9.615891472986112
      ],
      [
        "▁󰋊󰡪󰟉",
        -9.615969684680813
      ],
      [
        "▁󰠝󰞾󰟉󰊴",
        -9.616575464338755
      ],
      [
        "󰟵󰟡󰟂",
        -9.616674178844333
      ],
      [
        "▁󰞽󰟒",
        -9.616769524348983
      ],
      [
        "▁󰢆󰋠󰋭󰋳",
        -9.617216522340089
      ],
      [
        "▁󰋈󰟍󰟂",
        -9.618679184509762
      ],
      [
        "▁󰋹󰟬󰢭",
        -9.618979388735674
      ],
      [
        "▁󰟓󰋭󰟂",
        -9.619075426051943
      ],
      [
        "󰞿󰊴",
        -9.619125529197209
      ],
      [
        "▁󰞸󰋝󰟰󰟾󰋱",
        -9.619160202405451
      ],
      [
        "▁󰋹󰋱󰋭󰞸󰋺",
        -9.619962146291494
      ],
      [
        "▁󰟏󰋨󰋩",
        -9.620145782845727
      ],
      [
        "▁󰟘󰣟",
        -9.622058008101984
      ],
      [
        "▁󰟑󰋳󰊴",
        -9.622830304361178
      ],
      [
        "▁󰋷󰥊󰋱",
        -9.622978191590445
      ],
      [
        "▁󰋭󰞻󰋔",
        -9.623627631409251
      ],
      [
        "▁󰋆󰋭󰋳󰡚󰋩",
        -9.624763336934487
      ],
      [
        "󰟈󰟆",
        -9.62485829429824
      ],
      [
        "▁󰟶󰋭󰟀󰋱",
        -9.624976009084346
      ],
      [
        "󰠝",
        -9.625209940250256
      ],
      [
        "▁󰋖󰋱󰟂󰋩󰊴",
        -9.62547864682527
      ],
      [
        "▁󰟍󰟥󰞹",
        -9.626560961893484
      ],
      [
        "▁󰟬󰣏󰟬󰡀",
        -9.626832391425856
      ],
      [
        "󰣽",
        -9.62817835716909
      ],
      [
        "▁󰋫󰞾󰢊",
        -9.628301910036589
      ],
      [
        "▁󰋫󰟈󰋸󰋧",
        -9.628950219560204
      ],
      [
        "▁󰋇󰋝󰞺󰋱",
        -9.629262660636082
      ],
      [
        "▁󰟃󰋝󰢈",
        -9.629590280805909
      ],
      [
        "▁󰟎󰋖󰡣",
        -9.629681144194425
      ],
      [
        "▁󰢷",
        -9.629793652735394
      ],
      [
        "▁󰟳󰤉󰋱",
        -9.629823136958999
      ],
      [
        "󰟉󰋩",
        -9.631078876463377
      ],
      [
        "▁󰋫󰞸",
        -9.631361314476115
      ],
      [
        "󰤅",
        -9.632085917909176
      ],
      [
        "󰟮",
        -9.632371937938615
      ],
      [
        "▁󰟤󰠠󰣨",
        -9.632436280815226
      ],
      [
        "▁󰋊󰣮󰋗󰠒󰣛",
        -9.632873069225456
      ],
      [
        "▁󰌨󰌧󰌧",
        -9.63318025377063
      ],
      [
        "󰀟󰀂",
        -9.633338844715169
      ],
      [
        "▁󰞽󰋱",
        -9.633753698205584
      ],
      [
        "▁󰡰",
        -9.634141847040063
      ],
      [
        "▁󰋖󰋳󰞼󰟁󰌠",
        -9.634310970411233
      ],
      [
        "󰣫",
        -9.63477706685213
      ],
      [
        "▁󰋫󰟈󰟢󰟖󰋥",
        -9.6350907281226
      ],
      [
        "▁󰟃󰧁󰋮",
        -9.6352124358239
      ],
      [
        "󰡰",
        -9.635329213720986
      ],
      [
        "▁󰋹󰤙󰋥",
        -9.636371010717125
      ],
      [
        "▁󰟜󰞾󰋱",
        -9.636625752631106
      ],
      [
        "▁󰋭󰟋󰋱",
        -9.636708139111485
      ],
      [
        "▁󰀴󰁈󰁅",
        -9.637321797168543
      ],
      [
        "▁󰋐󰟙󰋈",
        -9.637460458630942
      ],
      [
        "▁󰠀󰟋󰋱",
        -9.637610865602626
      ],
      [
        "▁󰟐󰟵󰟡",
        -9.637995025984068
      ],
      [
        "▁󰟄󰟀󰋱",
        -9.638085984471633
      ],
      [
        "󰠀",
        -9.638347795108363
      ],
      [
        "▁󰟾󰠎",
        -9.638417544776123
      ],
      [
        "▁󰋖󰋱󰞻󰋔",
        -9.638462481941536
      ],
      [
        "▁󰔦",
        -9.638516077235945
      ],
      [
        "▁󰣂󰋦󰋖",
        -9.638699780181355
      ],
      [
        "▁󰠅󰋳󰟂",
        -9.638909798365427
      ],
      [
        "▁󰋆󰟳󰤎",
        -9.638953416865261
      ],
      [
        "▁󰠴",
        -9.638991485180448
      ],
      [
        "▁󰋖󰟈󰀌",
        -9.639168059193052
      ],
      [
        "▁󰞺󰠆",
        -9.639866287850538
      ],
      [
        "▁󰋹󰦅",
        -9.64023972309931
      ],
      [
        "▁󰋐󰋹󰋯󰌠",
        -9.64024250825239
      ],
      [
        "▁󰠊󰤁󰟂",
        -9.642381713598061
      ],
      [
        "▁󰋯󰣳󰋱",
        -9.642450112277345
      ],
      [
        "▁󰋖󰟈󰞻󰋩",
        -9.642610998496977
      ],
      [
        "▁󰢂",
        -9.64330093360925
      ],
      [
        "󰞹󰋦",
        -9.643514028739967
      ],
      [
        "▁󰥄󰣇󰟐󰋱",
        -9.644802095106298
      ],
      [
        "▁󰋹󰞷",
        -9.645099310676066
      ],
      [
        "󰟿",
        -9.646186103061838
      ],
      [
        "▁󰣃󰋩",
        -9.64659522623213
      ],
      [
        "▁󰋮󰠓",
        -9.648212420024212
      ],
      [
        "▁󰡹󰋳",
        -9.648695477129905
      ],
      [
        "▁󰠨󰨯",
        -9.649094525658473
      ],
      [
        "▁󰟧󰤢",
        -9.649501566381637
      ],
      [
        "▁󰋳󰠇󰋤",
        -9.649541977840856
      ],
      [
        "▁󰤘󰋺",
        -9.64956473652923
      ],
      [
        "▁󰋆󰟲󰟅󰟁",
        -9.651239611209526
      ],
      [
        "▁󰋧󰠡󰌠",
        -9.651678606367811
      ],
      [
        "▁󰋱󰠃󰋥",
        -9.651745363306212
      ],
      [
        "▁󰋊󰡂󰞷",
        -9.652220757321379
      ],
      [
        "▁󰋆󰡨󰟅",
        -9.652244573207954
      ],
      [
        "▁󰟪󰟏󰋭",
        -9.65312821316225
      ],
      [
        "▁󰟎󰦴󰟏",
        -9.653311588097411
      ],
      [
        "▁󰋺󰟹",
        -9.654183398684168
      ],
      [
        "▁󰞼󰟙",
        -9.655375109754013
      ],
      [
        "▁󰟕󰞿󰞾󰟉",
        -9.656378611661006
      ],
      [
        "▁󰋊󰞿",
        -9.65765683343422
      ],
      [
        "󰡂",
        -9.657865031508175
      ],
      [
        "▁󰢗󰢖",
        -9.658212572020352
      ],
      [
        "󰟣",
        -9.65861583919264
      ],
      [
        "▁󰋆󰪊󰋥",
        -9.659050226704286
      ],
      [
        "▁󰋘󰟋",
        -9.659413469169433
      ],
      [
        "▁󰋯󰟂󰀌",
        -9.659586260909357
      ],
      [
        "▁󰟅󰋩",
        -9.6600896128777
      ],
      [
        "▁󰟢󰟪󰟝",
        -9.660149542527472
      ],
      [
        "▁󰟥󰟅󰞽",
        -9.660573932528674
      ],
      [
        "󰟙󰞺",
        -9.661301415820828
      ],
      [
        "▁󰋭󰟥󰟆",
        -9.661471338067475
      ],
      [
        "▁󰠃󰟔󰌏󰋹󰋖",
        -9.662605059287445
      ],
      [
        "▁󰋔󰧕󰋨",
        -9.663011455076113
      ],
      [
        "▁󰟖󰠀",
        -9.663357440245056
      ],
      [
        "▁󰟨󰋳󰀌",
        -9.663596193717051
      ],
      [
        "▁󰋫󰠕󰟉󰊴",
        -9.664199965434115
      ],
      [
        "▁󰟁󰋔",
        -9.664355508740716
      ],
      [
        "▁󰋖󰟈󰞾",
        -9.66492041781482
      ],
      [
        "▁󰟀󰟏󰌠",
        -9.665067355279172
      ],
      [
        "▁󰟃󰟦󰠍󰋱",
        -9.665490176490097
      ],
      [
        "▁󰟨󰞻󰋩",
        -9.666140658633648
      ],
      [
        "▁󰟸󰋈󰟒",
        -9.6665172415414
      ],
      [
        "▁󰟌󰋱󰞻",
        -9.666598211626699
      ],
      [
        "▁󰌪󰌨",
        -9.666709794958459
      ],
      [
        "▁󰡅󰣆",
        -9.667087794887486
      ],
      [
        "▁󰠣󰦯",
        -9.668761468349077
      ],
      [
        "▁󰟎󰢁󰟆",
        -9.668979170514202
      ],
      [
        "▁󰣂󰢅󰠬󰟂",
        -9.669209972778168
      ],
      [
        "▁󰋐󰟵󰟡",
        -9.670259819083352
      ],
      [
        "▁󰥡󰞺󰋱",
        -9.670866219480487
      ],
      [
        "󰡐",
        -9.672166035881821
      ],
      [
        "▁󰋖󰟶󰞹󰟓󰋈󰞸󰋹",
        -9.67245444410264
      ],
      [
        "▁󰋭󰞻󰋩󰊴",
        -9.672805160886249
      ],
      [
        "▁󰞿󰋊",
        -9.67377796626483
      ],
      [
        "▁󰡿󰟜󰋱",
        -9.673936727208803
      ],
      [
        "▁󰞿󰞸󰋫󰋧",
        -9.674204375520224
      ],
      [
        "▁󰟌󰌠󰊴",
        -9.674489817109103
      ],
      [
        "▁󰋝󰋘󰌏",
        -9.67474768946588
      ],
      [
        "▁󰋹󰋱󰞼󰟴",
        -9.675033321023966
      ],
      [
        "▁󰞸󰋘",
        -9.675752060171224
      ],
      [
        "▁󰟗󰋳",
        -9.676097909954493
      ],
      [
        "▁󰋖󰋱󰟚󰊴",
        -9.676349159289765
      ],
      [
        "󰁔",
        -9.677343849826075
      ],
      [
        "▁󰟃󰋳",
        -9.677834743283476
      ],
      [
        "▁󰟃󰟢󰋱󰋫󰟊",
        -9.678078840010288
      ],
      [
        "▁󰋹󰤛󰠖",
        -9.678649474148278
      ],
      [
        "󰡦󰠏",
        -9.678659742616148
      ],
      [
        "▁󰡧",
        -9.679172456621389
      ],
      [
        "▁󰟌󰥹",
        -9.679231268145935
      ],
      [
        "▁󰋭󰟕󰌠",
        -9.679845494687202
      ],
      [
        "▁󰣧󰞷󰠆",
        -9.681094073661974
      ],
      [
        "▁󰋱󰞾󰟉󰋩",
        -9.681500450765826
      ],
      [
        "▁󰟗󰟆",
        -9.683339711313337
      ],
      [
        "▁󰞹󰀛",
        -9.683922851252433
      ],
      [
        "▁󰞺󰋩󰞹",
        -9.684525907971935
      ],
      [
        "▁󰟢󰋈󰊴",
        -9.685513139684417
      ],
      [
        "▁󰟥󰞻󰋠",
        -9.686724274471697
      ],
      [
        "▁󰟅󰌠",
        -9.688579024591
      ],
      [
        "▁󰟔󰟡󰟗󰟙󰋱",
        -9.688735886878455
      ],
      [
        "▁󰠚󰋘",
        -9.68960031258363
      ],
      [
        "▁󰟁󰠞󰟽",
        -9.690034186315591
      ],
      [
        "󰟑󰋘󰞺",
        -9.690098205706313
      ],
      [
        "󰢙",
        -9.690757042327276
      ],
      [
        "▁󰋭󰥾",
        -9.691382995979897
      ],
      [
        "󰡢󰡢󰠻",
        -9.69148701057454
      ],
      [
        "▁󰟁󰟖󰞼󰌠",
        -9.691766502419842
      ],
      [
        "▁󰋈󰟊󰟍󰟐",
        -9.69239470845215
      ],
      [
        "▁󰟃󰋥󰋱󰋤",
        -9.693489988597245
      ],
      [
        "▁󰋖󰥇󰋫󰠇",
        -9.693652839315925
      ],
      [
        "▁󰟎󰠭󰟊󰋱",
        -9.695014287504378
      ],
      [
        "▁󰠝󰞾󰟉",
        -9.695018390304822
      ],
      [
        "▁󰋊󰩒󰋳",
        -9.695116788774484
      ],
      [
        "▁󰡰󰦉󰋳",
        -9.69519232335171
      ],
      [
        "▁󰋨󰋩",
        -9.695233863650945
      ],
      [
        "▁󰦃󰟭",
        -9.695545366178285
      ],
      [
        "▁󰋊󰟍󰋱",
        -9.695668623027139
      ],
      [
        "▁󰟀󰋱󰟀󰋱",
        -9.696748267768207
      ],
      [
        "▁󰋇󰋛󰋱󰋤",
        -9.697216474029391
      ],
      [
        "▁󰋯󰡑",
        -9.69733523138789
      ],
      [
        "▁󰞼󰠫󰋖󰋱",
        -9.697361927197814
      ],
      [
        "▁󰟀󰥅",
        -9.697702969983958
      ],
      [
        "▁󰋇󰠪󰋺",
        -9.698047503258662
      ],
      [
        "▁󰟵󰟫󰋥󰋱",
        -9.698540843410099
      ],
      [
        "▁󰟍󰋹󰟌󰟁󰞻󰋱",
        -9.699067826207754
      ],
      [
        "▁󰟍󰋯󰟋󰋱",
        -9.700536560489724
      ],
      [
        "▁󰋇󰋖󰣆󰋤",
        -9.700558955252903
      ],
      [
        "▁󰤏󰡾󰋱",
        -9.700712966091293
      ],
      [
        "▁󰋖󰟗󰋷󰋩",
        -9.701322397283214
      ],
      [
        "▁󰋭󰞻󰟉󰤶",
        -9.702055874366437
      ],
      [
        "▁󰋹󰋭󰋈",
        -9.70223028412389
      ],
      [
        "▁󰟅󰢃󰡓",
        -9.702609669650542
      ],
      [
        "󰌨",
        -9.702692002956454
      ],
      [
        "▁󰋇󰟉󰋩󰊴",
        -9.70293204180585
      ],
      [
        "▁󰋇󰋹󰟉󰊴",
        -9.703024110722081
      ],
      [
        "▁󰋊󰡪󰟉󰊴",
        -9.703159944255042
      ],
      [
        "▁󰡉󰋩",
        -9.703302904356388
      ],
      [
        "▁󰟔󰠜󰟂󰋈",
        -9.703668413829902
      ],
      [
        "▁󰠞󰟆",
        -9.704152889853429
      ],
      [
        "󰡴",
        -9.704163859997703
      ],
      [
        "󰌨󰌯",
        -9.70470500042246
      ],
      [
        "▁󰋆󰠪󰋹󰋱",
        -9.70478996881897
      ],
      [
        "▁󰟕󰞹󰌠󰀌",
        -9.705068155283849
      ],
      [
        "▁󰋐󰋝󰟭",
        -9.705140251043417
      ],
      [
        "▁󰞹󰋘󰟈󰋖",
        -9.705967339213272
      ],
      [
        "▁󰋹󰠊󰋝",
        -9.705974463690461
      ],
      [
        "▁󰋆󰠢󰞹󰌠󰋖",
        -9.706226566968223
      ],
      [
        "▁󰧧󰡏",
        -9.706646500193397
      ],
      [
        "▁󰟎󰡈󰠇",
        -9.706826552773121
      ],
      [
        "▁󰋆󰟲󰟅󰣟",
        -9.707341127031281
      ],
      [
        "▁󰟡󰋖󰋝󰋩",
        -9.707615049174779
      ],
      [
        "󰋹󰋩",
        -9.708379023237317
      ],
      [
        "▁󰋇󰞷󰋖󰟒",
        -9.708762342363764
      ],
      [
        "▁󰟏󰋺󰋹",
        -9.709038403458537
      ],
      [
        "▁󰟘󰞺",
        -9.709802176475133
      ],
      [
        "▁󰋺󰋈󰟆󰟉󰀌",
        -9.709954712075872
      ],
      [
        "▁󰣍󰋸󰋤",
        -9.71109249736868
      ],
      [
        "▁󰋖󰟛󰊴",
        -9.711233434262025
      ],
      [
        "▁󰟢󰋱󰟒",
        -9.712017896883902
      ],
      [
        "▁󰋱󰞾󰟉󰀌",
        -9.712364071671974
      ],
      [
        "▁󰋹󰥻󰋩",
        -9.71253796625659
      ],
      [
        "▁󰞸󰟅",
        -9.712903754448433
      ],
      [
        "▁󰟁󰟍󰋈",
        -9.713142162168735
      ],
      [
        "▁󰟀󰢙󰣝",
        -9.714299394776132
      ],
      [
        "▁󰡰󰞹",
        -9.71438538938008
      ],
      [
        "▁󰋆󰟲󰠒󰟨",
        -9.714778310731344
      ],
      [
        "▁󰋆󰟷󰩟󰠓",
        -9.714849998805057
      ],
      [
        "▁󰋇󰟜󰟈󰞼󰋱",
        -9.715288618934022
      ],
      [
        "▁󰌩󰌰",
        -9.715859079568341
      ],
      [
        "▁󰞸󰣦󰋫󰟊",
        -9.716138129606753
      ],
      [
        "󰠲",
        -9.716232765416779
      ],
      [
        "▁󰋹󰦼",
        -9.716699334150043
      ],
      [
        "󰌧",
        -9.716920717763907
      ],
      [
        "▁󰟃󰟓󰟨",
        -9.717431244701025
      ],
      [
        "▁󰟱󰟞",
        -9.717587569965529
      ],
      [
        "▁󰋯󰡔󰋳",
        -9.718292555871544
      ],
      [
        "▁󰟤󰧆",
        -9.718441965434884
      ],
      [
        "▁󰠌󰠭󰟊󰋖",
        -9.718857591564607
      ],
      [
        "▁󰠭󰋸󰋖",
        -9.719196535310848
      ],
      [
        "󰞸󰋯",
        -9.71952151969727
      ],
      [
        "▁󰢣󰡸",
        -9.720632550341234
      ],
      [
        "▁󰟗󰠣󰟆",
        -9.720650157020552
      ],
      [
        "󰠷󰋨",
        -9.723268975141904
      ],
      [
        "▁󰟼󰋭󰟏󰢈",
        -9.723530316914024
      ],
      [
        "▁󰋆󰠴󰋺󰋥",
        -9.723726469481994
      ],
      [
        "▁󰟏󰠠󰌏",
        -9.723836427316089
      ],
      [
        "󰁌󰁙",
        -9.724124150438382
      ],
      [
        "▁󰡦",
        -9.724228639243275
      ],
      [
        "▁󰟙󰞹",
        -9.724593540148495
      ],
      [
        "▁󰋝󰋘󰟂",
        -9.72462605252061
      ],
      [
        "▁󰟌󰥹󰋱",
        -9.724806142652616
      ],
      [
        "▁󰞿󰞾󰟉",
        -9.725085015555923
      ],
      [
        "▁󰟀󰤾",
        -9.72542653329169
      ],
      [
        "▁󰠊󰣜",
        -9.725496091579101
      ],
      [
        "▁󰋺󰋈󰞻󰋔",
        -9.726136372864337
      ],
      [
        "▁󰟻󰟅󰋱",
        -9.7266431149351
      ],
      [
        "▁󰨋󰟽󰟷",
        -9.726857397924189
      ],
      [
        "󰢊",
        -9.727357775864917
      ],
      [
        "▁󰋱󰠬󰡶󰞹󰋦",
        -9.72809077220094
      ],
      [
        "▁󰟌󰠮󰥅",
        -9.728100987139229
      ],
      [
        "▁󰋛󰋳󰟇",
        -9.728255881790547
      ],
      [
        "▁󰞸󰟕󰋱",
        -9.728331516975171
      ],
      [
        "▁󰟃󰞺󰞻",
        -9.728383974540492
      ],
      [
        "▁󰋖󰋱󰟂󰋩",
        -9.72858748409799
      ],
      [
        "▁󰋈󰋊",
        -9.728927566285721
      ],
      [
        "▁󰟃󰞼󰋷",
        -9.728956602295181
      ],
      [
        "▁󰋊󰋫󰟄󰋷",
        -9.729662695687306
      ],
      [
        "󰟌󰟽",
        -9.729792093564592
      ],
      [
        "▁󰞿󰤗󰌠",
        -9.73038794247204
      ],
      [
        "▁󰋇󰋫󰢔",
        -9.73048673554347
      ],
      [
        "▁󰞽󰋧󰋖",
        -9.731080994260774
      ],
      [
        "▁󰟄󰟞󰋱",
        -9.731336717536507
      ],
      [
        "▁󰞸󰠆",
        -9.731595073733033
      ],
      [
        "▁󰋊󰌏󰋹󰋭",
        -9.732207001805376
      ],
      [
        "󰟀󰠵",
        -9.732413860979637
      ],
      [
        "▁󰋇󰟋󰋈󰟪",
        -9.732440418994521
      ],
      [
        "󰠾",
        -9.732636592700834
      ],
      [
        "▁󰌭󰌧",
        -9.732993035804778
      ],
      [
        "▁󰋹󰤈󰟝󰞾󰋱",
        -9.733520510774921
      ],
      [
        "󰡤",
        -9.733641132665358
      ],
      [
        "▁󰟗󰞿󰠂",
        -9.734367516859297
      ],
      [
        "▁󰋆󰟯󰞽󰋩",
        -9.734449284513012
      ],
      [
        "󰟁󰌠",
        -9.734716520170094
      ],
      [
        "▁󰋖󰡒󰡫󰠃",
        -9.735330077466486
      ],
      [
        "▁󰋨󰦸",
        -9.736545371119252
      ],
      [
        "▁󰥮󰋩",
        -9.736820453248209
      ],
      [
        "▁󰟋󰠝󰋳󰊴",
        -9.736883829362782
      ],
      [
        "▁󰞻󰟨",
        -9.73693808737218
      ],
      [
        "▁󰟶󰢒󰋱",
        -9.737208686377654
      ],
      [
        "󰋚",
        -9.738817937248374
      ],
      [
        "▁󰋫󰟿",
        -9.739299532947223
      ],
      [
        "▁󰞺󰥲",
        -9.739476970879233
      ],
      [
        "▁󰋇󰞷󰋖",
        -9.739568116157429
      ],
      [
        "▁󰟁󰋱󰞼",
        -9.740114023189989
      ],
      [
        "▁󰋫󰌝󰋳",
        -9.740116500132267
      ],
      [
        "▁󰧀󰣌",
        -9.740220246304629
      ],
      [
        "▁󰋆󰣡󰡓",
        -9.740535641038594
      ],
      [
        "▁󰠎",
        -9.740602225680485
      ],
      [
        "▁󰋭󰋳󰟉󰀌",
        -9.74076059786971
      ],
      [
        "▁󰡔",
        -9.741504896713478
      ],
      [
        "▁󰋘󰡱",
        -9.7415271340718
      ],
      [
        "▁󰞸󰋝󰟱󰡬",
        -9.742155514481034
      ],
      [
        "▁󰋆󰋭󰠈󰋱",
        -9.742165759875334
      ],
      [
        "▁󰋷󰠓",
        -9.74292001439256
      ],
      [
        "▁󰞼󰞸",
        -9.743167899597434
      ],
      [
        "▁󰋖󰋱󰊴",
        -9.745418747617551
      ],
      [
        "▁󰋝󰞻󰋱",
        -9.745426665046686
      ],
      [
        "▁󰋆󰋩",
        -9.745718368145186
      ],
      [
        "▁󰋔󰋫󰞷",
        -9.745918269085788
      ],
      [
        "▁󰋭󰋱",
        -9.746024349661191
      ],
      [
        "▁󰋊󰋡󰋳",
        -9.746036158082894
      ],
      [
        "▁󰋊󰌏󰋫󰠥",
        -9.746316170405516
      ],
      [
        "▁󰋖󰟈󰟆󰟉󰋩",
        -9.7471345456507
      ],
      [
        "▁󰋖󰣅󰋤",
        -9.74770215123568
      ],
      [
        "▁󰠜󰟒",
        -9.748175016179808
      ],
      [
        "󰋳󰀌",
        -9.748618404664773
      ],
      [
        "󰡧",
        -9.748969794439603
      ],
      [
        "▁󰋆󰟷",
        -9.750028606853189
      ],
      [
        "▁󰟎󰟊󰟶󰋨",
        -9.750227246208476
      ],
      [
        "󰠐",
        -9.751001826403842
      ],
      [
        "▁󰋇󰟃󰥢󰋱",
        -9.75126891330743
      ],
      [
        "▁󰋖󰋱󰟚",
        -9.751305414729195
      ],
      [
        "▁󰠚󰟨󰋱",
        -9.751476436891169
      ],
      [
        "▁󰟤󰟿󰟄󰋱",
        -9.751994329632872
      ],
      [
        "▁󰋺󰋈󰞻󰋩󰊴",
        -9.752115491555543
      ],
      [
        "▁󰋺󰋈󰟂󰟉",
        -9.752801768306007
      ],
      [
        "▁󰟼󰠔󰋥",
        -9.75297949748601
      ],
      [
        "▁󰋷󰞹󰠓",
        -9.753097942960313
      ],
      [
        "▁󰠁󰞾󰟉",
        -9.75362178265848
      ],
      [
        "▁󰞽󰟛󰋱",
        -9.75398461042798
      ],
      [
        "▁󰋗󰢜",
        -9.75422385585023
      ],
      [
        "▁󰋫󰢄",
        -9.75473090480264
      ],
      [
        "▁󰋹󰋯󰣀󰋱",
        -9.755143487124288
      ],
      [
        "▁󰋆󰣢󰋫󰋱",
        -9.755541310897515
      ],
      [
        "▁󰡇",
        -9.755608306371956
      ],
      [
        "▁󰀳",
        -9.755706996729215
      ],
      [
        "▁󰟀󰠩󰋭",
        -9.755855222210904
      ],
      [
        "▁󰋺󰞾󰟚󰋳󰀌",
        -9.757092058411672
      ],
      [
        "▁󰞼󰠫",
        -9.757681165329965
      ],
      [
        "▁󰋆󰟊󰡎󰋯",
        -9.758823867736606
      ],
      [
        "󰟖󰟆",
        -9.75939512886452
      ],
      [
        "▁󰋊󰟌󰟝󰋩",
        -9.759485436769006
      ],
      [
        "▁󰟁󰟽󰟁󰠉",
        -9.759545766551346
      ],
      [
        "▁󰋫󰋱󰋭󰤀󰟂",
        -9.759908423407207
      ],
      [
        "▁󰋢󰟋󰋱",
        -9.759941351670184
      ],
      [
        "▁󰋹󰧨󰠀",
        -9.760259512265732
      ],
      [
        "󰋭󰋳",
        -9.761087052929469
      ],
      [
        "▁󰟥󰞿󰌠󰋱",
        -9.761611948442072
      ],
      [
        "▁󰋺󰋳󰀌",
        -9.762077175834735
      ],
      [
        "▁󰟢󰋳",
        -9.762395687123844
      ],
      [
        "▁󰋖󰞷󰟉󰀌",
        -9.762450762815929
      ],
      [
        "▁󰟔󰠜󰠇󰋤",
        -9.762985575725368
      ],
      [
        "▁󰋖󰟶󰞹󰋱",
        -9.763033973920207
      ],
      [
        "󰋫󰠋",
        -9.76370844536563
      ],
      [
        "▁󰋇󰥿",
        -9.764396202531158
      ],
      [
        "▁󰟃󰢏",
        -9.766938895652071
      ],
      [
        "▁󰦢󰋹",
        -9.767474669363759
      ],
      [
        "󰠥",
        -9.767945079667115
      ],
      [
        "▁󰟨󰟉󰋩",
        -9.768926023436975
      ],
      [
        "▁󰡲",
        -9.76901495434968
      ],
      [
        "▁󰟰󰋩",
        -9.769519755706925
      ],
      [
        "󰟭",
        -9.770303739465794
      ],
      [
        "▁󰠴󰟌󰋱󰟙",
        -9.770342158901967
      ],
      [
        "󰁵",
        -9.770776251868527
      ],
      [
        "▁󰨫󰟔",
        -9.771145413977015
      ],
      [
        "▁󰋖󰟗󰋷󰞹󰋱",
        -9.771893257872913
      ],
      [
        "󰋖󰋱󰋤",
        -9.771929393047975
      ],
      [
        "▁󰋈󰟊󰋯󰠙",
        -9.771996122333736
      ],
      [
        "▁󰋫󰟴󰠠󰌠",
        -9.772061000566895
      ],
      [
        "󰟲󰢔󰋖",
        -9.77245956197835
      ],
      [
        "▁󰟄󰋗",
        -9.772627579515799
      ],
      [
        "▁󰋇󰋭",
        -9.772645898959448
      ],
      [
        "▁󰥌󰟭",
        -9.773498464538362
      ],
      [
        "▁󰟞󰞻󰟝",
        -9.773658681922528
      ],
      [
        "▁󰋇󰋈󰋩󰠦󰠬",
        -9.774447028704857
      ],
      [
        "▁󰠀󰋳󰟂",
        -9.775331612613659
      ],
      [
        "▁󰞼󰋯󰞹",
        -9.775529636890601
      ],
      [
        "▁󰟤󰠠󰣨󰟄󰋱",
        -9.775603291373459
      ],
      [
        "▁󰤧󰞻󰋱",
        -9.775677105915117
      ],
      [
        "▁󰟃󰡖󰋱",
        -9.776306716760748
      ],
      [
        "▁󰟇󰟤󰋱󰟓󰋘",
        -9.77658402635777
      ],
      [
        "▁󰋨󰟈󰟆",
        -9.77683092523296
      ],
      [
        "▁󰠃󰪉󰋥",
        -9.776988679795386
      ],
      [
        "▁󰋐󰋖󰋹󰠟",
        -9.777260870335597
      ],
      [
        "▁󰡫󰠫",
        -9.777364842769327
      ],
      [
        "▁󰋥󰌏",
        -9.777367074016645
      ],
      [
        "▁󰟋󰋷",
        -9.777405362619453
      ],
      [
        "▁󰟝󰠬",
        -9.777417341404401
      ],
      [
        "▁󰞽󰟒󰟂",
        -9.777899553899283
      ],
      [
        "▁󰀑",
        -9.778386512850979
      ],
      [
        "󰠐󰋱",
        -9.778652614926427
      ],
      [
        "▁󰟁󰋫󰞽󰢽",
        -9.778797036313891
      ],
      [
        "▁󰋝󰋩󰞺",
        -9.778960893705326
      ],
      [
        "󰟏󰋱",
        -9.779164000192175
      ],
      [
        "▁󰟏󰟪󰣪󰋱",
        -9.779299373580683
      ],
      [
        "▁󰟎󰟊󰟇󰋧󰋩",
        -9.780168374502272
      ],
      [
        "▁󰟞󰟖",
        -9.780587327429167
      ],
      [
        "▁󰠍󰟁󰋱",
        -9.781279201720627
      ],
      [
        "▁󰋭󰋳󰞻󰀌",
        -9.782061069091519
      ],
      [
        "▁󰋺󰋈󰌠󰊴",
        -9.784128919828913
      ],
      [
        "▁󰋇󰋝󰋔",
        -9.78487641244183
      ],
      [
        "▁󰟃󰋫󰋧",
        -9.786872413639108
      ],
      [
        "▁󰟮󰟫󰠾󰋱",
        -9.787252992264316
      ],
      [
        "▁󰟅󰌠󰊴",
        -9.787286154659244
      ],
      [
        "▁󰟋󰋈󰋩",
        -9.78733620429296
      ],
      [
        "󰞽󰠋",
        -9.78769439053303
      ],
      [
        "▁󰋆󰋫",
        -9.788347325739913
      ],
      [
        "▁󰋖󰟈󰋳󰊴",
        -9.788462436386071
      ],
      [
        "▁󰧇󰋝",
        -9.788776024982212
      ],
      [
        "▁󰠽󰡨󰋩󰟁󰋱",
        -9.789463062119498
      ],
      [
        "󰡢",
        -9.789782704347552
      ],
      [
        "▁󰟃󰋭󰋱󰋤",
        -9.790374233000573
      ],
      [
        "▁󰋖󰟛󰋈",
        -9.791269767634677
      ],
      [
        "▁󰋮󰋘󰟀󰋩",
        -9.791621533982504
      ],
      [
        "▁󰞸󰠀󰋩",
        -9.791830290087049
      ],
      [
        "▁󰋆󰟺󰢓",
        -9.792170412316736
      ],
      [
        "▁󰋭󰌠󰡍",
        -9.792756404099931
      ],
      [
        "▁󰟎󰟊󰡻󰟅󰋱",
        -9.793174663259654
      ],
      [
        "▁󰟃󰟄󰟠",
        -9.794000746184746
      ],
      [
        "󰁅󰁒",
        -9.79408395038965
      ],
      [
        "▁󰌩󰌧󰌨󰌯",
        -9.79505349555888
      ],
      [
        "▁󰟃󰠢",
        -9.795209362326355
      ],
      [
        "▁󰋫󰟈󰡯󰟊󰟂",
        -9.795624877555827
      ],
      [
        "▁󰋊󰋫󰋳󰪵",
        -9.795704895543121
      ],
      [
        "▁󰦆󰋩",
        -9.796641538119687
      ],
      [
        "▁󰟡󰞺󰞸",
        -9.798111821006394
      ],
      [
        "▁󰟳󰥓󰟊",
        -9.79846824950346
      ],
      [
        "▁󰟚󰞻󰋩󰀌",
        -9.798685775119866
      ],
      [
        "▁󰞸󰟤󰟆󰋱",
        -9.79915741596288
      ],
      [
        "▁󰟏󰡑",
        -9.799170784219854
      ],
      [
        "▁󰋫󰟈󰡘󰋘",
        -9.80027618520486
      ],
      [
        "▁󰞿󰣖󰡏",
        -9.800287385646412
      ],
      [
        "▁󰋯󰟍󰋷󰌠",
        -9.800752104406365
      ],
      [
        "▁󰟀󰋯",
        -9.80092354591673
      ],
      [
        "▁󰋯󰢌󰠶󰋳󰞾󰋱",
        -9.80131535182561
      ],
      [
        "▁󰋇󰟐󰋩",
        -9.802917882925112
      ],
      [
        "▁󰋨",
        -9.803220183425358
      ],
      [
        "▁󰁏󰁎",
        -9.803788932101561
      ],
      [
        "▁󰋹󰋺󰟦",
        -9.803886546265968
      ],
      [
        "▁󰡃󰡏",
        -9.803999136878128
      ],
      [
        "▁󰋊󰩢󰋨󰋩",
        -9.8040045110486
      ],
      [
        "▁󰟃󰡖󰟈󰋥",
        -9.804136630140881
      ],
      [
        "▁󰡐",
        -9.804241501800494
      ],
      [
        "▁󰞿󰧙󰟈󰋥",
        -9.804632970986265
      ],
      [
        "▁󰡇󰟐",
        -9.80463386514036
      ],
      [
        "▁󰟉󰞻󰋱",
        -9.805053136502298
      ],
      [
        "▁󰋙󰥽󰌠",
        -9.806008497279647
      ],
      [
        "▁󰢗󰌞",
        -9.806230794131807
      ],
      [
        "▁󰋖󰟈󰟇",
        -9.806766148113992
      ],
      [
        "▁󰋥󰠊󰋔",
        -9.80745340723806
      ],
      [
        "▁󰣿󰥓󰟊󰋖",
        -9.807646094987872
      ],
      [
        "󰁉",
        -9.807688950126215
      ],
      [
        "▁󰡳",
        -9.808031576019587
      ],
      [
        "▁󰟮󰋱󰠄",
        -9.808062288907086
      ],
      [
        "▁󰋘󰟫",
        -9.808140630648166
      ],
      [
        "▁󰡛",
        -9.80838072651755
      ],
      [
        "▁󰟌󰋖",
        -9.808476407310764
      ],
      [
        "󰠒󰣛",
        -9.808578010939145
      ],
      [
        "▁󰢆󰋠",
        -9.808809101857202
      ],
      [
        "▁󰞹󰟴󰟄󰋱",
        -9.80986282091062
      ],
      [
        "▁󰋩󰋘󰋱",
        -9.810045181903414
      ],
      [
        "▁󰋆󰠧󰟐",
        -9.810386734964814
      ],
      [
        "▁󰟦󰞻",
        -9.810928925178912
      ],
      [
        "▁󰞿󰟁󰟷",
        -9.811008406165373
      ],
      [
        "▁󰞽󰋳",
        -9.811469854116309
      ],
      [
        "▁󰋹󰤛󰋺",
        -9.811471596656204
      ],
      [
        "▁󰋖󰞷󰟚",
        -9.812089786542664
      ],
      [
        "▁󰋬",
        -9.812194249890085
      ],
      [
        "▁󰋭󰋳󰟉",
        -9.812523096081428
      ],
      [
        "▁󰋬󰟋󰋬󰋳",
        -9.812694179765218
      ],
      [
        "󰁎",
        -9.812902291522459
      ],
      [
        "󰤰",
        -9.813792050820057
      ],
      [
        "▁󰨣󰋫",
        -9.81419506997831
      ],
      [
        "▁󰞼󰋘󰋝",
        -9.814259977094773
      ],
      [
        "▁󰋇󰟏󰟗",
        -9.81488592777057
      ],
      [
        "▁󰟤󰟿󰋱",
        -9.81518844873424
      ],
      [
        "▁󰤣",
        -9.815302829854678
      ],
      [
        "▁󰟳󰋘󰋡󰟅󰋱",
        -9.81533924865117
      ],
      [
        "▁󰡧󰋖",
        -9.815550066444725
      ],
      [
        "▁󰠣󰠆󰟙󰋳",
        -9.815885783614448
      ],
      [
        "▁󰧄󰋹",
        -9.816232690412114
      ],
      [
        "󰟚󰋳󰊴",
        -9.816615647144989
      ],
      [
        "▁󰋇󰟜󰟈󰞼",
        -9.81686727975192
      ],
      [
        "▁󰟝󰟫󰋤",
        -9.816924030683307
      ],
      [
        "▁󰢾󰟠",
        -9.817439804673079
      ],
      [
        "▁󰋇󰋩",
        -9.818942220668255
      ],
      [
        "▁󰋺󰡘󰋱",
        -9.819259650959888
      ],
      [
        "▁󰡰󰞹󰋱",
        -9.819358855054809
      ],
      [
        "▁󰟄󰋭󰟁",
        -9.819918708449825
      ],
      [
        "▁󰋘󰋤",
        -9.820699466329044
      ],
      [
        "▁󰋇󰟝󰋳󰟂󰋱",
        -9.8207368658798
      ],
      [
        "▁󰋯󰢝󰟝",
        -9.821361749260777
      ],
      [
        "▁󰠁󰞷",
        -9.821382145998099
      ],
      [
        "▁󰋆󰟅󰞺󰋱",
        -9.821497488919167
      ],
      [
        "▁󰢂󰟤󰪤",
        -9.822497973722754
      ],
      [
        "▁󰟼󰟛",
        -9.823354971668246
      ],
      [
        "▁󰋊󰋫󰟍󰋱",
        -9.824124775039804
      ],
      [
        "▁󰋹󰢬󰋭󰋥",
        -9.82432739040086
      ],
      [
        "▁󰀩",
        -9.824493225007453
      ],
      [
        "▁󰞸󰟅󰋱",
        -9.824973135529245
      ],
      [
        "▁󰋈󰟊󰟍󰟐󰋱",
        -9.826142380148413
      ],
      [
        "▁󰡥",
        -9.826565333504291
      ],
      [
        "▁󰋝󰟫󰟈",
        -9.827762565916586
      ],
      [
        "▁󰦏󰋯󰋤",
        -9.827783255580957
      ],
      [
        "▁󰠊󰋖",
        -9.82789962059355
      ],
      [
        "▁󰟑󰋩󰊴",
        -9.827927159166235
      ],
      [
        "▁󰋹󰌏",
        -9.828050908236097
      ],
      [
        "󰧥",
        -9.828111735911145
      ],
      [
        "▁󰠵󰣹󰟑󰋩",
        -9.828526678287199
      ],
      [
        "▁󰋖󰟈󰋳",
        -9.829580786908874
      ],
      [
        "▁󰟮󰟶󰟮󰟈",
        -9.829730026114095
      ],
      [
        "󰡚",
        -9.829938639638067
      ],
      [
        "▁󰋊󰋫󰟦󰟋󰌠",
        -9.830932797122987
      ],
      [
        "▁󰋹󰥪󰋈",
        -9.831143974911308
      ],
      [
        "▁󰋆󰟲",
        -9.831163998048662
      ],
      [
        "▁󰋺󰟡󰀌",
        -9.831325043160742
      ],
      [
        "▁󰞼󰢝󰋳󰞾",
        -9.831739635171962
      ],
      [
        "▁󰋩󰟬󰞹",
        -9.83208795617696
      ],
      [
        "▁󰟃󰠃󰠋",
        -9.832212447208647
      ],
      [
        "▁󰋹󰋱󰞼󰋱󰊴",
        -9.832726064385596
      ],
      [
        "▁󰞽󰢽",
        -9.833279066267995
      ],
      [
        "▁󰞼󰠦",
        -9.834126742033266
      ],
      [
        "▁󰟃󰋸",
        -9.834550243652863
      ],
      [
        "▁󰋊󰌏󰋹",
        -9.834762591481896
      ],
      [
        "󰋷󰠘",
        -9.834848145733323
      ],
      [
        "▁󰞽󰋡",
        -9.835274715704525
      ],
      [
        "▁󰟕󰟍󰋝",
        -9.837001960472346
      ],
      [
        "▁󰩅",
        -9.837023372677434
      ],
      [
        "▁󰟌󰞾󰋱",
        -9.8371018026782
      ],
      [
        "▁󰞸󰡖󰋱",
        -9.837260896098723
      ],
      [
        "▁󰋧󰟆",
        -9.837504928637113
      ],
      [
        "▁󰋹󰟗󰟊󰋱",
        -9.837597553042281
      ],
      [
        "▁󰞼󰟅",
        -9.837754986756247
      ],
      [
        "▁󰡲󰠎󰋱",
        -9.837840772944793
      ],
      [
        "▁󰋭󰋺󰋩",
        -9.838732756801615
      ],
      [
        "▁󰋯󰡆󰋳",
        -9.839197529533836
      ],
      [
        "▁󰞿󰧦",
        -9.8398394247823
      ],
      [
        "▁󰟸󰡟󰋳",
        -9.840854925994298
      ],
      [
        "󰣸",
        -9.841127331391606
      ],
      [
        "󰡬",
        -9.841940700424544
      ],
      [
        "▁󰟐󰋩",
        -9.842871123118117
      ],
      [
        "▁󰟌󰋱󰟇󰋩󰊴",
        -9.843138851451906
      ],
      [
        "▁󰦌",
        -9.844332666105766
      ],
      [
        "▁󰋺󰋈󰟀󰋱",
        -9.844383665690032
      ],
      [
        "▁󰋹󰋺󰟦󰋈",
        -9.844745166209085
      ],
      [
        "▁󰤻󰋷󰋳",
        -9.845238009558853
      ],
      [
        "▁󰟢󰋸",
        -9.845655598603141
      ],
      [
        "󰠁󰋱",
        -9.845730829287334
      ],
      [
        "▁󰋹󰡟󰟠󰋸",
        -9.845889296719708
      ],
      [
        "▁󰟑󰞾󰟚󰞻󰋩",
        -9.846087443800469
      ],
      [
        "▁󰠷󰣗",
        -9.84616992561508
      ],
      [
        "▁󰠌󰌠󰋈",
        -9.846501920110157
      ],
      [
        "▁󰠰󰞾󰣱",
        -9.848312527066637
      ],
      [
        "▁󰥌󰌠󰋧",
        -9.848470408494252
      ],
      [
        "▁󰋹󰋧󰢘󰟄󰋱",
        -9.848516710581066
      ],
      [
        "▁󰋫󰠉󰟆",
        -9.848738881474357
      ],
      [
        "▁󰟸󰀇",
        -9.849705924325791
      ],
      [
        "▁󰟑󰠤",
        -9.84977734256997
      ],
      [
        "󰟀󰠊󰋱",
        -9.85008719222196
      ],
      [
        "󰋹󰠺󰠖󰋱",
        -9.850681562334064
      ],
      [
        "▁󰋛󰟖󰟆",
        -9.851448423912556
      ],
      [
        "▁󰋭󰡄",
        -9.851843291655012
      ],
      [
        "󰋫󰟈",
        -9.852964591884868
      ],
      [
        "▁󰟀󰡾",
        -9.85304730314577
      ],
      [
        "▁󰟃󰥃",
        -9.853357147312881
      ],
      [
        "󰁏",
        -9.853431464196067
      ],
      [
        "▁󰋖󰋱󰋭",
        -9.854648221713761
      ],
      [
        "▁󰋖󰟶",
        -9.855185746163382
      ],
      [
        "󰞼󰠡󰋩",
        -9.85520502861889
      ],
      [
        "▁󰡳󰋖󰀌",
        -9.855326890529687
      ],
      [
        "▁󰋭󰟖󰋳",
        -9.855689340224497
      ],
      [
        "▁󰞿󰌠󰢌󰠐",
        -9.85677207178762
      ],
      [
        "▁󰋐󰋯󰞿",
        -9.856958469623669
      ],
      [
        "▁󰋆󰢂󰋨",
        -9.857152029336554
      ],
      [
        "▁󰋮󰋱󰟏",
        -9.85724772232816
      ],
      [
        "▁󰋆󰋩󰟷",
        -9.857666421804403
      ],
      [
        "▁󰋩󰋝󰟫󰋳",
        -9.85803689518726
      ],
      [
        "▁󰟼󰋭󰟍󰞷󰋱",
        -9.858421580526441
      ],
      [
        "▁󰟸󰟮󰋱",
        -9.858432540050686
      ],
      [
        "▁󰋛󰟋󰋛󰋳",
        -9.85863914663527
      ],
      [
        "󰋯󰋥",
        -9.858970011914836
      ],
      [
        "▁󰌮󰌧",
        -9.859396265230062
      ],
      [
        "▁󰋇󰋹󰟅",
        -9.859704673536946
      ],
      [
        "▁󰋆󰟯󰟀󰋧",
        -9.859774765535388
      ],
      [
        "▁󰫑",
        -9.860020278903118
      ],
      [
        "▁󰟳󰥓󰋥",
        -9.860415537746391
      ],
      [
        "▁󰤆󰋱",
        -9.860836630898905
      ],
      [
        "▁󰋹󰋬󰞷",
        -9.861118556591169
      ],
      [
        "▁󰣿󰟀󰟑󰋖󰟄󰋱",
        -9.861126208780474
      ],
      [
        "▁󰀇󰋇󰟗",
        -9.861155802717493
      ],
      [
        "▁󰋮󰟆󰋭󰋺",
        -9.861598617221082
      ],
      [
        "▁󰋹󰦔",
        -9.862750248235235
      ],
      [
        "▁󰋨󰟭󰟀󰋧",
        -9.863543022824961
      ],
      [
        "▁󰞺󰋩󰀌",
        -9.864086741319074
      ],
      [
        "▁󰟿󰞾",
        -9.86452336418909
      ],
      [
        "󰟮󰞷",
        -9.864618274604908
      ],
      [
        "▁󰋱󰋺󰞽󰟅󰋱",
        -9.864682907795865
      ],
      [
        "▁󰠌󰡾",
        -9.865184382542784
      ],
      [
        "▁󰋥󰌏󰞼󰠡󰋩",
        -9.865394426074802
      ],
      [
        "▁󰞿󰤯󰋷󰞹",
        -9.865690689793135
      ],
      [
        "▁󰋭󰟖󰞻󰋩",
        -9.866030295551266
      ],
      [
        "▁󰟎󰟰󰋩󰋯󰢐󰋱",
        -9.866594209595045
      ],
      [
        "▁󰋮󰞷",
        -9.866694579362132
      ],
      [
        "󰋱󰋤",
        -9.86709655626956
      ],
      [
        "▁󰟮󰤶",
        -9.867311034015222
      ],
      [
        "󰌩",
        -9.867566430959423
      ],
      [
        "▁󰟎󰟊󰟇󰋧󰟅",
        -9.86762281890096
      ],
      [
        "▁󰠨󰋱󰋤",
        -9.868814316997838
      ],
      [
        "▁󰟬󰋹󰋳󰞽󰋩󰟄󰋱",
        -9.868968108544031
      ],
      [
        "▁󰋧󰡂",
        -9.869087839616496
      ],
      [
        "▁󰟃󰋖󰡣",
        -9.86949233486771
      ],
      [
        "▁󰟋󰋘󰋳",
        -9.869553579656353
      ],
      [
        "▁󰠷󰋩",
        -9.869805153102822
      ],
      [
        "▁󰋈󰞿",
        -9.870534575177059
      ],
      [
        "▁󰋆󰋩󰟋󰋈󰋩",
        -9.871341839460696
      ],
      [
        "▁󰋈󰤬󰋥",
        -9.872098548293776
      ],
      [
        "▁󰌪󰌬",
        -9.87218998858348
      ],
      [
        "▁󰟿󰞿󰟆",
        -9.87339191141487
      ],
      [
        "▁󰟧󰢨󰞿󰋱",
        -9.873411303450752
      ],
      [
        "▁󰋫󰟈󰋭󰥨",
        -9.873594470898965
      ],
      [
        "▁󰟓󰋱󰠌󰡽",
        -9.873931097737174
      ],
      [
        "▁󰟍󰞷",
        -9.874689457755998
      ],
      [
        "▁󰞷󰋳",
        -9.874743546099763
      ],
      [
        "▁󰡔󰫐",
        -9.875304352316178
      ],
      [
        "▁󰋫󰟈󰋭󰋺󰋩",
        -9.875689113143045
      ],
      [
        "▁󰋊󰡂󰋯",
        -9.876373851435417
      ],
      [
        "▁󰟃󰪃󰋥",
        -9.876723414531536
      ],
      [
        "▁󰟸󰋨",
        -9.876821724014842
      ],
      [
        "▁󰟎󰋖󰥯󰋱",
        -9.877245334946991
      ],
      [
        "▁󰠺󰣶",
        -9.877360354287612
      ],
      [
        "▁󰋊󰦑󰟨",
        -9.877361021419858
      ],
      [
        "▁󰋺󰟹󰊴",
        -9.87872895277809
      ],
      [
        "▁󰟢󰟌",
        -9.879065822598362
      ],
      [
        "▁󰋱󰥵󰋱",
        -9.879363818254834
      ],
      [
        "▁󰋫󰪩",
        -9.879403435455087
      ],
      [
        "▁󰞿󰧙󰋱󰋤",
        -9.87952891525018
      ],
      [
        "▁󰋇󰋔󰟁󰌠",
        -9.880070946210212
      ],
      [
        "▁󰟏󰟽",
        -9.880177198537222
      ],
      [
        "▁󰢻󰥈",
        -9.880185702645072
      ],
      [
        "▁󰤫󰋭",
        -9.880815642281357
      ],
      [
        "▁󰋩󰞷󰡶",
        -9.882489990657968
      ],
      [
        "▁󰋇󰦻",
        -9.882523920829598
      ],
      [
        "▁󰞼󰋯",
        -9.883260232504572
      ],
      [
        "▁󰋇󰟖",
        -9.88376926364835
      ],
      [
        "▁󰟄󰋗󰞻",
        -9.883805790307758
      ],
      [
        "▁󰟸󰩠󰟊",
        -9.883865294223366
      ],
      [
        "▁󰠱󰋥󰢌",
        -9.883973512357775
      ],
      [
        "▁󰦟󰞼",
        -9.884164199434455
      ],
      [
        "▁󰋭󰟅",
        -9.88424098045951
      ],
      [
        "▁󰋨󰋱󰟂",
        -9.884342996258026
      ],
      [
        "▁󰞽󰟯󰋸󰊴",
        -9.884481095300139
      ],
      [
        "▁󰋺󰋈󰟇󰀌",
        -9.88490429266358
      ],
      [
        "󰢦",
        -9.885183213604314
      ],
      [
        "▁󰋹󰢁󰌠",
        -9.885404556892158
      ],
      [
        "󰋹󰀌",
        -9.88549118013946
      ],
      [
        "▁󰋖󰩳",
        -9.885574148470921
      ],
      [
        "▁󰋹󰦼󰌠",
        -9.886185429301397
      ],
      [
        "▁󰟰󰞷",
        -9.8875577526894
      ],
      [
        "󰟝󰋩",
        -9.887900288959742
      ],
      [
        "▁󰟎󰋧󰡸󰋩",
        -9.888101829739439
      ],
      [
        "▁󰠝󰞾󰟚󰋳",
        -9.888471293924617
      ],
      [
        "▁󰟢󰟋󰠄",
        -9.889463030639739
      ],
      [
        "▁󰋯󰢌",
        -9.889534921048284
      ],
      [
        "▁󰋺󰋈󰟆󰟚󰋳󰊴",
        -9.889602534671955
      ],
      [
        "󰋛󰡶",
        -9.889864562953626
      ],
      [
        "▁󰟄󰡉󰋩",
        -9.890269815342405
      ],
      [
        "▁󰋇󰟗󰋔",
        -9.890362994730408
      ],
      [
        "▁󰋊󰥫󰋝󰞹",
        -9.890478929967305
      ],
      [
        "▁󰟏󰠖󰟇󰋱",
        -9.891314906120751
      ],
      [
        "󰟬󰠓",
        -9.89208060389377
      ],
      [
        "▁󰟶󰟪󰢹",
        -9.89300493318991
      ],
      [
        "▁󰞿󰟗󰡂",
        -9.893008358107828
      ],
      [
        "▁󰟎󰟱󰋹󰋩",
        -9.893561632655068
      ],
      [
        "▁󰟁󰟈󰠀",
        -9.893726936594701
      ],
      [
        "▁󰋯󰠄",
        -9.894347546470744
      ],
      [
        "󰟞󰞹",
        -9.894627341005275
      ],
      [
        "▁󰟳󰠒󰋘",
        -9.895155420904265
      ],
      [
        "󰟵󰟡󰞺",
        -9.895208345705061
      ],
      [
        "▁󰟌󰟍󰌝",
        -9.896089434902196
      ],
      [
        "▁󰟌󰠿󰞾",
        -9.896302711766678
      ],
      [
        "▁󰁆󰁏󰁒",
        -9.896473261667515
      ],
      [
        "▁󰞿󰋖󰠂",
        -9.896675809424105
      ],
      [
        "▁󰞿󰧤󰋥",
        -9.896830460277021
      ],
      [
        "▁󰋐󰞼󰟷",
        -9.897201499843275
      ],
      [
        "󰋙",
        -9.897238829896166
      ],
      [
        "▁󰟧󰋛",
        -9.897727671250555
      ],
      [
        "▁󰠻󰋯󰟔",
        -9.89783645425685
      ],
      [
        "▁󰞺󰥲󰋱",
        -9.898359648554756
      ],
      [
        "▁󰠚󰠓󰞸󰣦",
        -9.898938984207785
      ],
      [
        "▁󰡍󰞽",
        -9.899230783312673
      ],
      [
        "▁󰟇󰋥󰋩",
        -9.89950068740706
      ],
      [
        "▁󰟎󰟱󰋹󰟅󰋱",
        -9.89970530699732
      ],
      [
        "▁󰋹󰧑󰋠",
        -9.900271415285191
      ],
      [
        "▁󰋆󰠮󰟾󰟊",
        -9.900406043103297
      ],
      [
        "󰡋󰋱",
        -9.901156693966737
      ],
      [
        "▁󰟅󰟆󰋱",
        -9.901285550346676
      ],
      [
        "▁󰟌󰟠󰋱",
        -9.90143095929851
      ],
      [
        "󰋯󰋩",
        -9.901661329379907
      ],
      [
        "▁󰢩󰋸",
        -9.901812492712313
      ],
      [
        "▁󰟛󰟔󰟂",
        -9.90187108842809
      ],
      [
        "▁󰟳󰠚󰠓",
        -9.901879387268549
      ],
      [
        "󰟋󰋯",
        -9.902200045918608
      ],
      [
        "▁󰟛󰋖",
        -9.90225449607734
      ],
      [
        "▁󰟬󰟍󰤇󰋧",
        -9.902532432990013
      ],
      [
        "▁󰋥󰋗󰋩󰋔",
        -9.902788437778955
      ],
      [
        "▁󰋊󰋫󰡡󰋹",
        -9.903472878375307
      ],
      [
        "󰋩󰠼",
        -9.904335727447544
      ],
      [
        "▁󰪁󰡹",
        -9.90445661766265
      ],
      [
        "▁󰟃󰡋󰞼󰋫",
        -9.90519064295672
      ],
      [
        "▁󰋇󰟋󰋫",
        -9.905390633529485
      ],
      [
        "▁󰞿󰞾󰋈",
        -9.905647783496052
      ],
      [
        "▁󰋫󰢄󰋯",
        -9.905697155960045
      ],
      [
        "󰟢󰋱",
        -9.90569784228488
      ],
      [
        "▁󰠬󰋝",
        -9.9059643999756
      ],
      [
        "▁󰋊󰟝󰋺󰋱󰋤",
        -9.907064350211478
      ],
      [
        "▁󰋺󰋈",
        -9.907123716599099
      ],
      [
        "▁󰟎󰟊󰢁󰟆",
        -9.907976080137182
      ],
      [
        "󰤣",
        -9.909336636593803
      ],
      [
        "▁󰋭󰋹󰟀󰋹",
        -9.909402311402882
      ],
      [
        "▁󰞸󰞾󰋱",
        -9.90955554662971
      ],
      [
        "▁󰟳󰡕󰋯",
        -9.91031640397895
      ],
      [
        "▁󰋛󰤟",
        -9.910595809958817
      ],
      [
        "▁󰡺󰠂󰋱",
        -9.910772194064888
      ],
      [
        "󰩝",
        -9.910798285508369
      ],
      [
        "▁󰁗󰁉󰁔󰁈",
        -9.911391302035657
      ],
      [
        "▁󰞼󰠞󰞼󰟚",
        -9.912145077739313
      ],
      [
        "▁󰋭󰧟",
        -9.912465724963235
      ],
      [
        "▁󰞽󰋔󰟋󰞹",
        -9.912584076549257
      ],
      [
        "▁󰟕󰋩",
        -9.912923510802157
      ],
      [
        "▁󰋝󰟒󰋳",
        -9.91304784247335
      ],
      [
        "▁󰋺󰋈󰋳󰀌",
        -9.913132870280327
      ],
      [
        "▁󰋖󰦸",
        -9.913190248367282
      ],
      [
        "▁󰡃󰋺󰌏",
        -9.913415950654855
      ],
      [
        "▁󰋹󰠎󰋥󰋩",
        -9.91342860467456
      ],
      [
        "󰞸󰋈",
        -9.913572982126793
      ],
      [
        "▁󰟌󰋦󰋱",
        -9.914052499224432
      ],
      [
        "▁󰋫󰞸󰠆󰋥",
        -9.914187842304827
      ],
      [
        "▁󰌩󰌧󰌩󰌧",
        -9.914352581333972
      ],
      [
        "▁󰌩󰌧󰌨󰌰",
        -9.914559095069182
      ],
      [
        "▁󰥗󰟖󰋖",
        -9.914797997831867
      ],
      [
        "▁󰤥󰋺",
        -9.915363915578434
      ],
      [
        "▁󰟸󰀇󰟒",
        -9.915624804316796
      ],
      [
        "▁󰋹󰦰󰋳󰋩",
        -9.915784086040773
      ],
      [
        "▁󰋫󰦷󰋩",
        -9.916282367568828
      ],
      [
        "▁󰟕󰣓󰋩",
        -9.916332081499617
      ],
      [
        "▁󰠃󰩀",
        -9.916394491538842
      ],
      [
        "▁󰟬󰠘󰠒󰢋",
        -9.916729131428214
      ],
      [
        "󰧕",
        -9.91774685390827
      ],
      [
        "▁󰠲󰋱󰋥",
        -9.917844925745191
      ],
      [
        "▁󰀇󰋐",
        -9.9186246190624
      ],
      [
        "▁󰋆󰡡󰌠",
        -9.918646625859019
      ],
      [
        "󰤌󰋱",
        -9.918918896930805
      ],
      [
        "▁󰟸󰣹󰋠󰞹",
        -9.918945075318408
      ],
      [
        "▁󰟌󰞸",
        -9.919264514726182
      ],
      [
        "▁󰋖󰞻󰟦",
        -9.919623642724229
      ],
      [
        "󰋫󰋧",
        -9.919791942215365
      ],
      [
        "▁󰟅󰟁󰟄󰋱",
        -9.919858716028255
      ],
      [
        "▁󰋆󰋹󰢬󰋭",
        -9.91997552798159
      ],
      [
        "▁󰋆󰠢󰞼󰟴",
        -9.92047370953171
      ],
      [
        "▁󰋹󰋖󰋳󰞺",
        -9.92082727371458
      ],
      [
        "▁󰠲󰋹󰠊󰋖",
        -9.921229286429
      ],
      [
        "▁󰋖󰋱󰋥",
        -9.921561190895313
      ],
      [
        "▁󰢂󰡌󰞿󰋖",
        -9.921795263400794
      ],
      [
        "▁󰋆󰟯󰠛󰋧󰋩",
        -9.922292267683462
      ],
      [
        "▁󰡹",
        -9.92298902325414
      ],
      [
        "▁󰡉󰋳󰞹",
        -9.92326715294801
      ],
      [
        "󰟍󰋱",
        -9.923450732601284
      ],
      [
        "▁󰟝󰋔",
        -9.923751914248527
      ],
      [
        "▁󰟃󰟄󰡅",
        -9.923875534272494
      ],
      [
        "󰟵󰟖󰞺",
        -9.9240115162358
      ],
      [
        "▁󰟓󰟴",
        -9.924274244776612
      ],
      [
        "▁󰤘󰠖",
        -9.925350958273818
      ],
      [
        "󰟚󰞻󰋩",
        -9.925898088022308
      ],
      [
        "▁󰟜󰟋",
        -9.925900861125635
      ],
      [
        "▁󰟗󰠋",
        -9.926075316285713
      ],
      [
        "▁󰟓󰋭󰞹",
        -9.926464672298428
      ],
      [
        "▁󰠨",
        -9.927013896651028
      ],
      [
        "▁󰞽󰡊󰟗󰋖",
        -9.927091766451765
      ],
      [
        "▁󰠲󰟋",
        -9.927831058877814
      ],
      [
        "▁󰡴",
        -9.928253787336775
      ],
      [
        "▁󰟰󰦡",
        -9.928295826646856
      ],
      [
        "▁󰋰󰢌",
        -9.928306444638835
      ],
      [
        "󰞿󰟆",
        -9.928571484939173
      ],
      [
        "▁󰋜󰟃󰟒",
        -9.928688749821733
      ],
      [
        "▁󰟓󰋈󰞸󰋹",
        -9.929276348455353
      ],
      [
        "▁󰟏󰋬󰣬",
        -9.929515263324186
      ],
      [
        "󰡦",
        -9.9295985551305
      ],
      [
        "▁󰣻󰋧󰞾",
        -9.930103617113
      ],
      [
        "▁󰟒󰋯",
        -9.930591713684459
      ],
      [
        "▁󰋊󰣮󰤎󰀌",
        -9.930786062399022
      ],
      [
        "▁󰟟󰟙",
        -9.932542835211988
      ],
      [
        "▁󰋔󰞺",
        -9.932769347052593
      ],
      [
        "▁󰠆󰟆",
        -9.932942363965681
      ],
      [
        "▁󰟕󰞿󰞾󰟉󰀌",
        -9.933516376466644
      ],
      [
        "▁󰋖󰋱󰋳󰊴",
        -9.934142153857318
      ],
      [
        "▁󰋺󰀇󰞾",
        -9.934188121671367
      ],
      [
        "▁󰟅󰋩󰊴",
        -9.934371435282968
      ],
      [
        "▁󰋖󰟈󰟇󰊴",
        -9.93454153885158
      ],
      [
        "▁󰟝󰟝",
        -9.935247968312936
      ],
      [
        "▁󰋇󰋭󰟍󰋔󰟆",
        -9.935763365903158
      ],
      [
        "▁󰟘󰟍󰋱",
        -9.936329197185685
      ],
      [
        "󰟡󰋖",
        -9.936674933041399
      ],
      [
        "▁󰋧󰋱󰞼󰋱󰊴",
        -9.937141672459944
      ],
      [
        "▁󰞸󰟂󰋱",
        -9.937392265582055
      ],
      [
        "▁󰠚󰋭",
        -9.937409827687292
      ],
      [
        "▁󰞸󰢷",
        -9.937489434580305
      ],
      [
        "▁󰟲󰌝",
        -9.937755878599065
      ],
      [
        "▁󰋹󰡜󰢔",
        -9.937848298980128
      ],
      [
        "▁󰋹󰢱󰟅󰋱",
        -9.937923311671181
      ],
      [
        "▁󰋔󰟞󰟅",
        -9.938577494006848
      ],
      [
        "󰋠󰊴",
        -9.938716448045811
      ],
      [
        "󰀁󰀇",
        -9.938995315518994
      ],
      [
        "▁󰠇󰋯󰟁󰌠",
        -9.9390800100943
      ],
      [
        "▁󰠲",
        -9.93967934949586
      ],
      [
        "▁󰞽󰋈󰋳",
        -9.940207025326952
      ],
      [
        "▁󰞽󰟒󰋱",
        -9.940843416277167
      ],
      [
        "▁󰟳󰋖󰋠",
        -9.941304167182162
      ],
      [
        "▁󰟨󰟉󰋩󰊴",
        -9.941646523113315
      ],
      [
        "▁󰟀󰟥󰣱",
        -9.941809857617445
      ],
      [
        "▁󰋈󰋊󰟶󰣵󰌠",
        -9.941981017178012
      ],
      [
        "󰔟",
        -9.942174192609956
      ],
      [
        "󰢵",
        -9.942323021816149
      ],
      [
        "󰟾󰌠",
        -9.942477230865293
      ],
      [
        "▁󰋇󰤗󰠫",
        -9.942568220200355
      ],
      [
        "▁󰋇󰞼󰟠",
        -9.942958788232671
      ],
      [
        "▁󰋹󰡜󰤚󰋥",
        -9.943356198969276
      ],
      [
        "󰞹󰊴",
        -9.944740487952899
      ],
      [
        "▁󰩍󰟽",
        -9.944747895365715
      ],
      [
        "▁󰡞󰀟",
        -9.945116664113456
      ],
      [
        "▁󰡰󰟕",
        -9.945455264623458
      ],
      [
        "▁󰞸󰤄",
        -9.945633626442378
      ],
      [
        "▁󰟐󰠅",
        -9.946105757433259
      ],
      [
        "▁󰋖󰦇",
        -9.946157772576454
      ],
      [
        "▁󰟸󰋝󰋩",
        -9.946322380297586
      ],
      [
        "▁󰋭󰪨󰟁",
        -9.946707121739651
      ],
      [
        "▁󰞼󰣗",
        -9.94731688536486
      ],
      [
        "󰟮󰞷󰋱",
        -9.947673373526019
      ],
      [
        "▁󰋈󰟍󰋈",
        -9.947935756403105
      ],
      [
        "󰢒",
        -9.94897532389809
      ],
      [
        "▁󰡍󰞽󰟷",
        -9.949130886196802
      ],
      [
        "󰀎󰀎",
        -9.94979547318981
      ],
      [
        "▁󰋆󰥟",
        -9.950378666674062
      ],
      [
        "▁󰟎󰋛󰢜",
        -9.950632109718828
      ],
      [
        "▁󰋛󰞻󰟉󰊴",
        -9.951118734650116
      ],
      [
        "󰩯",
        -9.951151139983468
      ],
      [
        "▁󰋥󰋥",
        -9.95135482998715
      ],
      [
        "󰡲󰋩",
        -9.951485218814046
      ],
      [
        "▁󰋘󰌝",
        -9.951918719220549
      ],
      [
        "▁󰞿󰢝󰋥󰋩",
        -9.952290050053518
      ],
      [
        "󰁋",
        -9.95274508783916
      ],
      [
        "▁󰟃󰋸󰞾󰋱",
        -9.95291550031445
      ],
      [
        "▁󰋝󰟀󰟇",
        -9.953057840602588
      ],
      [
        "▁󰟔󰟅",
        -9.953190160471687
      ],
      [
        "▁󰢁󰟆",
        -9.953256061403508
      ],
      [
        "󰟝󰋹",
        -9.953477373260476
      ],
      [
        "▁󰟨󰞻󰋩󰊴",
        -9.953733876277761
      ],
      [
        "▁󰋖󰟈󰟆󰟚󰞻󰋩󰊴",
        -9.954356040695721
      ],
      [
        "▁󰟌󰋳",
        -9.954478364982272
      ],
      [
        "▁󰋐󰟹",
        -9.955448662963914
      ],
      [
        "󰠏󰞽󰋱",
        -9.955468862635021
      ],
      [
        "▁󰟌󰋹",
        -9.955783753313082
      ],
      [
        "▁󰋆󰟲󰠚󰠓",
        -9.956141255862194
      ],
      [
        "󰡳",
        -9.956648231714915
      ],
      [
        "▁󰋩󰠖󰀌",
        -9.957136016596834
      ],
      [
        "▁󰠁󰞾󰟉󰋩",
        -9.957818912006621
      ],
      [
        "▁󰋮󰟃󰤪󰟂",
        -9.958406761454766
      ],
      [
        "󰠞",
        -9.959918704713179
      ],
      [
        "▁󰋆󰟯󰟘󰢈󰀌",
        -9.961048837516643
      ],
      [
        "󰋐󰋱",
        -9.961615898303402
      ],
      [
        "󰡅󰋳",
        -9.96167506116793
      ],
      [
        "▁󰟄󰟞󰠄",
        -9.961725209505627
      ],
      [
        "▁󰟇󰟉",
        -9.961731760692137
      ],
      [
        "▁󰞸󰡝",
        -9.962561346254539
      ],
      [
        "󰣐",
        -9.963048079860226
      ],
      [
        "▁󰠰󰟋󰋯",
        -9.963677529893967
      ],
      [
        "󰟄󰋷",
        -9.965166870278223
      ],
      [
        "▁󰋭󰞻󰟚󰞻󰋩󰀌",
        -9.965484017080726
      ],
      [
        "󰢜",
        -9.965687112419365
      ],
      [
        "▁󰋉󰡋󰞷󰋱",
        -9.965920639524205
      ],
      [
        "▁󰋆󰋭󰟝󰋩",
        -9.966746114334748
      ],
      [
        "▁󰠎󰠁",
        -9.967421215838986
      ],
      [
        "▁󰋐󰋱󰋈",
        -9.967903053804218
      ],
      [
        "▁󰠞",
        -9.968713784236462
      ],
      [
        "󰟞󰞿",
        -9.969810182166837
      ],
      [
        "▁󰣾󰠭󰟊",
        -9.97055280678256
      ],
      [
        "󰠏󰋳",
        -9.970566814798618
      ],
      [
        "▁󰋱󰋺󰢘",
        -9.970649118818972
      ],
      [
        "▁󰟌󰋡󰋖",
        -9.970944007673324
      ],
      [
        "▁󰠨󰥂",
        -9.970984635449009
      ],
      [
        "▁󰠃󰟔󰌏󰟏󰋱",
        -9.971126025345717
      ],
      [
        "▁󰟃󰟄󰟤",
        -9.971553818747802
      ],
      [
        "▁󰋧󰋳󰟒",
        -9.971803045714383
      ],
      [
        "▁󰠚󰫫",
        -9.972301606346866
      ],
      [
        "▁󰞼󰋩",
        -9.972397615790415
      ],
      [
        "▁󰋹󰋧󰢘󰞸",
        -9.972456159730944
      ],
      [
        "▁󰟎󰡙󰋝󰋩󰊴",
        -9.97256882164891
      ],
      [
        "▁󰡐󰋩",
        -9.97327288545502
      ],
      [
        "▁󰋭󰋳󰟋󰋯󰀌",
        -9.973823342430258
      ],
      [
        "󰥚",
        -9.973917042327214
      ],
      [
        "▁󰟞󰟅󰋱",
        -9.97410515415567
      ],
      [
        "󰟌󰋱",
        -9.974309863715655
      ],
      [
        "▁󰠃󰋱",
        -9.975236147178585
      ],
      [
        "▁󰟀󰤑󰟂",
        -9.975383799154471
      ],
      [
        "▁󰋳󰥦",
        -9.976016623624984
      ],
      [
        "▁󰞸󰡫󰋳",
        -9.976988864334551
      ],
      [
        "▁󰋖󰣩󰟄󰋱",
        -9.977009496881971
      ],
      [
        "▁󰋇󰞼󰋱",
        -9.977101935505383
      ],
      [
        "▁󰟃󰢏󰋳󰞾󰋱",
        -9.97735302692933
      ],
      [
        "󰢅",
        -9.97820819285125
      ],
      [
        "▁󰞸󰥶󰋱",
        -9.978253178042879
      ],
      [
        "▁󰋔󰟓󰞷",
        -9.97829281564386
      ],
      [
        "▁󰠷󰞽",
        -9.978729770853157
      ],
      [
        "▁󰠒󰣛",
        -9.978906524098687
      ],
      [
        "▁󰋆󰋥",
        -9.97943004259783
      ],
      [
        "▁󰋊󰌏󰟏󰋺",
        -9.979823348830273
      ],
      [
        "󰢠󰞸",
        -9.980607856746595
      ],
      [
        "▁󰟀󰟏",
        -9.981384085578133
      ],
      [
        "▁󰟶󰟨󰋱",
        -9.981438020318324
      ],
      [
        "▁󰟫󰋷",
        -9.98149572737947
      ],
      [
        "▁󰟋󰠝󰞾",
        -9.981525428119694
      ],
      [
        "▁󰋆󰟏󰟰󰋱󰋤",
        -9.981580078798956
      ],
      [
        "▁󰢭󰟼",
        -9.98202759628576
      ],
      [
        "▁󰋖󰟋",
        -9.982812899339276
      ],
      [
        "▁󰟌󰟇󰋩",
        -9.983176842897771
      ],
      [
        "▁󰋯󰋹󰠆󰋧",
        -9.983502706362259
      ],
      [
        "▁󰟃󰩌",
        -9.983587622957671
      ],
      [
        "▁󰋇󰟜󰟈󰞼󰋩",
        -9.984049671972201
      ],
      [
        "▁󰁔󰁈󰁁󰁔",
        -9.984126412803407
      ],
      [
        "▁󰦍",
        -9.984238835867872
      ],
      [
        "▁󰋹󰡚󰡱",
        -9.985133106662479
      ],
      [
        "▁󰟃󰡋󰟃󰢏󰋳󰞾",
        -9.98557910221254
      ],
      [
        "▁󰋧󰟈󰢭",
        -9.985780287336413
      ],
      [
        "▁󰋛󰋯󰌏󰞼󰋱",
        -9.985828882266716
      ],
      [
        "▁󰠪󰩆",
        -9.986406474613053
      ],
      [
        "▁󰋐󰋖󰟑󰞺",
        -9.98658912275853
      ],
      [
        "▁󰋯󰡑󰋱",
        -9.986796755879457
      ],
      [
        "▁󰋹󰋱󰋳",
        -9.987035841964321
      ],
      [
        "▁󰟕󰞹󰟂",
        -9.987255181571465
      ],
      [
        "▁󰀈󰌨󰌰",
        -9.987303416459563
      ],
      [
        "󰋇󰋱",
        -9.98732555203852
      ],
      [
        "▁󰋖󰡮󰟼",
        -9.987668233889282
      ],
      [
        "▁󰠅󰋳󰞹",
        -9.987911898897629
      ],
      [
        "󰋫󰟊",
        -9.98976583043334
      ],
      [
        "▁󰡤",
        -9.989814398329404
      ],
      [
        "▁󰟄󰌝",
        -9.990140441794447
      ],
      [
        "▁󰟢󰟈",
        -9.990609279258102
      ],
      [
        "▁󰟄󰌠󰀌",
        -9.990684215100583
      ],
      [
        "▁󰟖󰠀󰟉󰋩",
        -9.990878310766618
      ],
      [
        "▁󰞼󰞽󰋳",
        -9.990944013637044
      ],
      [
        "▁󰋐󰠯󰡝",
        -9.991028768572257
      ],
      [
        "󰡀",
        -9.991197324712468
      ],
      [
        "▁󰟗󰡩",
        -9.991350277712801
      ],
      [
        "▁󰋯󰟍󰞸󰋝",
        -9.99139494473675
      ],
      [
        "▁󰋥󰋱󰠲",
        -9.991836483935451
      ],
      [
        "▁󰋭󰞻󰟚󰞻󰋩",
        -9.992707887675271
      ],
      [
        "󰁒",
        -9.993089574686607
      ],
      [
        "▁󰟳󰤎󰋖",
        -9.993199451038933
      ],
      [
        "▁󰟃󰣔󰠥",
        -9.993629526585831
      ],
      [
        "▁󰋯󰋧",
        -9.993679314947292
      ],
      [
        "▁󰟏󰋘󰋱",
        -9.993895833444647
      ],
      [
        "▁󰞿󰞻",
        -9.994375111148546
      ],
      [
        "▁󰋖󰟽",
        -9.994431089468437
      ],
      [
        "󰡩",
        -9.99524910197978
      ],
      [
        "▁󰟎󰟤󰠇󰋤",
        -9.995516072432427
      ],
      [
        "▁󰟝󰡸󰞿󰋖",
        -9.996161679861844
      ],
      [
        "▁󰋝󰞾󰋱",
        -9.996169956881063
      ],
      [
        "▁󰠯󰠋",
        -9.996308190004001
      ],
      [
        "▁󰋐󰋈󰋹󰋭",
        -9.996497772764405
      ],
      [
        "▁󰞼󰞸󰟻󰞷",
        -9.996644249657317
      ],
      [
        "▁󰋯󰠼",
        -9.996724714982616
      ],
      [
        "󰊵",
        -9.99694810361461
      ],
      [
        "▁󰋬󰞸󰟥",
        -9.998364857036158
      ],
      [
        "▁󰟁󰋱󰋫󰞷",
        -9.99847910042811
      ],
      [
        "▁󰋝󰣣󰠪󰋺󰋤",
        -9.999054713823126
      ],
      [
        "▁󰢓󰞻",
        -9.999441132357607
      ],
      [
        "▁󰣘󰟰",
        -9.999506313718596
      ],
      [
        "▁󰟐󰟞󰟅󰋈",
        -9.99995246778886
      ],
      [
        "▁󰞸󰠀",
        -10.000072306689866
      ],
      [
        "▁󰟘󰋭",
        -10.000111757088177
      ],
      [
        "▁󰋫󰌠󰟏",
        -10.00123253893241
      ],
      [
        "▁󰣕󰡩󰋱",
        -10.001623939548974
      ],
      [
        "▁󰞿󰞾󰟉󰋩",
        -10.002130838613645
      ],
      [
        "▁󰋹󰟓󰋫󰟊󰤌",
        -10.002237066611105
      ],
      [
        "▁󰡿󰋱󰋤",
        -10.002351311955966
      ],
      [
        "▁󰟬󰠘󰋱",
        -10.00266616312665
      ],
      [
        "▁󰟌󰞼",
        -10.002812101733625
      ],
      [
        "▁󰋆󰠔󰋥",
        -10.003007276076055
      ],
      [
        "▁󰫢󰋹",
        -10.003344874069164
      ],
      [
        "󰀇󰁓",
        -10.003769679456724
      ],
      [
        "▁󰋫󰢷󰞼",
        -10.00476971698776
      ],
      [
        "▁󰟒󰟲",
        -10.006334725419803
      ],
      [
        "▁󰋈󰟆",
        -10.006740440793159
      ],
      [
        "▁󰋙󰋠󰞹󰟒",
        -10.007254035433196
      ],
      [
        "▁󰋱󰋖󰟜󰋱",
        -10.007842480582175
      ],
      [
        "▁󰀂󰋆",
        -10.007906977755438
      ],
      [
        "▁󰋇󰟡󰋛󰞹󰌠",
        -10.008171519819365
      ],
      [
        "▁󰟞󰞿󰋖󰟙",
        -10.00824632811651
      ],
      [
        "󰟬󰥭",
        -10.008355672828207
      ],
      [
        "▁󰋈󰟊󰋯󰠙󰋈",
        -10.008407069446829
      ],
      [
        "󰋥󰥳",
        -10.008610807689735
      ],
      [
        "▁󰟱󰤴",
        -10.009231278190846
      ],
      [
        "▁󰟄󰠖󰋱",
        -10.010119717833906
      ],
      [
        "▁󰋖󰟗󰋷󰟅󰋱",
        -10.0101369301428
      ],
      [
        "▁󰠪󰋺󰠐󰋱",
        -10.01045953371674
      ],
      [
        "▁󰟀󰋈󰞷󰋱",
        -10.01073615504447
      ],
      [
        "▁󰋇󰞼󰞷",
        -10.011612767489444
      ],
      [
        "▁󰋐󰋩",
        -10.011680493404416
      ],
      [
        "▁󰋮󰟃󰤪󰌏",
        -10.011872063939219
      ],
      [
        "▁󰋈󰡘󰟑󰊴",
        -10.012192750314817
      ],
      [
        "▁󰟬󰧹",
        -10.012351905587856
      ],
      [
        "▁󰟐󰋝󰟭",
        -10.01249371526469
      ],
      [
        "▁󰋇󰋘󰋯󰋩",
        -10.012539306562697
      ],
      [
        "▁󰟌󰋱󰟚",
        -10.012830291318853
      ],
      [
        "▁󰋇󰞹󰋱",
        -10.012845639213698
      ],
      [
        "▁󰋆󰋹󰟍󰌠",
        -10.013138534980097
      ],
      [
        "▁󰋯󰟍󰋩󰋘󰋱",
        -10.013157882824984
      ],
      [
        "▁󰟨󰞻󰋔",
        -10.01330064549413
      ],
      [
        "󰫧",
        -10.013447968241016
      ],
      [
        "󰟉󰋩󰊴",
        -10.013610794470559
      ],
      [
        "▁󰟃󰋥󰢴",
        -10.013776618213956
      ],
      [
        "▁󰋆󰣺󰋱",
        -10.013805404576836
      ],
      [
        "▁󰧝󰋩",
        -10.01505662234078
      ],
      [
        "▁󰋥󰣯󰡫󰠋",
        -10.015097222975193
      ],
      [
        "▁󰠊󰞺󰋱",
        -10.016026533160185
      ],
      [
        "▁󰠴󰋠",
        -10.01620303504189
      ],
      [
        "▁󰥧󰋱",
        -10.016987724432273
      ],
      [
        "▁󰟇󰋧",
        -10.017028916801479
      ],
      [
        "󰟆󰋩",
        -10.017556096593509
      ],
      [
        "▁󰋥󰟛󰠍",
        -10.01759917002035
      ],
      [
        "▁󰀑󰀙",
        -10.01933828312394
      ],
      [
        "▁󰠖󰠅",
        -10.020194639922547
      ],
      [
        "▁󰟄󰟇󰋩",
        -10.020692935709693
      ],
      [
        "▁󰋊󰌏󰋫󰢔",
        -10.02220843683076
      ],
      [
        "󰌮",
        -10.022261465210779
      ],
      [
        "▁󰋭󰋳󰟇",
        -10.02245559818781
      ],
      [
        "▁󰋹󰋭󰟔󰠜",
        -10.022461933392428
      ],
      [
        "▁󰤲󰡜",
        -10.022507518647398
      ],
      [
        "▁󰠛󰟙",
        -10.02255093674157
      ],
      [
        "▁󰋇󰋯󰟝󰞿",
        -10.022935970305925
      ],
      [
        "▁󰋫󰋱󰋈",
        -10.022948050362594
      ],
      [
        "▁󰋇󰋩󰣞",
        -10.023041300208035
      ],
      [
        "▁󰋐󰟀󰞷󰋱",
        -10.023197357476985
      ],
      [
        "▁󰠱󰡄",
        -10.023958060151273
      ],
      [
        "▁󰟊󰞿󰋈",
        -10.024341793781197
      ],
      [
        "󰋘󰢵",
        -10.024826625921413
      ],
      [
        "▁󰋇󰟥",
        -10.025033371761005
      ],
      [
        "󰡌󰋩",
        -10.025181003374712
      ],
      [
        "▁󰟥󰟈󰋝",
        -10.025665758798144
      ],
      [
        "▁󰟋󰠝󰞻󰋩󰊴",
        -10.026326372033672
      ],
      [
        "▁󰋹󰤙",
        -10.026426476244428
      ],
      [
        "▁󰋆󰋭󰠢",
        -10.026596509183237
      ],
      [
        "󰟑󰞺",
        -10.02695631212228
      ],
      [
        "󰌪",
        -10.027071390933505
      ],
      [
        "▁󰟌󰞷󰞿󰊴",
        -10.027531468854836
      ],
      [
        "▁󰠃󰞿",
        -10.027759915043713
      ],
      [
        "▁󰢾󰋷󰠪󰋺󰋤",
        -10.028123669892615
      ],
      [
        "󰟩",
        -10.028384992682437
      ],
      [
        "▁󰋐󰞺󰟀󰞷󰋈",
        -10.029230064317579
      ],
      [
        "󰟀󰟄󰋱",
        -10.029253625977624
      ],
      [
        "▁󰋙󰠂󰟉",
        -10.029854837986058
      ],
      [
        "▁󰟑󰥛",
        -10.030288551109042
      ],
      [
        "▁󰌯󰌧",
        -10.030320194240492
      ],
      [
        "▁󰟌󰠋",
        -10.030417125352603
      ],
      [
        "▁󰢃󰋤󰠺󰞻󰋱",
        -10.030777398662282
      ],
      [
        "▁󰟍󰋔󰟆",
        -10.031635858045048
      ],
      [
        "󰋭󰌏",
        -10.031637018762037
      ],
      [
        "󰢲",
        -10.032445345946597
      ],
      [
        "▁󰌩󰌧󰌨󰌮",
        -10.033156060385895
      ],
      [
        "▁󰋆󰟯󰡥󰟊",
        -10.033339531236276
      ],
      [
        "▁󰞽󰋺󰟬󰋧",
        -10.03341232497148
      ],
      [
        "▁󰌨󰀎",
        -10.0339415219469
      ],
      [
        "▁󰌪󰌩",
        -10.034127398363209
      ],
      [
        "▁󰌩󰌧󰌨󰌫",
        -10.034617537952737
      ],
      [
        "▁󰌫󰌬",
        -10.035220244151656
      ],
      [
        "▁󰟌󰟈󰟀󰟈󰋖",
        -10.035887045319127
      ],
      [
        "▁󰋧󰋳󰊴",
        -10.036925389331067
      ],
      [
        "▁󰬘",
        -10.036964774021083
      ],
      [
        "▁󰋖󰟈󰞻󰋩󰀌",
        -10.037403763351156
      ],
      [
        "▁󰋖󰟪󰞻󰋩󰀌",
        -10.037476355923964
      ],
      [
        "▁󰢕󰞷",
        -10.03805230261992
      ],
      [
        "󰟙󰌠",
        -10.038624972013904
      ],
      [
        "▁󰟮󰞸󰋥󰋩",
        -10.038639222812696
      ],
      [
        "▁󰋇󰋈󰟅",
        -10.039650614272595
      ],
      [
        "▁󰋯󰢌󰠶󰋳󰌠",
        -10.039675604061467
      ],
      [
        "▁󰟌󰋱󰟉",
        -10.039709454655798
      ],
      [
        "▁󰋐󰋥󰟑󰋩",
        -10.039906354974887
      ],
      [
        "▁󰞹󰀁",
        -10.040510577595063
      ],
      [
        "󰀇󰀍󰋐󰋱",
        -10.040537167922
      ],
      [
        "▁󰡫󰋛󰞹",
        -10.040572518123039
      ],
      [
        "󰟓󰋱",
        -10.040649094338237
      ],
      [
        "▁󰠃󰡂",
        -10.040876780008633
      ],
      [
        "▁󰠍󰟚󰞾",
        -10.041522041065686
      ],
      [
        "▁󰋱󰋚",
        -10.042164235589322
      ],
      [
        "▁󰋫󰌝󰞻",
        -10.042332986416334
      ],
      [
        "▁󰞼󰧸",
        -10.042433483091981
      ],
      [
        "▁󰋇󰟡󰋛󰞹󰋱",
        -10.042466156462467
      ],
      [
        "▁󰧽󰞸",
        -10.042821174687006
      ],
      [
        "▁󰋫󰟁󰞼",
        -10.042915592136799
      ],
      [
        "▁󰠝󰞾󰟚󰋳󰊴",
        -10.043321377985123
      ],
      [
        "󰟀󰞷󰋱",
        -10.043462978351133
      ],
      [
        "▁󰟄󰟇󰊴",
        -10.043799575635521
      ],
      [
        "▁󰣷󰋷󰋩",
        -10.043980296196725
      ],
      [
        "▁󰞸󰟤󰟆",
        -10.044413196451265
      ],
      [
        "󰠜",
        -10.044790756770524
      ],
      [
        "▁󰋺󰋥󰊴",
        -10.045551608726523
      ],
      [
        "▁󰟄󰠖",
        -10.046102639536269
      ],
      [
        "▁󰠽󰠮",
        -10.04623206078271
      ],
      [
        "▁󰟛󰟔󰞻",
        -10.04624945314022
      ],
      [
        "󰡋",
        -10.047036230606958
      ],
      [
        "▁󰠃󰌏󰞼󰋱",
        -10.047254113950498
      ],
      [
        "▁󰀝",
        -10.047339504779359
      ],
      [
        "󰠱",
        -10.04798028746291
      ],
      [
        "▁󰋗󰋭󰋱󰀌",
        -10.048197087386114
      ],
      [
        "▁󰟌󰟈󰊴",
        -10.048461849958205
      ],
      [
        "▁󰟎󰞽󰢙󰋥",
        -10.04923567526495
      ],
      [
        "▁󰟁󰋱󰋈",
        -10.049658394605046
      ],
      [
        "▁󰟌󰞿󰋱",
        -10.049909503336384
      ],
      [
        "▁󰢗󰡩󰟂",
        -10.049917990638289
      ],
      [
        "▁󰋭󰀇󰞻",
        -10.0500681505188
      ],
      [
        "▁󰠷󰦧󰋱",
        -10.050129609811998
      ],
      [
        "▁󰟝󰢈",
        -10.050145263195693
      ],
      [
        "▁󰠳󰟋󰟄󰟤",
        -10.05041269151672
      ],
      [
        "▁󰟻󰠉󰋱",
        -10.050654670147278
      ],
      [
        "󰞿󰋖",
        -10.05067547780396
      ],
      [
        "▁󰞹󰟪",
        -10.050721746859484
      ],
      [
        "▁󰣃󰞹",
        -10.05090781635101
      ],
      [
        "▁󰋔󰟥",
        -10.051198292888849
      ],
      [
        "▁󰦋󰋧",
        -10.051702808174271
      ],
      [
        "▁󰡌󰟅󰋱",
        -10.051785176244662
      ],
      [
        "▁󰠦󰟃󰋥",
        -10.052191398021867
      ],
      [
        "▁󰟍󰋳󰞼",
        -10.05221148786779
      ],
      [
        "󰟋󰋳",
        -10.052339403441753
      ],
      [
        "▁󰡦󰋖󰟶",
        -10.05242036239547
      ],
      [
        "▁󰌩󰌧󰌨󰌭",
        -10.052644859233222
      ],
      [
        "▁󰋉󰟄",
        -10.05301962421317
      ],
      [
        "▁󰟿󰟫󰟂",
        -10.053133621389193
      ],
      [
        "▁󰡇󰠟",
        -10.053662322124708
      ],
      [
        "▁󰋷󰥉󰋷󰊴",
        -10.054239461351859
      ],
      [
        "▁󰋭󰠂󰀌",
        -10.056101442385291
      ],
      [
        "▁󰟗󰟖󰋥",
        -10.056158100764021
      ],
      [
        "▁󰞿󰡷󰋛󰟾",
        -10.057181259561798
      ],
      [
        "▁󰋇󰡢󰨛",
        -10.057304858518288
      ],
      [
        "▁󰣾󰌠",
        -10.057762523257676
      ],
      [
        "▁󰞽󰟁",
        -10.057797188749369
      ],
      [
        "▁󰢑󰋭󰋤",
        -10.057927650417586
      ],
      [
        "▁󰞼󰟄󰋱",
        -10.058234848410027
      ],
      [
        "▁󰟎󰞼󰦩",
        -10.059071017675851
      ],
      [
        "󰥄",
        -10.05912946912609
      ],
      [
        "▁󰠧󰟈󰟆",
        -10.059708983205596
      ],
      [
        "▁󰥠󰞻󰢵",
        -10.059710355989786
      ],
      [
        "▁󰠀󰟡󰟆󰌝",
        -10.060946882237154
      ],
      [
        "▁󰟎󰟊󰧗󰟊",
        -10.061196509945255
      ],
      [
        "▁󰞿󰠾󰟰󰡌",
        -10.061302968316014
      ],
      [
        "▁󰋱󰋺󰞽󰋩󰀌",
        -10.061587413345425
      ],
      [
        "▁󰋈󰟍󰟄󰋱",
        -10.06168717928486
      ],
      [
        "▁󰡿󰋹",
        -10.061731656216615
      ],
      [
        "▁󰢂󰤂󰋭",
        -10.061957149581147
      ],
      [
        "▁󰋛󰋳",
        -10.06208691499424
      ],
      [
        "▁󰟞󰋔󰟆󰋱",
        -10.06274750337228
      ],
      [
        "▁󰋮󰋭󰋩",
        -10.06283933408261
      ],
      [
        "▁󰋙",
        -10.062894591796212
      ],
      [
        "󰋝󰞿󰋥",
        -10.064095292365156
      ],
      [
        "▁󰋛󰟈󰡝",
        -10.064195140044452
      ],
      [
        "▁󰟋󰡇󰋱",
        -10.064342674230563
      ],
      [
        "▁󰟀󰟪󰞷",
        -10.064737571445107
      ],
      [
        "▁󰋖󰋱󰀌",
        -10.06487414338279
      ],
      [
        "󰟀󰡍",
        -10.06489338531411
      ],
      [
        "▁󰤕󰋛󰟒",
        -10.065055748080109
      ],
      [
        "▁󰣀",
        -10.065137278785638
      ],
      [
        "▁󰋆󰡱",
        -10.065389519407333
      ],
      [
        "▁󰟗󰟚󰋳",
        -10.065519747381796
      ],
      [
        "▁󰋊󰋫󰡯󰟊",
        -10.065763489294943
      ],
      [
        "▁󰋮󰋱",
        -10.06628853519181
      ],
      [
        "▁󰟐󰋈󰠹󰋫",
        -10.066520199984769
      ],
      [
        "▁󰋬󰋱",
        -10.066807829709827
      ],
      [
        "▁󰟃󰞿󰡙󰋘",
        -10.066920962567146
      ],
      [
        "󰌫",
        -10.067453364902239
      ],
      [
        "▁󰋇󰟐󰋩󰊴",
        -10.067626588508428
      ],
      [
        "▁󰠁󰞾󰟉󰊴",
        -10.06767018998669
      ],
      [
        "󰠱󰠹󰋫",
        -10.068580811463148
      ],
      [
        "▁󰋹󰥂",
        -10.068664110697014
      ],
      [
        "▁󰋊󰦎󰋱󰋤",
        -10.068781736720013
      ],
      [
        "▁󰟃󰋫󰟴󰋥",
        -10.069229316295957
      ],
      [
        "▁󰠇󰟊󰠪󰠩",
        -10.070411587781148
      ],
      [
        "▁󰪿󰟘",
        -10.07045794603804
      ],
      [
        "▁󰔞",
        -10.070617688743265
      ],
      [
        "▁󰋹󰋱󰞼󰋱󰞺",
        -10.070678789559619
      ],
      [
        "▁󰋆󰥞󰋹",
        -10.071017442694739
      ],
      [
        "▁󰋇󰡙󰠆󰋥",
        -10.071668496576557
      ],
      [
        "▁󰋖󰨗",
        -10.071801751433409
      ],
      [
        "▁󰁆󰁒󰁏󰁍",
        -10.072032979628375
      ],
      [
        "▁󰞽󰟋",
        -10.073210721517768
      ],
      [
        "▁󰋺󰋈󰋥",
        -10.074268018223096
      ],
      [
        "▁󰟳󰟏󰞷",
        -10.07513149907204
      ],
      [
        "▁󰩿",
        -10.075154731267112
      ],
      [
        "▁󰋺󰋈󰟂󰋈",
        -10.07624983253195
      ],
      [
        "▁󰡃󰢺󰋱",
        -10.076381039225682
      ],
      [
        "▁󰟣󰟜",
        -10.076427157772425
      ],
      [
        "▁󰟃󰋮󰠓",
        -10.076611228076565
      ],
      [
        "󰠼",
        -10.076803114017732
      ],
      [
        "▁󰌩󰌧󰌩󰌨",
        -10.077155974592385
      ],
      [
        "▁󰡉",
        -10.077411559868526
      ],
      [
        "▁󰔛",
        -10.077542029542974
      ],
      [
        "▁󰋐󰞺󰋱",
        -10.077667373083145
      ],
      [
        "▁󰠲󰋳󰟂",
        -10.078399777721774
      ],
      [
        "▁󰋫󰟣󰋱",
        -10.07881872337265
      ],
      [
        "▁󰟵󰡽",
        -10.079493120792222
      ],
      [
        "▁󰟃󰣊󰞽󰋩",
        -10.079753188517671
      ],
      [
        "▁󰟃󰨧󰋸󰋤",
        -10.080434515245125
      ],
      [
        "▁󰠎󰟍󰞸",
        -10.08081972914151
      ],
      [
        "▁󰋭󰡡",
        -10.080862494647683
      ],
      [
        "▁󰟎󰟀󰡍",
        -10.081004578003467
      ],
      [
        "▁󰟦󰞷",
        -10.081967439981277
      ],
      [
        "▁󰋷󰡮",
        -10.082396354614927
      ],
      [
        "▁󰟥󰡏",
        -10.082989749300914
      ],
      [
        "󰨩",
        -10.083525396072996
      ],
      [
        "▁󰋝󰟗󰋱",
        -10.083840691582623
      ],
      [
        "▁󰋐󰟞󰋩󰞼󰋱",
        -10.084174347250583
      ],
      [
        "▁󰞼󰟒󰞾",
        -10.084444525340652
      ],
      [
        "▁󰣀󰋱",
        -10.085065623659297
      ],
      [
        "▁󰋕󰋸󰋨",
        -10.085615708101784
      ],
      [
        "▁󰋖󰋱󰟉󰀌",
        -10.086107444681552
      ],
      [
        "▁󰟍󰠵󰋹",
        -10.086179141460317
      ],
      [
        "▁󰟗󰠣󰟆󰌠",
        -10.086390735600911
      ],
      [
        "▁󰡳󰟐󰋩󰀌",
        -10.0863918340545
      ],
      [
        "▁󰟎󰋭󰡱",
        -10.08667451031425
      ],
      [
        "▁󰋭󰦺󰋥",
        -10.086719744830624
      ],
      [
        "▁󰟦󰋳",
        -10.086823892845118
      ],
      [
        "▁󰢉",
        -10.087388953255815
      ],
      [
        "▁󰟎󰟱󰋹󰋖",
        -10.087479705925283
      ],
      [
        "󰁔󰁈",
        -10.087800516956971
      ],
      [
        "▁󰞿󰣱",
        -10.087876973371003
      ],
      [
        "󰡔󰋱",
        -10.088156133600586
      ],
      [
        "▁󰟼󰋭󰠈󰋫󰞹",
        -10.089881182078905
      ],
      [
        "▁󰟬󰠆󰠊󰋱",
        -10.090417576493607
      ],
      [
        "▁󰟑󰞾󰋈",
        -10.091745967905464
      ],
      [
        "󰌭",
        -10.09282910512549
      ],
      [
        "▁󰟀󰠩󰟀󰌠󰋩",
        -10.094152432576255
      ],
      [
        "▁󰢤󰟈󰋱",
        -10.094258748990988
      ],
      [
        "▁󰋖󰟛󰋔",
        -10.095079739654867
      ],
      [
        "󰟋󰋮",
        -10.09508057704809
      ],
      [
        "▁󰟝󰌠",
        -10.095281380968148
      ],
      [
        "▁󰟹󰟋󰋱",
        -10.096327313695575
      ],
      [
        "▁󰟘󰠤󰀌",
        -10.0966620617151
      ],
      [
        "▁󰋯󰋥󰋩",
        -10.097006134393945
      ],
      [
        "▁󰋇󰋯󰞻",
        -10.097275684421739
      ],
      [
        "▁󰋭󰞾",
        -10.097410862663013
      ],
      [
        "▁󰀣",
        -10.097900295842527
      ],
      [
        "▁󰋙󰋠󰞹󰢓󰞻",
        -10.097904543507642
      ],
      [
        "▁󰋔󰋝󰋩",
        -10.098548539234574
      ],
      [
        "▁󰋈󰋊󰠍",
        -10.098860701067212
      ],
      [
        "󰁌",
        -10.099100985389411
      ],
      [
        "▁󰟝󰟃󰟂",
        -10.10005885638908
      ],
      [
        "▁󰟢󰋈󰟂",
        -10.100177046388271
      ],
      [
        "▁󰋫󰋱󰋔",
        -10.100218638661172
      ],
      [
        "▁󰦣󰋱",
        -10.10037337605444
      ],
      [
        "󰟕󰋱",
        -10.1004706086113
      ],
      [
        "▁󰋱󰞾󰟉󰋩󰊴",
        -10.100776094126864
      ],
      [
        "▁󰟛󰋖󰟉",
        -10.101040648617001
      ],
      [
        "▁󰢲󰞼󰟅",
        -10.101094920360962
      ],
      [
        "▁󰋱󰠬󰡶󰞹󰟣󰋱",
        -10.10111407364106
      ],
      [
        "▁󰩰󰋺",
        -10.101347697587975
      ],
      [
        "▁󰟼󰠓",
        -10.101697949172546
      ],
      [
        "▁󰤏󰡾",
        -10.101786061496211
      ],
      [
        "▁󰋐󰟡",
        -10.102113021829126
      ],
      [
        "▁󰢆󰠂",
        -10.102136062611489
      ],
      [
        "▁󰟀󰤸󰠡",
        -10.10219625915276
      ],
      [
        "▁󰟶󰋝",
        -10.102841612802994
      ],
      [
        "▁󰡃󰡩󰋱",
        -10.102966793731643
      ],
      [
        "▁󰋖󰟈󰟂󰋩",
        -10.103070580688435
      ],
      [
        "▁󰞼󰥘",
        -10.103527321094775
      ],
      [
        "▁󰡛󰟔󰞾",
        -10.103914107369437
      ],
      [
        "󰣡",
        -10.104760899103432
      ],
      [
        "󰤄",
        -10.104792020860557
      ],
      [
        "▁󰟜󰋙",
        -10.104911871911234
      ],
      [
        "▁󰢲󰟆",
        -10.105020958570076
      ],
      [
        "▁󰞼󰞻󰋱",
        -10.105034342500574
      ],
      [
        "󰡥󰋥",
        -10.105253666748562
      ],
      [
        "󰡹",
        -10.105393412649455
      ],
      [
        "▁󰋆󰟯󰋹󰥻󰋩",
        -10.105444125612664
      ],
      [
        "▁󰢩󰟽",
        -10.105757814326683
      ],
      [
        "▁󰋫󰟈󰋭󰡮󰟅󰋱",
        -10.106254668939998
      ],
      [
        "▁󰋺󰟇󰀟",
        -10.106799060817924
      ],
      [
        "▁󰠲󰞸󰋱",
        -10.107132100243897
      ],
      [
        "▁󰋇󰋊󰋠",
        -10.107218884593015
      ],
      [
        "▁󰋘󰢹",
        -10.107616365931676
      ],
      [
        "▁󰋨󰞷󰋈",
        -10.107946668503601
      ],
      [
        "󰠄󰋱",
        -10.10820149224091
      ],
      [
        "▁󰋫󰟈󰡯󰟊󰋱",
        -10.108645237661968
      ],
      [
        "󰡼",
        -10.108945940744562
      ],
      [
        "▁󰟧󰟛",
        -10.108954845054765
      ],
      [
        "▁󰠀󰟆󰋳",
        -10.10896731567178
      ],
      [
        "▁󰋧󰋳󰞺",
        -10.109073170725889
      ],
      [
        "󰋩󰋘󰋱",
        -10.10908477810366
      ],
      [
        "▁󰠱󰟓󰋭",
        -10.109284131306424
      ],
      [
        "▁󰟼󰠘󰞺",
        -10.110696007839854
      ],
      [
        "▁󰟄󰠀󰋩",
        -10.110718760613459
      ],
      [
        "▁󰟀󰌝󰟂",
        -10.110792981735344
      ],
      [
        "▁󰋇󰟌󰋥󰋥",
        -10.111527698627187
      ],
      [
        "▁󰋖󰟃󰟁󰋱",
        -10.111778308948743
      ],
      [
        "▁󰋮󰋘󰟀󰟅󰋱",
        -10.111990839084614
      ],
      [
        "▁󰋆󰟷󰋱",
        -10.11212640940873
      ],
      [
        "▁󰡳󰠂󰋳",
        -10.112597908089837
      ],
      [
        "▁󰟓󰟡󰟀󰟏",
        -10.112761186326942
      ],
      [
        "▁󰟅󰟁󰞸",
        -10.113249259407503
      ],
      [
        "▁󰋧󰋯󰋩",
        -10.113821165813233
      ],
      [
        "▁󰋖󰦪󰋊󰟙󰋱",
        -10.11389181510549
      ],
      [
        "▁󰋯󰟁󰋯󰋥",
        -10.11393286468761
      ],
      [
        "󰁁",
        -10.114047513108833
      ],
      [
        "▁󰋇󰟀󰋱󰋔",
        -10.114306987669973
      ],
      [
        "▁󰟤󰢎󰋥",
        -10.114504454090557
      ],
      [
        "▁󰋊󰋫󰞼󰋱",
        -10.114582560870643
      ],
      [
        "▁󰟟󰠹󰋫",
        -10.114821308149175
      ],
      [
        "▁󰟏󰋯󰟅󰋱",
        -10.115119742260859
      ],
      [
        "▁󰡇󰋧",
        -10.115381933854472
      ],
      [
        "▁󰋐󰠇󰠐",
        -10.116094743838993
      ],
      [
        "▁󰢟󰋱󰡓",
        -10.116777232979757
      ],
      [
        "▁󰋛󰋳󰞽󰋩",
        -10.116895004554433
      ],
      [
        "󰠟",
        -10.117769942320384
      ],
      [
        "▁󰋨󰟾",
        -10.117849327167598
      ],
      [
        "▁󰋫󰋱󰟑󰋩",
        -10.118125489282308
      ],
      [
        "▁󰡭󰟸",
        -10.118322678175147
      ],
      [
        "▁󰟎󰟱󰋹󰞿󰋖",
        -10.118681830434541
      ],
      [
        "▁󰋺󰀇󰞻",
        -10.118844450397198
      ],
      [
        "▁󰋆󰟓󰟇",
[...]
