{
  "version": "1.0",
  "truncation": null,
  "padding": null,
  "added_tokens": [
    {
      "id": 0,
      "content": "<pad>",
      "single_word": false,
      "lstrip": false,
      "rstrip": false,
      "normalized": false,
      "special": true
    },
    {
      "id": 1,
      "content": "<unk>",
      "single_word": false,
      "lstrip": false,
      "rstrip": false,
      "normalized": false,
      "special": true
    },
    {
      "id": 2,
      "content": "<s>",
      "single_word": false,
      "lstrip": false,
      "rstrip": false,
      "normalized": false,
      "special": true
    },
    {
      "id": 3,
      "content": "</s>",
      "single_word": false,
      "lstrip": false,
      "rstrip": false,
      "normalized": false,
      "special": true
    },
    {
      "id": 4,
      "content": "<mask>",
      "single_word": false,
      "lstrip": false,
      "rstrip": false,
      "normalized": false,
      "special": true
    }
  ],
  "normalizer": null,
  "pre_tokenizer": {
    "type": "Metaspace",
    "replacement": "▁",
    "prepend_scheme": "always",
    "split": true
  },
  "post_processor": null,
  "decoder": {
    "type": "Metaspace",
    "replacement": "▁",
    "prepend_scheme": "always",
    "split": true
  },
  "model": {
    "type": "Unigram",
    "unk_id": 1,
    "vocab": [
      [
        "<pad>",
        0.0
      ],
      [
        "<unk>",
        0.0
      ],
      [
        "<s>",
        0.0
      ],
      [
        "</s>",
        0.0
      ],
      [
        "<mask>",
        0.0
      ],
      [
        "▁",
        -3.6842089174542476
      ],
      [
        "󰊴",
        -3.7193253871361414
      ],
      [
        "󰋱",
        -3.948032863626185
      ],
      [
        "󰀌",
        -3.999236074023317
      ],
      [
        "▁󰋔",
        -4.906025598876775
      ],
      [
        "󰋈",
        -5.087402936798119
      ],
      [
        "▁󰋐󰋈",
        -5.18204502341921
      ],
      [
        "󰞺",
        -5.23257748032308
      ],
      [
        "▁󰋖󰞷",
        -5.285623780174964
      ],
      [
        "▁󰋐󰟩",
        -5.287659570150064
      ],
      [
        "󰋔",
        -5.312453933817219
      ],
      [
        "󰀍",
        -5.503139518247005
      ],
      [
        "▁󰟣󰞺",
        -5.565573864713857
      ],
      [
        "▁󰀍",
        -5.601830082715786
      ],
      [
        "▁󰞹",
        -5.605542876777921
      ],
      [
        "▁󰟟",
        -5.683547480318461
      ],
      [
        "▁󰋖󰞸",
        -5.691453204118211
      ],
      [
        "▁󰟁󰋱",
        -5.737149709425868
      ],
      [
        "▁󰋐",
        -5.738180597505535
      ],
      [
        "▁󰋇󰋱",
        -5.837313997204426
      ],
      [
        "▁󰟊󰞿",
        -5.845257476337629
      ],
      [
        "▁󰋝󰟭",
        -5.94220264286775
      ],
      [
        "󰋩",
        -5.978407666751902
      ],
      [
        "▁󰋐󰋖",
        -5.994623620257091
      ],
      [
        "▁󰞹󰊴",
        -6.015132800156163
      ],
      [
        "▁󰟔󰠗",
        -6.054362985723964
      ],
      [
        "󰟂",
        -6.0618655352995745
      ],
      [
        "▁󰋐󰋖󰟒",
        -6.0627277539352615
      ],
      [
        "▁󰟐",
        -6.0796732084265255
      ],
      [
        "▁󰟀",
        -6.08436897532761
      ],
      [
        "󰀇",
        -6.100819374297476
      ],
      [
        "󰀉",
        -6.147659093577873
      ],
      [
        "▁󰋖󰋱󰟂",
        -6.153474528549712
      ],
      [
        "▁󰋺󰞾",
        -6.164210064063267
      ],
      [
        "▁󰋺󰌠",
        -6.195143389170919
      ],
      [
        "▁󰋇󰟗",
        -6.209621644990037
      ],
      [
        "▁󰞿󰞾",
        -6.218302276579561
      ],
      [
        "▁󰋯󰠙",
        -6.224248514465621
      ],
      [
        "▁󰟐󰋈",
        -6.255836993826131
      ],
      [
        "▁󰋺󰌠󰊴",
        -6.261196298754113
      ],
      [
        "▁󰋇󰞽󰋱",
        -6.2766477114543235
      ],
      [
        "▁󰋖󰟛",
        -6.310892979323992
      ],
      [
        "▁󰟔",
        -6.329680238612481
      ],
      [
        "󰞸",
        -6.3401667297432684
      ],
      [
        "󰀟",
        -6.3455186880286565
      ],
      [
        "▁󰋹󰠟",
        -6.355280200729759
      ],
      [
        "󰀁",
        -6.3949331831659
      ],
      [
        "󰌠",
        -6.399282892556432
      ],
      [
        "▁󰀈",
        -6.417495218375343
      ],
      [
        "▁󰋭󰞻",
        -6.461567022266921
      ],
      [
        "󰋥",
        -6.47017498852072
      ],
      [
        "▁󰟁",
        -6.482238714773622
      ],
      [
        "▁󰟁󰟄󰋱",
        -6.4954686282667335
      ],
      [
        "󰟒",
        -6.507562635392988
      ],
      [
        "󰋭",
        -6.509793590576338
      ],
      [
        "▁󰋫󰋱",
        -6.54137994080156
      ],
      [
        "▁󰋐󰋱",
        -6.564214592413913
      ],
      [
        "󰋖",
        -6.5666545842158595
      ],
      [
        "▁󰟧󰋩",
        -6.567691414703567
      ],
      [
        "▁󰟑󰞾",
        -6.569643154144265
      ],
      [
        "▁󰋯󰟅",
        -6.595414356510732
      ],
      [
        "▁󰀇",
        -6.6022759025717335
      ],
      [
        "▁󰋹󰋯󰌠",
        -6.617699688426114
      ],
      [
        "󰟄󰋱",
        -6.6547669657157
      ],
      [
        "󰀛",
        -6.665261753519941
      ],
      [
        "▁󰋥󰟇",
        -6.672381968243583
      ],
      [
        "▁󰟔󰠜",
        -6.6745625974020015
      ],
      [
        "▁󰋐󰋖󰟙",
        -6.679133407471211
      ],
      [
        "▁󰋇󰞽󰟄󰋱",
        -6.710177447963563
      ],
      [
        "󰋳",
        -6.730372657228136
      ],
      [
        "▁󰟚󰋳",
        -6.744001718049089
      ],
      [
        "󰋹",
        -6.752391674957371
      ],
      [
        "▁󰋺󰞾󰟉󰊴",
        -6.793949763699455
      ],
      [
        "▁󰋇󰋯󰞸",
        -6.795040890680328
      ],
      [
        "▁󰠑󰋱",
        -6.7983162777806445
      ],
      [
        "▁󰀂",
        -6.809798099603585
      ],
      [
        "▁󰋖󰟈󰟆",
        -6.811631602008475
      ],
      [
        "▁󰟁󰞸",
        -6.815206013453944
      ],
      [
        "󰟙",
        -6.850268949566937
      ],
      [
        "▁󰋹󰋭",
        -6.858110887812925
      ],
      [
        "▁󰋖󰞸󰋱",
        -6.881331438905271
      ],
      [
        "▁󰋆󰟅󰋖",
        -6.893178778885961
      ],
      [
        "▁󰋺󰟇",
        -6.914602204312301
      ],
      [
        "󰀂",
        -6.933927695964316
      ],
      [
        "▁󰋥󰋗󰋩",
        -6.939298839305778
      ],
      [
        "▁󰟘",
        -6.9559442146578405
      ],
      [
        "▁󰟄󰟞",
        -6.9559990653033665
      ],
      [
        "▁󰋰󰟑",
        -6.959891012948551
      ],
      [
        "▁󰋺󰟇󰊴",
        -6.9616701451684175
      ],
      [
        "▁󰞼󰟉",
        -6.9762221878997845
      ],
      [
        "▁󰞼󰋝",
        -6.9850539621636525
      ],
      [
        "▁󰋭󰞻󰋩󰀌",
        -6.986467956078707
      ],
      [
        "󰞹",
        -6.992738792377347
      ],
      [
        "󰋯",
        -7.022235585017594
      ],
      [
        "▁󰟿󰟫",
        -7.025975320152998
      ],
      [
        "▁󰟏󰟣",
        -7.029250480510337
      ],
      [
        "▁󰟘󰌠",
        -7.03169308764936
      ],
      [
        "▁󰋐󰋗󰋩",
        -7.057127406956175
      ],
      [
        "▁󰋐󰋯󰋩",
        -7.0635254375855165
      ],
      [
        "▁󰟹",
        -7.06972246176908
      ],
      [
        "▁󰋖󰞷󰋩󰊴",
        -7.075256768365005
      ],
      [
        "󰀎",
        -7.075948504895365
      ],
      [
        "▁󰋺󰋈󰟂",
        -7.079149974021565
      ],
      [
        "▁󰋖󰞷󰋩",
        -7.080251878226187
      ],
      [
        "▁󰟎󰋦󰋯",
        -7.088728535422337
      ],
      [
        "▁󰟧󰠄",
        -7.092376242017391
      ],
      [
        "▁󰟁󰋈",
        -7.09393804519957
      ],
      [
        "▁󰟑󰞺",
        -7.095360905436914
      ],
      [
        "▁󰋭󰌝",
        -7.101673164657127
      ],
      [
        "▁󰋺󰞾󰟉",
        -7.102348264926862
      ],
      [
        "▁󰋺󰟂",
        -7.120265033127481
      ],
      [
        "󰟁",
        -7.131153422517134
      ],
      [
        "▁󰋇󰟨",
        -7.173719792178829
      ],
      [
        "▁󰋫󰠫󰟷",
        -7.183724787030787
      ],
      [
        "▁󰋖󰞷󰊴",
        -7.196569516054071
      ],
      [
        "▁󰋫󰞷",
        -7.21284250616144
      ],
      [
        "▁󰋰󰋗󰋩",
        -7.220211313247608
      ],
      [
        "▁󰟸󰋈",
        -7.221113515476739
      ],
      [
        "▁󰞹󰀌",
        -7.228360977541293
      ],
      [
        "▁󰋇󰟉",
        -7.237823333756312
      ],
      [
        "▁󰟁󰞺",
        -7.237989082544438
      ],
      [
        "▁󰟎󰟊",
        -7.242674083989703
      ],
      [
        "▁󰟑󰋩",
        -7.248776479570095
      ],
      [
        "▁󰞹󰋯",
        -7.24970009244292
      ],
      [
        "▁󰋺󰋈󰟆",
        -7.259268359870974
      ],
      [
        "▁󰟟󰀌",
        -7.2637865194607905
      ],
      [
        "▁󰋖󰟈󰟂",
        -7.2703635323850975
      ],
      [
        "▁󰀚",
        -7.273043280250743
      ],
      [
        "▁󰟃󰟲󰠥",
        -7.2771826972130995
      ],
      [
        "▁󰋆",
        -7.27831614790761
      ],
      [
        "▁󰋭󰋜󰋱",
        -7.278340667970479
      ],
      [
        "▁󰟟󰋩",
        -7.280071072170999
      ],
      [
        "▁󰟠󰋸",
        -7.293364964328157
      ],
      [
        "󰞷",
        -7.294809636091349
      ],
      [
        "▁󰋇󰟀󰋱",
        -7.308826285924052
      ],
      [
        "▁󰟌󰞷",
        -7.325673502081001
      ],
      [
        "▁󰟍󰟕󰋱",
        -7.333607092437809
      ],
      [
        "▁󰟑󰟂",
        -7.338970016461104
      ],
      [
        "▁󰋇󰋱󰋔",
        -7.33956383424097
      ],
      [
        "▁󰟏󰞻",
        -7.342047681785356
      ],
      [
        "▁󰟁󰟍󰋱",
        -7.34380304945196
      ],
      [
        "▁󰟄󰋔󰟆",
        -7.3482151627577075
      ],
      [
        "▁󰋐󰋖󰋝󰋩",
        -7.3576562582921845
      ],
      [
        "▁󰋩󰠅󰋩",
        -7.362322290461167
      ],
      [
        "󰞿",
        -7.364393418592176
      ],
      [
        "▁󰞼󰋱󰋤",
        -7.369857398686875
      ],
      [
        "▁󰋭󰟋",
        -7.370124110289982
      ],
      [
        "▁󰟙󰞼",
        -7.379438003607781
      ],
      [
        "▁󰟇󰟤",
        -7.380921872540069
      ],
      [
        "▁󰋇󰋝",
        -7.383038505532886
      ],
      [
        "▁󰠌󰌠",
        -7.386459111808431
      ],
      [
        "▁󰞽",
        -7.392015941845763
      ],
      [
        "▁󰟘󰌠󰊴",
        -7.393548617470261
      ],
      [
        "󰋝",
        -7.399933978511923
      ],
      [
        "▁󰋊󰋫󰋱",
        -7.402282438616556
      ],
      [
        "▁󰟪󰟐󰟇",
        -7.402926434837543
      ],
      [
        "▁󰋇󰋫󰞹󰋱",
        -7.410372076711106
      ],
      [
        "▁󰋯󰟹",
        -7.418409573011443
      ],
      [
        "󰟅",
        -7.419684494419629
      ],
      [
        "󰞻",
        -7.422723330896204
      ],
      [
        "▁󰞿󰟦󰋱",
        -7.458383816107313
      ],
      [
        "▁󰋔󰋈",
        -7.462480347622501
      ],
      [
        "󰟇",
        -7.471598153787497
      ],
      [
        "▁󰟄󰟠󰋱",
        -7.472946704075715
      ],
      [
        "▁󰠅󰟗",
        -7.473210903338522
      ],
      [
        "󰋷",
        -7.494740029635858
      ],
      [
        "▁󰋺󰌠󰀌",
        -7.4955815945104405
      ],
      [
        "▁󰋘󰋥",
        -7.501796038522793
      ],
      [
        "▁󰡞",
        -7.506599552985444
      ],
      [
        "󰋧",
        -7.508925776387715
      ],
      [
        "▁󰟹󰞽󰋱",
        -7.509535437080578
      ],
      [
        "▁󰞽󰟯󰋸",
        -7.516425906807216
      ],
      [
        "▁󰟃󰟠󰋸",
        -7.520090503089307
      ],
      [
        "▁󰞽󰟯󰠾󰋱",
        -7.521529033527427
      ],
      [
        "▁󰋝󰋩",
        -7.531378219351339
      ],
      [
        "▁󰋺󰠤",
        -7.534600772089885
      ],
      [
        "▁󰋹󰋖󰋳",
        -7.536406387435276
      ],
      [
        "▁󰋇󰋫󰞿",
        -7.539946442526803
      ],
      [
        "▁󰋺󰞻",
        -7.54236069463213
      ],
      [
        "▁󰋨󰞷",
        -7.544151119411952
      ],
      [
        "󰟅󰋱",
        -7.544741835971241
      ],
      [
        "󰟀",
        -7.55038797444187
      ],
      [
        "▁󰋆󰟭",
        -7.552252824814891
      ],
      [
        "▁󰡉󰋭",
        -7.564296187520668
      ],
      [
        "▁󰟁󰟍",
        -7.57277025923344
      ],
      [
        "▁󰟌󰋔󰟆",
        -7.579457996545413
      ],
      [
        "▁󰞺󰋊",
        -7.584286640431275
      ],
      [
        "▁󰊵",
        -7.585620745755676
      ],
      [
        "▁󰠑󰟍󰋱",
        -7.586844463174154
      ],
      [
        "▁󰟐󰟞󰟅",
        -7.5899426168722215
      ],
      [
        "▁󰋯󰋥",
        -7.589989333804478
      ],
      [
        "󰋹󰋺",
        -7.604263557750912
      ],
      [
        "󰟋",
        -7.604307378449816
      ],
      [
        "▁󰟎󰟰󰋩",
        -7.606073492505482
      ],
      [
        "▁󰟅󰋈󰊴",
        -7.606347932742969
      ],
      [
        "▁󰋇",
        -7.618243876065808
      ],
      [
        "▁󰞼󰋱󰠐",
        -7.622526348682118
      ],
      [
        "▁󰋬󰞻",
        -7.623867518092988
      ],
      [
        "󰋫",
        -7.624240723871427
      ],
      [
        "▁󰠝󰞾",
        -7.634270042751112
      ],
      [
        "▁󰋐󰟐",
        -7.639070274961263
      ],
      [
        "▁󰋇󰟉󰊴",
        -7.639276223909942
      ],
      [
        "▁󰋑",
        -7.644062980811352
      ],
      [
        "▁󰋛󰞻",
        -7.6472737097292445
      ],
      [
        "󰞾",
        -7.649148134683683
      ],
      [
        "󰞼",
        -7.653446573482947
      ],
      [
        "▁󰟃󰟫󰢍",
        -7.6580917292052355
      ],
      [
        "▁󰟌󰞷󰊴",
        -7.665677874891189
      ],
      [
        "▁󰠎󰡼",
        -7.670243189772647
      ],
      [
        "▁󰋺󰋳",
        -7.6708079758771515
      ],
      [
        "▁󰋐󰟒",
        -7.6726596261278175
      ],
      [
        "▁󰟇󰋷",
        -7.673262598981458
      ],
      [
        "▁󰢤󰟈",
        -7.674911109927908
      ],
      [
        "▁󰟛󰞺",
        -7.676266631151552
      ],
      [
        "▁󰟚󰞻󰋩",
        -7.6770305539681765
      ],
      [
        "▁󰋹",
        -7.683179426595185
      ],
      [
        "▁󰟿󰡑",
        -7.6955065439010735
      ],
      [
        "▁󰞽󰡊󰟜",
        -7.697950264280067
      ],
      [
        "▁󰟼󰋭󰟍󰋱",
        -7.69969380062172
      ],
      [
        "▁󰠿󰋖",
        -7.7033953403831195
      ],
      [
        "󰟈",
        -7.709737074140584
      ],
      [
        "▁󰞹󰟜",
        -7.7278949836801765
      ],
      [
        "▁󰋐󰟞󰟅",
        -7.73265912208374
      ],
      [
        "▁󰋩󰌠󰊴",
        -7.735692768069436
      ],
      [
        "󰟃",
        -7.735931603835597
      ],
      [
        "▁󰟍󰟂",
        -7.73626408654027
      ],
      [
        "▁󰢠󰞸",
        -7.738042851449167
      ],
      [
        "󰟊",
        -7.7523983169620685
      ],
      [
        "▁󰠳󰟋󰟄󰋷",
        -7.754678257958135
      ],
      [
        "▁󰋇󰞽󰞺",
        -7.754903415126279
      ],
      [
        "▁󰟧󰋩󰋔",
        -7.759302605427896
      ],
      [
        "▁󰟟󰟂",
        -7.762476801382542
      ],
      [
        "▁󰟎󰞼󰋷",
        -7.763161952325506
      ],
      [
        "▁󰟃󰋸󰞾",
        -7.765458123954268
      ],
      [
        "▁󰞿",
        -7.766938491994054
      ],
      [
        "▁󰋱󰞾󰟉",
        -7.76873004388907
      ],
      [
        "󰟆",
        -7.769543292452134
      ],
      [
        "▁󰋫󰠕",
        -7.771133418510733
      ],
      [
        "▁󰟕󰞹",
        -7.783248970557132
      ],
      [
        "▁󰟟󰋯󰋩",
        -7.787817089994551
      ],
      [
        "󰟓󰟇",
        -7.792104924150257
      ],
      [
        "▁󰋖󰞷󰟉󰋩",
        -7.802849500838983
      ],
      [
        "▁󰟚󰋳󰊴",
        -7.803308058288492
      ],
      [
        "▁󰟄󰟠",
        -7.804196231202242
      ],
      [
        "󰊴󰀂",
        -7.814157430541549
      ],
      [
        "▁󰋹󰋯󰠩",
        -7.814253661689529
      ],
      [
        "▁󰟏󰟰󰋱󰋤",
        -7.81505885288051
      ],
      [
        "▁󰟃",
        -7.820363907744502
      ],
      [
        "▁󰟮󰟖󰋷",
        -7.820543565549517
      ],
      [
        "▁󰟄󰠀",
        -7.823010081557689
      ],
      [
        "▁󰋐󰋖󰡦",
        -7.824782679838517
      ],
      [
        "▁󰋹󰋱󰞼󰋱",
        -7.827034916853382
      ],
      [
        "▁󰋐󰟙",
        -7.828394545859984
      ],
      [
        "▁󰟏󰞻󰋱",
        -7.831816910440981
      ],
      [
        "󰟖",
        -7.833286525768459
      ],
      [
        "▁󰞺󰋩",
        -7.833419881737644
      ],
      [
        "󰋺",
        -7.83473069419191
      ],
      [
        "▁󰟕󰠔󰌠",
        -7.835897065961454
      ],
      [
        "▁󰟼󰋭󰠈",
        -7.8393900835977774
      ],
      [
        "▁󰟊󰋩",
        -7.843572870878999
      ],
      [
        "󰋠",
        -7.8474173924284045
      ],
      [
        "󰞽",
        -7.850260605218379
      ],
      [
        "▁󰋖󰞷󰟉",
        -7.851324162117795
      ],
      [
        "▁󰋔󰋫󰋱",
        -7.851897142882217
      ],
      [
        "▁󰋱󰞾󰟉󰊴",
        -7.8555340860688965
      ],
      [
        "▁󰠪󰋺󰋤",
        -7.87441141137964
      ],
      [
        "▁󰟌",
        -7.887122890957512
      ],
      [
        "󰀚",
        -7.887600205517927
      ],
      [
        "▁󰋹󰋯󰞾",
        -7.889650304186755
      ],
      [
        "▁󰋆󰠮",
        -7.904051237033801
      ],
      [
        "▁󰟛󰞺󰊴",
        -7.906942264996358
      ],
      [
        "▁󰟍󰋥",
        -7.918228760913831
      ],
      [
        "󰟵󰟡",
        -7.91885490863039
      ],
      [
        "󰟗",
        -7.921209883860859
      ],
      [
        "▁󰋊󰡂󰋱",
        -7.924250982867683
      ],
      [
        "▁󰟓󰟡",
        -7.928842385865224
      ],
      [
        "▁󰋺󰋔󰟆󰋱",
        -7.930600510857909
      ],
      [
        "▁󰟄󰋗󰟂",
        -7.930663450064776
      ],
      [
        "󰞷󰋱",
        -7.932918983263717
      ],
      [
        "▁󰋇󰟶",
        -7.939079344504345
      ],
      [
        "▁󰠞󰟽",
        -7.939236022066943
      ],
      [
        "▁󰟦󰟋",
        -7.9405874524401945
      ],
      [
        "▁󰋭󰡱",
        -7.948101169548881
      ],
      [
        "󰟵󰟖",
        -7.951678323998369
      ],
      [
        "▁󰟏󰋯󰟅",
        -7.951804712929036
      ],
      [
        "▁󰠦󰋭󰋩",
        -7.95353949792332
      ],
      [
        "▁󰟁󰋺󰞻",
        -7.960612653678417
      ],
      [
        "▁󰟡󰋖",
        -7.960892895524205
      ],
      [
        "▁󰁔󰁈󰁅",
        -7.964031202218717
      ],
      [
        "▁󰠳󰟋󰟄󰟠󰋱",
        -7.9674395339350905
      ],
      [
        "▁󰠯󰡝",
        -7.967660741602179
      ],
      [
        "▁󰟓󰋱󰟂󰋱",
        -7.969361814363255
      ],
      [
        "▁󰋐󰋥",
        -7.971203951880931
      ],
      [
        "▁󰟓󰋳",
        -7.978184695499975
      ],
      [
        "▁󰋭󰠻",
        -7.978284249891889
      ],
      [
        "▁󰋆󰣴󰌏",
        -7.978821973815101
      ],
      [
        "▁󰋐󰟀󰋱",
        -7.980083494576032
      ],
      [
        "▁󰟘󰋱",
        -7.985952011611678
      ],
      [
        "▁󰋯",
        -7.990741880709919
      ],
      [
        "▁󰠅󰞻",
        -7.996489526378859
      ],
      [
        "▁󰋆󰟲󰠒󰋘",
        -7.997285769574107
      ],
      [
        "▁󰋭󰋳󰟂",
        -7.997420447315964
      ],
      [
        "󰟑",
        -7.998465544716007
      ],
      [
        "▁󰟁󰋱󰋫󰋱",
        -8.009378036598262
      ],
      [
        "▁󰋐󰋹󰋭",
        -8.013544938574459
      ],
      [
        "󰁓",
        -8.015159842521491
      ],
      [
        "▁󰋹󰡜󰣈",
        -8.01731973452853
      ],
      [
        "▁󰋥󰣯",
        -8.021556558839423
      ],
      [
        "▁󰟤󰠠",
        -8.022730449084909
      ],
      [
        "▁󰋗󰋭󰋱",
        -8.02579849513595
      ],
      [
        "▁󰋐󰋖󰋈",
        -8.026370270853729
      ],
      [
        "▁󰟄󰟆",
        -8.038840535813897
      ],
      [
        "󰟐",
        -8.039514533593755
      ],
      [
        "▁󰟘󰞸",
        -8.040522032018153
      ],
      [
        "▁󰋩󰌠",
        -8.041547742832634
      ],
      [
        "▁󰞹󰞹",
        -8.042700781143877
      ],
      [
        "▁󰋊󰋫󰡯󰋥",
        -8.044303033263574
      ],
      [
        "▁󰟳󰡵",
        -8.045993666415795
      ],
      [
        "▁󰋩󰌠󰀌",
        -8.047415113301678
      ],
      [
        "▁󰁏󰁆",
        -8.048317375437394
      ],
      [
        "▁󰟨󰋳",
        -8.053346660980779
      ],
      [
        "▁󰟐󰟙",
        -8.054137845386805
      ],
      [
        "▁󰋧󰞻󰋱",
        -8.054846329996055
      ],
      [
        "▁󰢳󰠔󰌠",
        -8.05581390730696
      ],
      [
        "▁󰟋󰋮",
        -8.059566890985023
      ],
      [
        "󰋘",
        -8.060033210135177
      ],
      [
        "▁󰋖",
        -8.061626813126317
      ],
      [
        "▁󰋆󰡡󰟭",
        -8.067796389037357
      ],
      [
        "▁󰢻󰋠",
        -8.072532652147366
      ],
      [
        "▁󰟓󰟇",
        -8.075612327997325
      ],
      [
        "▁󰋭󰟖󰟆",
        -8.077013877657519
      ],
      [
        "󰀍󰋐󰋱",
        -8.078226216063252
      ],
      [
        "▁󰟧󰟒",
        -8.082395379611459
      ],
      [
        "▁󰞽󰠋",
        -8.082770665048528
      ],
      [
        "▁󰋙󰋠󰞹",
        -8.088829163498763
      ],
      [
        "▁󰢾󰋷",
        -8.090303995712082
      ],
      [
        "▁󰣕󰡩",
        -8.094822492466657
      ],
      [
        "▁󰋖󰞷󰟉󰋩󰊴",
        -8.0972465871376
      ],
      [
        "▁󰟄󰋷",
        -8.098549190544489
      ],
      [
        "▁󰠳󰟋",
        -8.09957351447005
      ],
      [
        "▁󰠧󰞷",
        -8.101741143881387
      ],
      [
        "▁󰟏",
        -8.104009970926834
      ],
      [
        "▁󰟬󰋗",
        -8.105636656916802
      ],
      [
        "▁󰋭󰋜󰞷󰋱",
        -8.106979995267622
      ],
      [
        "▁󰋧󰋳",
        -8.109055549146506
      ],
      [
        "▁󰟅󰋈",
        -8.109609524040081
      ],
      [
        "▁󰋖󰞷󰟉󰊴",
        -8.114373852143903
      ],
      [
        "▁󰋺󰟡",
        -8.115509162789742
      ],
      [
        "▁󰞿󰟂",
        -8.115970319218365
      ],
      [
        "▁󰟬󰠀",
        -8.120756326436803
      ],
      [
        "▁󰟛󰞼",
        -8.121207616842609
      ],
      [
        "▁󰋨󰋱󰟅󰋱",
        -8.122129004300552
      ],
      [
        "▁󰢯󰞼",
        -8.122406504402363
      ],
      [
        "▁󰟓󰋱󰠔󰌠",
        -8.12309963814059
      ],
      [
        "▁󰋯󰋩",
        -8.123136934557879
      ],
      [
        "▁󰠎󰞾",
        -8.127139747034136
      ],
      [
        "▁󰌨",
        -8.127316696369922
      ],
      [
        "▁󰋺󰋔󰟆",
        -8.130570083645347
      ],
      [
        "󰟀󰋱",
        -8.133899069699769
      ],
      [
        "▁󰞹󰋈󰊴",
        -8.134017136548238
      ],
      [
        "▁󰋖󰋥",
        -8.135396202176395
      ],
      [
        "▁󰋹󰋱󰞼󰞷󰋱",
        -8.141285673423045
      ],
      [
        "▁󰋭󰟐",
        -8.14551022815819
      ],
      [
        "▁󰋹󰟪󰋥",
        -8.148051097531367
      ],
      [
        "▁󰡭󰢰",
        -8.151154840226853
      ],
      [
        "▁󰌬",
        -8.15149274306083
      ],
      [
        "▁󰞽󰣜",
        -8.151797990825331
      ],
      [
        "󰞻󰋱",
        -8.153655325423802
      ],
      [
        "▁󰟨󰟉󰊴",
        -8.155969942289879
      ],
      [
        "▁󰟺",
        -8.156077660149759
      ],
      [
        "▁󰟼󰠘",
        -8.159794626705423
      ],
      [
        "▁󰌪",
        -8.160937475293597
      ],
      [
        "󰟥",
        -8.162736646927513
      ],
      [
        "▁󰋺󰠤󰊴",
        -8.16514344541907
      ],
      [
        "▁󰟃󰋸󰌠",
        -8.165665573176986
      ],
      [
        "▁󰟣󰞺󰋈",
        -8.166041428910964
      ],
      [
        "▁󰋫󰠯",
        -8.167314733158772
      ],
      [
        "▁󰟘󰟇",
        -8.168011966688125
      ],
      [
        "▁󰋖󰟈",
        -8.168745475109198
      ],
      [
        "▁󰌩",
        -8.169529361139082
      ],
      [
        "▁󰋖󰋯",
        -8.173053969862638
      ],
      [
        "▁󰋈󰋹󰟋󰋯",
        -8.175706513975058
      ],
      [
        "▁󰋊󰋫󰟦󰟋",
        -8.180383074658055
      ],
      [
        "󰟝",
        -8.18410941696313
      ],
      [
        "▁󰋝󰋳",
        -8.187025951407705
      ],
      [
        "▁󰋐󰟂",
        -8.193724570020105
      ],
      [
        "▁󰟎󰤳",
        -8.19598035331604
      ],
      [
        "▁󰟀󰠉",
        -8.198728353210075
      ],
      [
        "▁󰟘󰌠󰀌",
        -8.199803536491537
      ],
      [
        "▁󰟝󰟃",
        -8.203823754436948
      ],
      [
        "󰋘󰋤",
        -8.203826094546834
      ],
      [
        "▁󰋹󰋭󰠎󰞾",
        -8.207385904791005
      ],
      [
        "▁󰌨󰌧",
        -8.208747997683338
      ],
      [
        "󰟡",
        -8.210878596019576
      ],
      [
        "▁󰟪󰟏󰟇",
        -8.213976051870466
      ],
      [
        "▁󰟠󰋗",
        -8.214012810436579
      ],
      [
        "▁󰢩󰋸󰠶",
        -8.219264992236278
      ],
      [
        "▁󰋙󰞷",
        -8.224178996664913
      ],
      [
        "▁󰟋󰋗",
        -8.225776074186227
      ],
      [
        "󰟜",
        -8.225979615503622
      ],
      [
        "▁󰋜󰟃",
        -8.226138700721664
      ],
      [
        "▁󰋹󰋧󰢘",
        -8.226158406046194
      ],
      [
        "󰟏",
        -8.2278458932072
      ],
      [
        "▁󰟟󰟞󰟅",
        -8.232247953578685
      ],
      [
        "󰟔",
        -8.2330768045786
      ],
      [
        "▁󰞹󰋈",
        -8.233432946165578
      ],
      [
        "▁󰋹󰢨󰋧󰋖",
        -8.236378163414686
      ],
      [
        "▁󰟊󰞿󰊴",
        -8.23900336576658
      ],
      [
        "▁󰞺󰋭󰋳",
        -8.239055709204688
      ],
      [
        "▁󰟕󰞹󰋩󰀌",
        -8.254312289886531
      ],
      [
        "▁󰟜",
        -8.261422042184696
      ],
      [
        "󰌏",
        -8.262808757100865
      ],
      [
        "▁󰟃󰢮󰋹",
        -8.267834185725677
      ],
      [
        "󰋢",
        -8.268524220706711
      ],
      [
        "▁󰞸󰟞",
        -8.269725809680398
      ],
      [
        "▁󰋖󰋱󰞻",
        -8.272397647360393
      ],
      [
        "▁󰋫󰋦",
        -8.275889008366015
      ],
      [
        "▁󰟛󰋖󰟂",
        -8.278502699193474
      ],
      [
        "▁󰞿󰋖󰋠",
        -8.279417193621452
      ],
      [
        "▁󰟚󰞻󰋩󰊴",
        -8.28153205365337
      ],
      [
        "▁󰋊󰡪",
        -8.282129485147392
      ],
      [
        "▁󰋫󰟣",
        -8.29072790683887
      ],
      [
        "󰠄",
        -8.293792756769983
      ],
      [
        "󰠹󰠁",
        -8.294272325877653
      ],
      [
        "▁󰋹󰢬󰋭",
        -8.295870462539474
      ],
      [
        "▁󰟸󰟒",
        -8.295963281513767
      ],
      [
        "▁󰁁󰁎󰁄",
        -8.297403020404385
      ],
      [
        "▁󰋹󰟓󰋫󰟊",
        -8.297641054787304
      ],
      [
        "▁󰟁󰟂",
        -8.297844642984424
      ],
      [
        "▁󰋇󰟡󰋛󰞹",
        -8.299881390500685
      ],
      [
        "▁󰋐󰋱󰋫󰋱",
        -8.300302068866845
      ],
      [
        "󰠂",
        -8.301358867168076
      ],
      [
        "▁󰌫",
        -8.304644536176244
      ],
      [
        "▁󰟺󰠒󰋘",
        -8.306503452420078
      ],
      [
        "󰟐󰋱",
        -8.306837526817487
      ],
      [
        "▁󰠑󰞺",
        -8.310131621961274
      ],
      [
        "▁󰋇󰟉󰀌",
        -8.310711287323812
      ],
      [
        "▁󰋊",
        -8.31443684175241
      ],
      [
        "▁󰋷󰠘",
        -8.315168748327466
      ],
      [
        "▁󰞷󰠀",
        -8.31891035469959
      ],
      [
        "▁󰋈󰟍",
        -8.319687871343032
      ],
      [
        "▁󰋆󰋦󰟀",
        -8.321859517917737
      ],
      [
        "▁󰠑󰟄󰋱",
        -8.322447110464946
      ],
      [
        "▁󰋆󰟊",
        -8.327870318076464
      ],
      [
        "󰀏",
        -8.328134107639425
      ],
      [
        "▁󰟉󰞻",
        -8.331479690232518
      ],
      [
        "󰋤",
        -8.332738293431417
      ],
      [
        "󰞼󰋱",
        -8.33775235080536
      ],
      [
        "▁󰋺󰋈󰞻",
        -8.33861215590932
      ],
      [
        "▁󰞹󰟴",
        -8.339580390407324
      ],
      [
        "▁󰟀󰋈󰞷",
        -8.340531011422398
      ],
      [
        "▁󰞸󰋝󰣄󰟊󰋖",
        -8.34520577646701
      ],
      [
        "▁󰋖󰟃",
        -8.351413374025935
      ],
      [
        "󰟶",
        -8.351705430364342
      ],
      [
        "▁󰋺󰞾󰟚󰋳",
        -8.35342403147448
      ],
      [
        "▁󰋐󰋗󰋩󰋔",
        -8.356028385580625
      ],
      [
        "▁󰞼",
        -8.35640247841087
      ],
      [
        "▁󰋖󰞾󰋖",
        -8.35773283120307
      ],
      [
        "▁󰋐󰋖󰟀󰋱",
        -8.358361205196534
      ],
      [
        "▁󰋊󰣮󰋗",
        -8.360854469226393
      ],
      [
        "▁󰠒󰋘",
        -8.361082519914525
      ],
      [
        "󰋛",
        -8.36122484872914
      ],
      [
        "▁󰟥󰢋󰟷",
        -8.361562987300891
      ],
      [
        "▁󰊴󰊴",
        -8.36232253817559
      ],
      [
        "▁󰋆󰋭󰠈󰌠",
        -8.365423509336232
      ],
      [
        "▁󰋯󰟍",
        -8.370949728261236
      ],
      [
        "▁󰠴󰟌󰞷",
        -8.374478022613099
      ],
      [
        "▁󰋝󰣺",
        -8.37454685565574
      ],
      [
        "▁󰠖",
        -8.375688086090031
      ],
      [
        "▁󰋇󰋔󰟆󰡁",
        -8.379865116683135
      ],
      [
        "▁󰌭",
        -8.382417180933176
      ],
      [
        "▁󰟨󰟉",
        -8.3878670312865
      ],
      [
        "▁󰋐󰟋󰞼󰌠",
        -8.390260308492177
      ],
      [
        "󰟾",
        -8.393553222320797
      ],
      [
        "▁󰠺󰋳",
        -8.39482390993977
      ],
      [
        "▁󰋧󰢎󰋤",
        -8.395715762585718
      ],
      [
        "▁󰟓󰋱󰋥",
        -8.399116695245569
      ],
      [
        "󰟦",
        -8.402707329507336
      ],
      [
        "▁󰞸󰟕",
        -8.40462819357423
      ],
      [
        "▁󰋷󰤐",
        -8.411810018718054
      ],
      [
        "▁󰋫󰟴󰠠",
        -8.411884529838908
      ],
      [
        "▁󰞼󰟦",
        -8.412809727103243
      ],
      [
        "▁󰟎󰟰󰋩󰋯󰢐",
        -8.412823309910072
      ],
      [
        "▁󰠈󰟾󰌠",
        -8.413677089616506
      ],
      [
        "▁󰟎󰡙󰋝󰋩",
        -8.419204059542382
      ],
      [
        "▁󰋖󰋱󰟉",
        -8.421993767649532
      ],
      [
        "▁󰠦󰋭󰟅󰋱",
        -8.422931851737166
      ],
      [
        "▁󰠈󰋩",
        -8.425149263992168
      ],
      [
        "▁󰋆󰋭󰠈",
        -8.427093999275401
      ],
      [
        "▁󰋐󰠝󰞾",
        -8.427606300960637
      ],
      [
        "▁󰠁󰞾",
        -8.428670736518352
      ],
      [
        "▁󰋺󰞾󰟚󰋳󰊴",
        -8.429293965180404
      ],
      [
        "▁󰟑󰟆",
        -8.432584290814985
      ],
      [
        "▁󰠈󰟅",
        -8.434382227564116
      ],
      [
        "▁󰋺󰞻󰋔",
        -8.436497960224887
      ],
      [
        "▁󰋹󰋺",
        -8.437267671188016
      ],
      [
        "▁󰡌󰋩",
        -8.439303764468047
      ],
      [
        "▁󰋭󰋳",
        -8.441036343631229
      ],
      [
        "▁󰋹󰋱󰞼󰟈",
        -8.444099873516384
      ],
      [
        "▁󰟨󰋳󰊴",
        -8.444677930157622
      ],
      [
        "▁󰟌󰟱󰟌󰟤",
        -8.445786001191708
      ],
      [
        "▁󰋖󰋱",
        -8.446480654112214
      ],
      [
        "▁󰋱󰋺󰞽󰋩",
        -8.448171502928425
      ],
      [
        "▁󰟉󰠕",
        -8.448857346589051
      ],
      [
        "▁󰞿󰡷󰋛󰋩",
        -8.449974680987275
      ],
      [
        "▁󰞿󰢪󰋥",
        -8.450368145062793
      ],
      [
        "▁󰋭󰞻󰋩",
        -8.45272350982383
      ],
      [
        "▁󰋖󰟶󰞹",
        -8.454542570396821
      ],
      [
        "▁󰟢󰋱",
        -8.455098755515534
      ],
      [
        "▁󰟨󰞻",
        -8.455372706142096
      ],
      [
        "▁󰟥",
        -8.456630201252823
      ],
      [
        "▁󰟘󰋔󰟆",
        -8.458234072154324
      ],
      [
        "󰟌",
        -8.458527425503949
      ],
      [
        "▁󰋹󰟀󰋈",
        -8.459521454867515
      ],
      [
        "▁󰋹󰡈",
        -8.460146767115626
      ],
      [
        "▁󰋳󰤼",
        -8.461094888251852
      ],
      [
        "▁󰋇󰟱",
        -8.463834694740875
      ],
      [
        "▁󰋰󰟑󰋔",
        -8.463907336450703
      ],
      [
        "󰋬",
        -8.470718228253373
      ],
      [
        "▁󰟄󰌠",
        -8.472431613541868
      ],
      [
        "▁󰋝󰣣",
        -8.47347637220236
      ],
      [
        "▁󰋖󰋱󰟇",
        -8.474182749465488
      ],
      [
        "▁󰞻󰟞",
        -8.474850684825432
      ],
      [
        "▁󰟃󰡋",
        -8.4778812407638
      ],
      [
        "▁󰞽󰋹",
        -8.4795207172644
      ],
      [
        "▁󰟀󰋱",
        -8.48143443437312
      ],
      [
        "▁󰞽󰤚󰋩",
        -8.484254800524548
      ],
      [
        "▁󰟀󰠉󰟂",
        -8.48440985807552
      ],
      [
        "▁󰋹󰡚󰤡",
        -8.488925571287538
      ],
      [
        "▁󰟠󰠾",
        -8.489273093880806
      ],
      [
        "󰟮󰋱",
        -8.489393746611121
      ],
      [
        "▁󰋺󰞾󰟉󰀌",
        -8.490205668199216
      ],
      [
        "▁󰋊󰋫󰟦󰟋󰋱",
        -8.49344445804916
      ],
      [
        "▁󰋖󰞷󰀌",
        -8.495652701226723
      ],
      [
        "▁󰟀󰟀",
        -8.495920243497894
      ],
      [
        "▁󰋇󰋈󰋩",
        -8.497377302271733
      ],
      [
        "▁󰠛󰀎",
        -8.498352002866634
      ],
      [
        "󰞾󰋱",
        -8.4985673182492
      ],
      [
        "▁󰟍󰋹󰟌󰟁󰞻",
        -8.499195691768552
      ],
      [
        "▁󰞽󰞸",
        -8.49966053554129
      ],
      [
        "▁󰟧󰟛󰌠",
        -8.502615652522508
      ],
      [
        "󰋸",
        -8.505909070860417
      ],
      [
        "▁󰋹󰋯󰣀",
        -8.50624845148464
      ],
      [
        "▁󰋭󰡮󰞽󰋩",
        -8.506601080923664
      ],
      [
        "▁󰠷󰋨",
        -8.506703017545952
      ],
      [
        "▁󰟎󰤿󰟊",
        -8.507416071343211
      ],
      [
        "▁󰟅󰟁",
        -8.510201978775639
      ],
      [
        "▁󰟎",
        -8.519264443110748
      ],
      [
        "▁󰟝󰢦󰡓",
        -8.521103544896672
      ],
      [
        "󰟉",
        -8.521535902796789
      ],
      [
        "▁󰟺󰋥󰥤",
        -8.52500411456857
      ],
      [
        "▁󰟌󰞷󰋩",
        -8.526171886431916
      ],
      [
        "▁󰋬󰋳",
        -8.526959730830496
      ],
      [
        "▁󰟇󰋱",
        -8.527603606525258
      ],
      [
        "▁󰟃󰋸󰌠󰟒",
        -8.52845074896106
      ],
      [
        "▁󰞿󰟦󰟄󰋱",
        -8.52868498753048
      ],
      [
        "󰠍",
        -8.529089305491194
      ],
      [
        "▁󰟑󰟅󰋱",
        -8.529963082650067
      ],
      [
        "▁󰟀󰋹",
        -8.530038566664214
      ],
      [
        "▁󰢛",
        -8.530213207327513
      ],
      [
        "▁󰟘󰋔󰟆󰋱",
        -8.531009736967665
      ],
      [
        "▁󰞸󰋗󰟂",
        -8.532469976060886
      ],
      [
        "▁󰢢󰋗",
        -8.533247448236516
      ],
      [
        "▁󰤆",
        -8.533498828583586
      ],
      [
        "▁󰡕󰟜󰋱",
        -8.533647646336327
      ],
      [
        "▁󰋺󰡠󰌏",
        -8.533879327287831
      ],
      [
        "▁󰋆󰋭󰢖",
        -8.537530911931146
      ],
      [
        "▁󰋛",
        -8.54053529733477
      ],
      [
        "▁󰠛󰋠",
        -8.541953546748882
      ],
      [
        "▁󰟄󰋩",
        -8.541974668477744
      ],
      [
        "▁󰡳󰟐󰋩",
        -8.543170753505597
      ],
      [
        "󰋗",
        -8.543483690284852
      ],
      [
        "󰟹",
        -8.546214806425963
      ],
      [
        "▁󰋖󰞷󰋩󰀌",
        -8.547643588654825
      ],
      [
        "▁󰋺󰌠󰟹",
        -8.549294544664091
      ],
      [
        "▁󰟢",
        -8.549584378188833
      ],
      [
        "▁󰟕󰋩󰟂",
        -8.551319482930126
      ],
      [
        "▁󰞽󰟐",
        -8.551731101958103
      ],
      [
        "▁󰋫󰟈󰋛󰌠",
        -8.551777068789361
      ],
      [
        "▁󰠽󰤩",
        -8.55238427392589
      ],
      [
        "▁󰟳󰟀󰋧",
        -8.553089473946184
      ],
      [
        "▁󰟔󰠜󰋈",
        -8.554574358756346
      ],
      [
        "▁󰌨󰌬",
        -8.554941619085572
      ],
      [
        "▁󰋭󰋳󰞻󰋩󰀌",
        -8.55562171596499
      ],
      [
        "▁󰟘󰟂",
        -8.556588421576505
      ],
      [
        "▁󰟑󰟅",
        -8.556840632995971
      ],
      [
        "󰟁󰋱",
        -8.557765123489123
      ],
      [
        "󰀉󰊴",
        -8.557822729404585
      ],
      [
        "▁󰟄󰌠󰊴",
        -8.558547093155626
      ],
      [
        "▁󰟸",
        -8.558970031047199
      ],
      [
        "▁󰠊󰋞󰟂",
        -8.5592664402233
      ],
      [
        "▁󰋺󰌠󰞿󰊴",
        -8.559530044886934
      ],
      [
        "▁󰟓󰢀",
        -8.560783850450509
      ],
      [
        "▁󰟏󰞽󰠆󰋖",
        -8.561783010348757
      ],
      [
        "▁󰋝󰌠",
        -8.56260563815119
      ],
      [
        "▁󰋨󰡒",
        -8.565106118752986
      ],
      [
        "▁󰠏",
        -8.566303283958332
      ],
      [
        "▁󰠹󰋫",
        -8.566712485073293
      ],
      [
        "󰀉󰀌",
        -8.567081221604242
      ],
      [
        "▁󰤞󰟀",
        -8.567154218788312
      ],
      [
        "▁󰋖󰀇󰞷",
        -8.567648799421606
      ],
      [
        "▁󰠚󰡏",
        -8.568430358931012
      ],
      [
        "󰠆",
        -8.56926348627671
      ],
      [
        "▁󰋊󰢋󰋱",
        -8.569549686079347
      ],
      [
        "󰋜",
        -8.570647963242772
      ],
      [
        "▁󰋇󰣥󰟷",
        -8.570818792366792
      ],
      [
        "󰋩󰊴",
        -8.571029828880036
      ],
      [
        "▁󰋫󰟈󰋭󰡮󰋩",
        -8.57268493537566
      ],
      [
        "▁󰤕󰋛",
        -8.572952588288516
      ],
      [
        "󰋮",
        -8.574259231078805
      ],
      [
        "▁󰋫",
        -8.57445890469515
      ],
      [
        "▁󰋮󰌠",
        -8.574480757263052
      ],
      [
        "󰟴",
        -8.57672014659478
      ],
      [
        "▁󰟏󰟍󰥣",
        -8.578203090273156
      ],
      [
        "▁󰌯",
        -8.57844736221062
      ],
      [
        "▁󰞿󰋝",
        -8.579974477652874
      ],
      [
        "▁󰋊󰣠",
        -8.582046851556179
      ],
      [
        "▁󰠌󰋤",
        -8.582676631199071
      ],
      [
        "▁󰠨󰡟",
        -8.584876756959389
      ],
      [
        "▁󰋆󰋭",
        -8.58594521529804
      ],
      [
        "▁󰋈󰟍󰋱",
        -8.588003446311987
      ],
      [
        "▁󰟰󰋱󰠶",
        -8.589777605357853
      ],
      [
        "▁󰋇󰟻󰡁",
        -8.595167738875112
      ],
      [
        "▁󰋺󰋩󰊴",
        -8.596228596168249
      ],
      [
        "▁󰞸󰣝",
        -8.59833354224109
      ],
      [
        "▁󰞼󰋳",
        -8.598758212120705
      ],
      [
        "▁󰟅󰋔󰟆",
        -8.599658797385608
      ],
      [
        "󰟫",
        -8.59976744950719
      ],
      [
        "▁󰋫󰟈󰟀󰞷󰋱",
        -8.60201214778626
      ],
      [
        "▁󰟦󰟋󰋱",
        -8.60354536773718
      ],
      [
        "▁󰟘󰠤",
        -8.604352220058129
      ],
      [
        "▁󰋭󰞻󰟉󰋩󰀌",
        -8.604395687361494
      ],
      [
        "▁󰟝󰋯",
        -8.604724001680877
      ],
      [
        "▁󰞽󰟛",
        -8.604802737313934
      ],
      [
        "▁󰟎󰟇󰋷",
        -8.60550115877831
      ],
      [
        "▁󰋇󰟐",
        -8.6063722555795
      ],
      [
        "▁󰟎󰟝󰋩",
        -8.606588021110525
      ],
      [
        "▁󰟓󰋈",
        -8.607207825268528
      ],
      [
        "▁󰋖󰋗󰋩󰋔",
        -8.608592517389834
      ],
      [
        "▁󰋖󰋱󰟉󰊴",
        -8.609930261511504
      ],
      [
        "▁󰟌󰋳󰋩",
        -8.60997572788676
      ],
      [
        "▁󰋇󰟷󰥆󰟊󰋖",
        -8.61103822099484
      ],
      [
        "▁󰋯󰡊",
        -8.612122499073672
      ],
      [
        "▁󰌮",
        -8.614319604308136
      ],
      [
        "▁󰟏󰞸",
        -8.614440385122023
      ],
      [
        "󰡓",
        -8.617055921174428
      ],
      [
        "▁󰋆󰡈󰟷",
        -8.623020831433072
      ],
      [
        "▁󰟻󰋩",
        -8.623550317265147
      ],
      [
        "▁󰋺",
        -8.624372434297952
      ],
      [
        "▁󰟘󰟇󰊴",
        -8.627673722681623
      ],
      [
        "▁󰋖󰡒󰋖󰣁",
        -8.628425612464746
      ],
      [
        "▁󰋭󰡮󰞽󰟅",
        -8.628661929432985
      ],
      [
        "▁󰋆󰋭󰠈󰋩",
        -8.630124255816648
      ],
      [
        "▁󰀻",
        -8.630616071304333
      ],
      [
        "▁󰋆󰠢󰞼󰋱",
        -8.631597043401035
      ],
      [
        "▁󰞺󰋯󰋩",
        -8.633220569138581
      ],
      [
        "▁󰞽󰋯󰟋",
        -8.634083734895512
      ],
      [
        "▁󰠃󰢱",
        -8.634807690704836
      ],
      [
        "▁󰋭󰋳󰋳󰀌",
        -8.634844556548023
      ],
      [
        "▁󰟌󰟠",
        -8.637611732386949
      ],
      [
        "󰀇󰋱",
        -8.637712201596376
      ],
      [
        "▁󰞺󰦐󰌠",
        -8.637771915745223
      ],
      [
        "▁󰠑󰞸",
        -8.637955760512709
      ],
      [
        "▁󰠇󰋯󰟁",
        -8.638006627150325
      ],
      [
        "▁󰋱󰋖󰋯",
        -8.639043895072755
      ],
      [
        "▁󰋆󰋦󰋛",
        -8.639302144702624
      ],
      [
        "▁󰟓󰋭",
        -8.640359027806067
      ],
      [
        "▁󰟄󰋔󰟆󰋱",
        -8.640447658078537
      ],
      [
        "▁󰋳󰋈󰟆",
        -8.640816956411784
      ],
      [
        "󰋊",
        -8.64155176347997
      ],
      [
        "▁󰞸󰟂",
        -8.6434452558003
      ],
      [
        "󰀽",
        -8.644504933935215
      ],
      [
        "▁󰟘󰟍",
        -8.647124177512103
      ],
      [
        "▁󰋰󰋥",
        -8.647209517858121
      ],
      [
        "▁󰢢󰠀",
        -8.648010127293784
      ],
      [
        "▁󰋨󰞸",
        -8.64951519765092
      ],
      [
        "▁󰋘󰠕",
        -8.650464963940028
      ],
      [
        "▁󰌩󰌧",
        -8.650965445258691
      ],
      [
        "▁󰟃󰞾",
        -8.651234156861065
      ],
      [
        "▁󰞿󰤯󰋷",
        -8.65123477190496
      ],
      [
        "󰀍󰋐",
        -8.653492092197359
      ],
      [
        "▁󰡃󰢺",
        -8.655470575440924
      ],
      [
        "󰟜󰋱",
        -8.655554747641341
      ],
      [
        "▁󰋐󰋖󰟑󰋩",
        -8.659302317764224
      ],
      [
        "󰟕",
        -8.6600984304332
      ],
      [
        "▁󰟓󰋘",
        -8.661807100049574
      ],
      [
        "▁󰋳󰠇",
        -8.664130915474244
      ],
      [
        "▁󰟑󰋖",
        -8.664496275739937
      ],
      [
        "󰊴󰀇",
        -8.665738107896667
      ],
      [
        "▁󰡨󰞷",
        -8.6680011371393
      ],
      [
        "▁󰟪󰣒",
        -8.668810765809308
      ],
      [
        "▁󰌨󰌩",
        -8.670120719909367
      ],
      [
        "▁󰋺󰋩",
        -8.672901304842446
      ],
      [
        "▁󰟎󰞽󰋤",
        -8.673641685121419
      ],
      [
        "▁󰞸󰋥",
        -8.673710930385882
      ],
      [
        "▁󰥰󰋥",
        -8.674030712539922
      ],
      [
        "▁󰋹󰞼󰞻",
        -8.6754764983281
      ],
      [
        "▁󰋇󰋫󰞹󰞺",
        -8.678736156587213
      ],
      [
        "▁󰋖󰞾󰋖󰟒",
        -8.685181144593711
      ],
      [
        "󰟧",
        -8.687195399126312
      ],
      [
        "▁󰟜󰞾",
        -8.688141364912097
      ],
      [
        "▁󰟌󰞿",
        -8.693601588800579
      ],
      [
        "▁󰟮󰟫󰋸",
        -8.693777290229304
      ],
      [
        "▁󰋐󰋖󰞽󰠋",
        -8.694067187556023
      ],
      [
        "▁󰌩󰌫",
        -8.69419962751979
      ],
      [
        "󰌱",
        -8.694337333829992
      ],
      [
        "󰋇",
        -8.69608668448925
      ],
      [
        "▁󰟤󰟿",
        -8.697513373929352
      ],
      [
        "▁󰞸󰌠",
        -8.698883638463743
      ],
      [
        "▁󰋹󰡜󰢴",
        -8.69912517743649
      ],
      [
        "▁󰢉󰋳",
        -8.701896799530472
      ],
      [
        "▁󰟍",
        -8.702124335683912
      ],
      [
        "▁󰟮󰟖󰟠󰋱",
        -8.70484204668752
      ],
      [
        "▁󰋺󰋈󰋳",
        -8.705319119111918
      ],
      [
        "▁󰋖󰟈󰟀󰋱",
        -8.705420857296826
      ],
      [
        "▁󰟌󰟈",
        -8.709556749632902
      ],
      [
        "▁󰞼󰋜",
        -8.710494052551983
      ],
      [
        "▁󰟎󰞼󰟤󰋥",
        -8.71064848308988
      ],
      [
        "▁󰠎󰟆󰋱󰡲󰋩",
        -8.711477820472386
      ],
      [
        "󰟍",
        -8.714009085070169
      ],
      [
        "▁󰋺󰋈󰟇",
        -8.714223792881107
      ],
      [
        "󰟲",
        -8.714454963402332
      ],
      [
        "▁󰋷󰥉󰋷",
        -8.714723284838069
      ],
      [
        "▁󰋇󰋳",
        -8.716422030644136
      ],
      [
        "▁󰋹󰥱󰡄",
        -8.718106716941222
      ],
      [
        "▁󰋖󰞻󰋝",
        -8.718659920945539
      ],
      [
        "▁󰋆󰟯󰟘󰢈",
        -8.72209143367887
      ],
      [
        "▁󰋹󰞼󰋳",
        -8.725123800482875
      ],
      [
        "▁󰠳󰟋󰟄󰟠",
        -8.726521392872394
      ],
      [
        "▁󰟄󰋩󰊴",
        -8.727066040868758
      ],
      [
        "▁󰟏󰟇󰋖",
        -8.727345784321527
      ],
      [
        "▁󰋇󰟨󰋈",
        -8.727428387149681
      ],
      [
        "▁󰋇󰡢󰋺",
        -8.72780544847824
      ],
      [
        "▁󰥥󰞿",
        -8.728620960634709
      ],
      [
        "▁󰡡󰌠",
        -8.728918079299294
      ],
      [
        "󰟒󰋱",
        -8.72922033281236
      ],
      [
        "▁󰡭󰢰󰋱",
        -8.731119993392625
      ],
      [
        "▁󰢟󰋱",
        -8.73287403266492
      ],
      [
        "▁󰟺󰠼󰋱",
        -8.733933341187479
      ],
      [
        "▁󰟕󰌠󰟻󰌠",
        -8.733934048128889
      ],
      [
        "▁󰢃󰠔󰌠",
        -8.736206001611617
      ],
      [
        "▁󰠦󰋭󰟅",
        -8.739164637290978
      ],
      [
        "▁󰋭󰋈",
        -8.73926456130889
      ],
      [
        "▁󰋱󰠠",
        -8.739968873754126
      ],
      [
        "▁󰟵󰟫󰡓󰠨󰡄",
        -8.740017994108559
      ],
      [
        "▁󰞿󰟦󰞺",
        -8.74226272432449
      ],
      [
        "▁󰋆󰟯󰤤󰋥",
        -8.74247073980155
      ],
      [
        "▁󰋆󰠁󰠠",
        -8.74268515948313
      ],
      [
        "▁󰟞󰋩",
        -8.744535115352138
      ],
      [
        "▁󰟎󰟓󰋭",
        -8.745375035810474
      ],
      [
        "󰋰",
        -8.746915753874159
      ],
      [
        "▁󰟲󰠥",
        -8.747973876511624
      ],
      [
        "▁󰞹󰟔",
        -8.749625047659615
      ],
      [
        "▁󰟌󰋱",
        -8.754042880520355
      ],
      [
        "▁󰋈󰡘󰟑",
        -8.758666670116215
      ],
      [
        "▁󰋺󰡘",
        -8.758891594785563
      ],
      [
        "▁󰋐󰠞󰟽",
        -8.76034565504807
      ],
      [
        "▁󰋙󰋠󰞹󰋱",
        -8.761621911370705
      ],
      [
        "▁󰣉󰠉󰞾",
        -8.761670736828183
      ],
      [
        "▁󰟛󰞼󰋱",
        -8.76189443313813
      ],
      [
        "󰠂󰋱",
        -8.762085250702947
      ],
      [
        "▁󰠡󰟨󰋱",
        -8.762149177333074
      ],
      [
        "▁󰞿󰋺󰋥",
        -8.76503868257966
      ],
      [
        "▁󰟬󰋹󰟖󰋯",
        -8.765433485847677
      ],
      [
        "▁󰋇󰟏",
        -8.767115786052571
      ],
      [
        "󰟠",
        -8.769431627050524
      ],
      [
        "▁󰋖󰋱󰟉󰋩",
        -8.769900763083335
      ],
      [
        "▁󰋐󰟋󰞼󰋱",
        -8.7721836258147
      ],
      [
        "▁󰟬󰠘",
        -8.774601579646781
      ],
      [
        "▁󰋭󰤣",
        -8.77467111594908
      ],
      [
        "▁󰋈󰣼",
        -8.774910800546628
      ],
      [
        "▁󰋫󰟈󰞽󰋤",
        -8.775528904538781
      ],
      [
        "▁󰌰",
        -8.775838870945359
      ],
      [
        "▁󰟃󰟢󰋱",
        -8.776618498434095
      ],
      [
        "󰋩󰀌",
        -8.77684099466144
      ],
      [
        "▁󰋙󰋠󰞹󰌠",
        -8.778233823161381
      ],
      [
        "󰋐",
        -8.778947523492317
      ],
      [
        "▁󰣾󰞼󰋱",
        -8.782597265709912
      ],
      [
        "▁󰡺󰋠",
        -8.78292386675904
      ],
      [
        "󰟵󰟖󰋱",
        -8.783636031169316
      ],
      [
        "▁󰠲󰞻",
        -8.785057725932374
      ],
      [
        "▁󰋖󰋗󰠄",
        -8.785282328051544
      ],
      [
        "▁󰁉󰁎",
        -8.785892268163941
      ],
      [
        "▁󰟎󰋦󰟜",
        -8.787492046442889
      ],
      [
        "▁󰋫󰠇",
        -8.787818355007285
      ],
      [
        "▁󰋐󰞺󰟀󰞷",
        -8.788584609738706
      ],
      [
        "󰣊",
        -8.791241342857319
      ],
      [
        "▁󰋇󰋩󰠼",
        -8.791430024953241
      ],
      [
        "▁󰟬",
        -8.795406869416196
      ],
      [
        "▁󰋊󰟌󰌠",
        -8.795840486475633
      ],
      [
        "▁󰟃󰡋󰟃󰢏󰋳󰞾󰋱",
        -8.796563275006031
      ],
      [
        "󰠩",
        -8.796811709012728
      ],
      [
        "▁󰟕󰞿",
        -8.796910441873623
      ],
      [
        "▁󰌨󰌪",
        -8.79691761198677
      ],
      [
        "▁󰟞󰟀󰋱",
        -8.797570394937503
      ],
      [
        "▁󰋭󰠓󰟼",
        -8.799862583685258
      ],
      [
        "▁󰋫󰌝󰟂",
        -8.803044531308231
      ],
      [
        "▁󰋆󰟭󰋥󰋯",
        -8.803384537378546
      ],
      [
        "▁󰟛󰋖󰟇",
        -8.803722458867457
      ],
      [
        "▁󰞺󰡶",
        -8.807808464205046
      ],
      [
        "▁󰋈󰟊󰟍󰋹",
        -8.808637825074937
      ],
      [
        "▁󰟇󰡅",
        -8.810556102020453
      ],
      [
        "▁󰋖󰞷󰟚󰞻󰋩",
        -8.8110321408051
      ],
      [
        "▁󰠨󰡄",
        -8.81224865894989
      ],
      [
        "▁󰋭󰡄󰞹",
        -8.812918198381945
      ],
      [
        "▁󰞽󰟛󰌠",
        -8.813629586360296
      ],
      [
        "▁󰋇󰋹󰞻",
        -8.813771077203373
      ],
      [
        "▁󰋙󰋱",
        -8.815600415515652
      ],
      [
        "▁󰟄󰋭",
        -8.817916256022759
      ],
      [
        "󰥕",
        -8.817987083215126
      ],
      [
        "▁󰟃󰥃󰋱",
        -8.821780441571354
      ],
      [
        "▁󰋇󰠡",
        -8.822658997804206
      ],
      [
        "▁󰟃󰟓󰟨󰋱",
        -8.824613066619888
      ],
      [
        "▁󰟁󰟍󰟄󰋱",
        -8.825086673811846
      ],
      [
        "▁󰠵󰣹",
        -8.826680518519435
      ],
      [
        "▁󰟓󰋱󰟂",
        -8.82689754540242
      ],
      [
        "▁󰋺󰟇󰀌",
        -8.826983518357336
      ],
      [
        "▁󰟹󰞽󰟄󰋱",
        -8.82738318252042
      ],
      [
        "▁󰠱",
        -8.8293927987589
      ],
      [
        "▁󰟌󰌠",
        -8.831324020825047
      ],
      [
        "▁󰡿󰟥󰡔󰢊",
        -8.83202675546712
      ],
      [
        "▁󰡰󰋯󰟀󰋱",
        -8.834324682160965
      ],
      [
        "󰟄",
        -8.836115974676769
      ],
      [
        "󰞼󰟴",
        -8.836160901771734
      ],
      [
        "▁󰋘󰋥󰞼󰋳",
        -8.837637004121426
      ],
      [
        "󰟨",
        -8.837654717257276
      ],
      [
        "▁󰠽󰡁",
        -8.837675401843244
      ],
      [
        "▁󰟧󰟛󰋔",
        -8.837733429666667
      ],
      [
        "▁󰁔󰁏",
        -8.837793578707911
      ],
      [
        "▁󰋐󰟑󰞺",
        -8.839672740511439
      ],
      [
        "▁󰟌󰋩",
        -8.842338176278137
      ],
      [
        "▁󰋮󰣶",
        -8.84324846423005
      ],
      [
        "▁󰟮󰠋",
        -8.84474725395004
      ],
      [
        "▁󰢟󰞷",
        -8.845718840099542
      ],
      [
        "▁󰋷󰋥",
        -8.847503979810202
      ],
      [
        "󰋘󰠐󰋱",
        -8.84777547010117
      ],
      [
        "▁󰞹󰋈󰀌",
        -8.849088049445546
      ],
      [
        "▁󰋘󰡣",
        -8.849257783159338
      ],
      [
        "▁󰟚󰋳󰀌",
        -8.849884448028424
      ],
      [
        "󰟯",
        -8.852319892569664
      ],
      [
        "▁󰟍󰋱",
        -8.852718020597756
      ],
      [
        "󰌠󰊴",
        -8.853313566282095
      ],
      [
        "▁󰌪󰌧",
        -8.853921008625203
      ],
      [
        "▁󰠽󰡨󰋩󰟁",
        -8.853980991770761
      ],
      [
        "▁󰟹󰞽󰞺",
        -8.855267043910585
      ],
      [
        "▁󰡉󰋭󰋈",
        -8.855609687780726
      ],
      [
        "▁󰠻",
        -8.856180215413623
      ],
      [
        "▁󰟃󰢁",
        -8.857376039038586
      ],
      [
        "▁󰟑󰞾󰟉",
        -8.858424304795976
      ],
      [
        "󰟬",
        -8.858841926692698
      ],
      [
        "▁󰟹󰋯󰞸",
        -8.859207347834374
      ],
      [
        "▁󰟅󰟜",
        -8.859690182656127
      ],
      [
        "▁󰞼󰟦󰋱",
        -8.860154951425015
      ],
      [
        "▁󰟛󰞺󰀌",
        -8.86262460336988
      ],
      [
        "▁󰋆󰢧󰋫󰋖",
        -8.864030113307098
      ],
      [
        "󰠁",
        -8.86604701304286
      ],
      [
        "▁󰋇󰋹󰟂",
        -8.867665131090055
      ],
      [
        "▁󰋐󰞺",
        -8.867731840451418
      ],
      [
        "▁󰟇󰟈󰞾",
        -8.869217019233572
      ],
      [
        "󰟂󰋈",
        -8.869275885383756
      ],
      [
        "▁󰞸󰋝",
        -8.870178983895528
      ],
      [
        "▁󰠰",
        -8.87027721899177
      ],
      [
        "▁󰋹󰞽󰋝",
        -8.870713725444064
      ],
      [
        "▁󰌨󰌫",
        -8.87100974335635
      ],
      [
        "▁󰋷󰞿󰟀󰋱",
        -8.871315176573512
      ],
      [
        "󰀇󰊴",
        -8.871630145890354
      ],
      [
        "▁󰟕󰞹󰋩",
        -8.872206281077373
      ],
      [
        "▁󰋖󰋱󰞻󰋩",
        -8.872402619449446
      ],
      [
        "󰟙󰋱",
        -8.872440276644696
      ],
      [
        "▁󰠣",
        -8.872655091697194
      ],
      [
        "▁󰞺󰋺",
        -8.873448029114384
      ],
      [
        "󰡬󰋩",
        -8.874176555117243
      ],
      [
        "▁󰋘",
        -8.875478218988384
      ],
      [
        "▁󰠁󰟂",
        -8.876101387929461
      ],
      [
        "󰟱",
        -8.876982798581755
      ],
      [
        "▁󰟛󰞹󰋱",
        -8.879103102334613
      ],
      [
        "▁󰟅󰋈󰀌",
        -8.879531483563103
      ],
      [
        "▁󰋖󰋱󰟇󰋩",
        -8.88011603592919
      ],
      [
        "▁󰋯󰠙󰋈",
        -8.88070955368954
      ],
      [
        "▁󰋯󰡆󰋳󰟀󰋱",
        -8.881817556066396
      ],
      [
        "▁󰌨󰌭",
        -8.883236561345607
      ],
      [
        "▁󰁁",
        -8.884240457653119
      ],
      [
        "▁󰠍",
        -8.884337203016678
      ],
      [
        "▁󰟌󰞷󰋩󰊴",
        -8.887078065210634
      ],
      [
        "▁󰟀󰟰",
        -8.889812305010157
      ],
      [
        "▁󰌨󰌮",
        -8.890299213337753
      ],
      [
        "▁󰋐󰋗󰠄",
        -8.893634065370431
      ],
      [
        "▁󰋫󰟈󰡯󰟊",
        -8.895001691683548
      ],
      [
        "󰋥󰋯",
        -8.895480995226217
      ],
      [
        "▁󰟎󰟊󰟒",
        -8.897499862801673
      ],
      [
        "▁󰟁󰟍󰞺",
        -8.898809849116256
      ],
      [
        "󰟻",
        -8.89943946795105
      ],
      [
        "▁󰟝󰋩",
        -8.900606229894573
      ],
      [
        "▁󰣂󰢅󰠬󰋱",
        -8.900963601051764
      ],
      [
        "▁󰠛󰟍󰤇󰋧",
        -8.901229836498562
      ],
      [
        "▁󰟙󰞼󰋱",
        -8.901492555697471
      ],
      [
        "▁󰋘󰣍󰋱",
        -8.901765394107908
      ],
      [
        "▁󰡃󰋺󰢣󰟊󰟀󰋱",
        -8.901837600668697
      ],
      [
        "▁󰋖󰋱󰟇󰊴",
        -8.901893027393
      ],
      [
        "▁󰟻󰠉",
        -8.903317307607518
      ],
      [
        "▁󰟇󰠕",
        -8.90423582165668
      ],
      [
        "󰋦",
        -8.904974398875346
      ],
      [
        "▁󰠊󰋨󰟀󰋱",
        -8.905188006795425
      ],
      [
        "▁󰋭󰣚",
        -8.905650980369359
      ],
      [
        "▁󰋇󰞹",
        -8.907536447803318
      ],
      [
        "▁󰟐󰟀",
        -8.907672652660747
      ],
      [
        "▁󰌨󰌨",
        -8.90907055664056
      ],
      [
        "▁󰠃󰟔󰌏󰟏",
        -8.91163879403778
      ],
      [
        "▁󰞸󰤋󰋱",
        -8.912230963912567
      ],
      [
        "▁󰋫󰟈󰋖󰡣󰞹",
        -8.912305636981234
      ],
      [
        "▁󰠀󰟋",
        -8.912395443186456
      ],
      [
        "▁󰟛󰋖󰞻",
        -8.912878862798852
      ],
      [
        "▁󰠒󰟻󰠒󰋘",
        -8.914044124771218
      ],
      [
        "▁󰋐󰟄󰋱",
        -8.91441246743226
      ],
      [
        "▁󰟊󰋩󰟒",
        -8.916816962823548
      ],
      [
        "▁󰋫󰟈󰋤󰋥",
        -8.918855302459653
      ],
      [
        "▁󰟿󰡎󰟀󰋱",
        -8.919535530848666
      ],
      [
        "▁󰋷󰋺󰞷󰋱",
        -8.920119314728145
      ],
      [
        "▁󰋯󰟅󰋱",
        -8.920933147571674
      ],
      [
        "▁󰟀󰠉󰋱",
        -8.921551057573506
      ],
      [
        "󰤢",
        -8.921588940544684
      ],
      [
        "▁󰟘󰋩",
        -8.925012853083345
      ],
      [
        "▁󰋹󰟀󰋱",
        -8.92750448078451
      ],
      [
        "▁󰟿󰟅",
        -8.929051850383441
      ],
      [
        "▁󰋩󰡚󰋱",
        -8.92923905761565
      ],
      [
        "▁󰟑󰞾󰟉󰋩",
        -8.930364313562965
      ],
      [
        "󰠡",
        -8.930622618568243
      ],
      [
        "▁󰟓󰢀󰌠",
        -8.930855646719603
      ],
      [
        "▁󰋆󰟯󰡻󰟅",
        -8.931384228375203
      ],
      [
        "▁󰋹󰋧󰋱",
        -8.933124239709198
      ],
      [
        "▁󰋫󰟈󰟢󰋳󰋖",
        -8.933265663070989
      ],
      [
        "▁󰋙󰞷󰋱",
        -8.934547789891266
      ],
      [
        "󰟷",
        -8.934604379779461
      ],
      [
        "▁󰟄󰡀",
        -8.934969315782581
      ],
      [
        "▁󰟮󰟶",
        -8.93502511730227
      ],
      [
        "▁󰠌󰣃󰋩",
        -8.936214484306785
      ],
      [
        "▁󰠳󰟋󰋱",
        -8.937652944890107
      ],
      [
        "▁󰋇󰡢󰋺󰋱",
        -8.937811058748844
      ],
      [
        "▁󰋩󰠵",
        -8.938865917165387
      ],
      [
        "▁󰟢󰋈",
        -8.940181796246106
      ],
      [
        "▁󰋐󰋯",
        -8.940254936374366
      ],
      [
        "▁󰋺󰋈󰟇󰊴",
        -8.940596351217286
      ],
      [
        "▁󰋜󰠉󰞾",
        -8.942155062672809
      ],
      [
        "▁󰟎󰞼󰋱",
        -8.943172252682276
      ],
      [
        "▁󰋊󰋫󰞷",
        -8.944401941715617
      ],
      [
        "▁󰋖󰞷󰟚󰞻󰋩󰊴",
        -8.945454254530466
      ],
      [
        "▁󰠌󰋦󰟗󰋖",
        -8.94776515650784
      ],
      [
        "▁󰟜󰟅",
        -8.947985943398697
      ],
      [
        "▁󰟻",
        -8.948076931696937
      ],
      [
        "▁󰡥󰟗󰞼",
        -8.948278568012528
      ],
      [
        "▁󰟮󰋱󰤉󰋱",
        -8.950035573289496
      ],
      [
        "▁󰋆󰟊󰟈󰠓",
        -8.953688380918035
      ],
      [
        "▁󰋯󰟷󰟼",
        -8.953877659559975
      ],
      [
        "▁󰋹󰋯󰞾󰋱",
        -8.95388037836881
      ],
      [
        "▁󰋺󰋈󰟆󰟉󰊴",
        -8.954177387674067
      ],
      [
        "▁󰞸󰋩",
        -8.955811172351856
      ],
      [
        "▁󰞿󰟦",
        -8.955978063321973
      ],
      [
        "▁󰋖󰟈󰞻",
        -8.956742216970811
      ],
      [
        "▁󰟂󰋯󰞿",
        -8.956803829475586
      ],
      [
        "▁󰟕󰌠󰟻",
        -8.958499435919498
      ],
      [
        "▁󰡲󰠎",
        -8.958802488415014
      ],
      [
        "▁󰋆󰡣",
        -8.958922732183723
      ],
      [
        "▁󰠚󰠓",
        -8.95900414627326
      ],
      [
        "▁󰋇󰋺󰋥",
        -8.959199091368019
      ],
      [
        "▁󰟄󰋺",
        -8.960433315067814
      ],
      [
        "▁󰟺󰟃󰟰",
        -8.968082983395211
      ],
      [
        "▁󰋝󰟅󰋱",
        -8.968643689636064
      ],
      [
        "▁󰋹󰣞󰋺",
        -8.968849613681973
      ],
      [
        "▁󰋺󰋈󰟆󰟉",
        -8.9705081962352
      ],
      [
        "▁󰋊󰠃󰋥",
        -8.971643370438429
      ],
      [
        "󰣢",
        -8.972633981276436
      ],
      [
        "▁󰋭󰌠󰋹",
        -8.97378837778643
      ],
      [
        "▁󰋫󰋧",
        -8.97399012522315
      ],
      [
        "▁󰤧󰋳",
        -8.975251286213357
      ],
      [
        "▁󰢣󰠸",
        -8.97619612115993
      ],
      [
        "▁󰋹󰋺󰋝",
        -8.976549640609182
      ],
      [
        "▁󰞿󰡷󰋛󰟅",
        -8.97659963770563
      ],
      [
        "󰠹󰋫",
        -8.977601293757884
      ],
      [
        "▁󰟑󰞻",
        -8.979649554804013
      ],
      [
        "▁󰟤󰠇󰋖",
        -8.982891028531958
      ],
      [
        "▁󰋈󰋊󰞿󰌠󰋩",
        -8.983750918634152
      ],
      [
        "▁󰋆󰠢󰋖",
        -8.984755688808278
      ],
      [
        "▁󰋥󰟛",
        -8.985084921583569
      ],
      [
        "▁󰋯󰢐",
        -8.985236241999816
      ],
      [
        "▁󰋹󰥺󰋭󰞹",
        -8.987808782300348
      ],
      [
        "▁󰋊󰋫",
        -8.988511260294901
      ],
      [
        "󰀼󰁎",
        -8.988914285630214
      ],
      [
        "▁󰢗󰡩",
        -8.989436048909644
      ],
      [
        "▁󰋹󰤈󰟊",
        -8.989532323304383
      ],
      [
        "▁󰟳",
        -8.98972182853715
      ],
      [
        "▁󰟎󰡖󰋭",
        -8.989878677490752
      ],
      [
        "󰟓",
        -8.991720863862444
      ],
      [
        "▁󰞽󰟅",
        -8.992413711162872
      ],
      [
        "▁󰋺󰋈󰋳󰊴",
        -8.993212592305856
      ],
      [
        "▁󰋊󰤨󰢖",
        -8.993732794654443
      ],
      [
        "▁󰞽󰟐󰋱",
        -8.993896656406678
      ],
      [
        "▁󰟳󰠪󰋺",
        -8.995594429649726
      ],
      [
        "▁󰋐󰋯󰋩󰟔",
        -8.996020705593857
      ],
      [
        "▁󰋱󰋛󰞹",
        -8.997744877015412
      ],
      [
        "▁󰟲󰠣󰋔",
        -8.998080517741151
      ],
      [
        "▁󰟏󰞽󰟭",
        -8.99814777487263
      ],
      [
        "▁󰠭󰤂",
        -9.000872776053173
      ],
      [
        "󰟛",
        -9.001509596432912
      ],
      [
        "▁󰋫󰟈󰟀󰋱",
        -9.003190824566321
      ],
      [
        "▁󰟕󰞿󰞾",
        -9.003633080284564
      ],
      [
        "󰞼󰞻",
        -9.004021751610992
      ],
      [
        "▁󰟨󰟉󰀌",
        -9.004519451605073
      ],
      [
        "▁󰞿󰊴",
        -9.004987294520346
      ],
      [
        "▁󰋖󰠿󰋩",
        -9.0059117792799
      ],
      [
        "▁󰟎󰟢󰋱",
        -9.007928058579465
      ],
      [
        "▁󰋇󰟨󰋱",
        -9.007979969432604
      ],
      [
        "▁󰟁󰟍󰟂",
        -9.00919990347259
      ],
      [
        "󰟙󰋈",
        -9.009616684717296
      ],
      [
        "▁󰞽󰟯󰋸󰞺",
        -9.009656610875018
      ],
      [
        "▁󰋹󰋖󰞻󰋱",
        -9.009960656614505
      ],
      [
        "▁󰟋󰋳",
        -9.01032201381699
      ],
      [
        "▁󰟔󰠜󰟙",
        -9.010916029479445
      ],
      [
        "▁󰌨󰌯",
        -9.01108097907371
      ],
      [
        "▁󰟌󰞷󰀌",
        -9.01151357137961
      ],
      [
        "▁󰟤󰡣",
        -9.012137773208337
      ],
      [
        "▁󰟡󰞺󰋱",
        -9.014448212345295
      ],
      [
        "▁󰞸󰣦",
        -9.015539047012684
      ],
      [
        "▁󰋇󰟇󰋧󰋩",
        -9.016243531647069
      ],
      [
        "▁󰋭󰋳󰟉󰋩󰀌",
        -9.017188769406017
      ],
      [
        "󰌝",
        -9.018811085508489
      ],
      [
        "󰟪",
        -9.021093310593045
      ],
      [
        "󰠎",
        -9.021568606687904
      ],
      [
        "▁󰋖󰟗󰟒󰋱",
        -9.02166907849098
      ],
      [
        "▁󰋷󰟴󰋱",
        -9.021993183647215
      ],
      [
        "▁󰋢󰀎",
        -9.023115486878547
      ],
      [
        "▁󰋐󰋈󰠹󰋫",
        -9.023873969206537
      ],
      [
        "▁󰋇󰟥󰟆",
        -9.023982822684586
      ],
      [
        "▁󰟏󰠕",
        -9.026075221707254
      ],
      [
        "▁󰟎󰢿󰋥",
        -9.027741210842267
      ],
      [
        "▁󰋧󰋷",
        -9.027766055212995
      ],
      [
        "󰠏",
        -9.030024405342148
      ],
      [
        "▁󰞿󰋝󰠱",
        -9.030041595401983
      ],
      [
        "▁󰟄󰡀󰟂",
        -9.030996679484348
      ],
      [
        "▁󰟳󰠈",
        -9.031065548129465
      ],
      [
        "▁󰋺󰞾󰟉󰋩",
        -9.033032616639721
      ],
      [
        "󰟚",
        -9.034766888177588
      ],
      [
        "▁󰟂󰋯󰋩",
        -9.035001048874197
      ],
      [
        "󰀈",
        -9.035693134447962
      ],
      [
        "▁󰞹󰋯󰋖",
        -9.035979240689375
      ],
      [
        "▁󰋆󰋭󰢖󰋈",
        -9.036396118894814
      ],
      [
        "▁󰡕󰟜",
        -9.036447091507052
      ],
      [
        "▁󰠽󰟓󰟃󰋖",
        -9.036704700987448
      ],
      [
        "▁󰟕󰞹󰠄",
        -9.037693832100684
      ],
      [
        "󰟤",
        -9.03813197384799
      ],
      [
        "󰠣",
        -9.038446731083434
      ],
      [
        "▁󰋈󰋊󰞿󰌠󰟅󰋱",
        -9.03851041626667
      ],
      [
        "▁󰋫󰟈",
        -9.04002947602598
      ],
      [
        "▁󰠞󰠋",
        -9.041486117424764
      ],
      [
        "▁󰋆󰟅󰞺󰋈",
        -9.041961400730901
      ],
      [
        "▁󰋯󰟪󰟋",
        -9.042066151483787
      ],
      [
        "󰟘",
        -9.04211923227822
      ],
      [
        "▁󰡿󰋯",
        -9.044139026436232
      ],
      [
        "▁󰋧󰋱󰞼󰋱",
        -9.044143233597701
      ],
      [
        "▁󰋖󰟫󰋩󰊴",
        -9.045022049110306
      ],
      [
        "▁󰠑󰟍󰞺",
        -9.045216557845018
      ],
      [
        "▁󰋆󰟅󰞺",
        -9.045685663774547
      ],
      [
        "▁󰠆󰡌󰟏",
        -9.046884168516815
      ],
      [
        "󰋝󰋩",
        -9.047206786252321
      ],
      [
        "▁󰞽󰡪",
        -9.04896633841626
      ],
      [
        "▁󰢸󰞷",
        -9.04898415149672
      ],
      [
        "▁󰡕󰋯",
        -9.049356230409243
      ],
      [
        "▁󰟏󰟪󰡈",
        -9.049465493682794
      ],
      [
        "󰟑󰟨󰋱",
        -9.04994305577544
      ],
      [
        "▁󰞽󰦊",
        -9.05009661492213
      ],
      [
        "▁󰟘󰠤󰊴",
        -9.050368996384593
      ],
      [
        "󰢓",
        -9.052260750641492
      ],
      [
        "▁󰟐󰟑󰋩",
        -9.053724061443111
      ],
      [
        "▁󰋰󰟣󰠸",
        -9.053847632859362
      ],
      [
        "▁󰋐󰟋󰞼",
        -9.054529124112793
      ],
      [
        "▁󰟕",
        -9.05502342004839
      ],
      [
        "▁󰟀󰟕󰋱",
        -9.055108538832647
      ],
      [
        "▁󰋆󰟲󰟘󰋩",
        -9.055689590300933
      ],
      [
        "▁󰋆󰟲󰋩󰌠",
        -9.05581536799073
      ],
      [
        "▁󰋯󰟂",
        -9.05642327740441
      ],
      [
        "󰠬",
        -9.056476543760303
      ],
      [
        "▁󰟢󰌠",
        -9.056511588393022
      ],
      [
        "▁󰟢󰡛",
        -9.056748420780478
      ],
      [
        "󰤓",
        -9.05836434558568
      ],
      [
        "▁󰟱󰣐",
        -9.058579967625047
      ],
      [
        "▁󰟄󰡀󰟆",
        -9.059663201985353
      ],
      [
        "▁󰌩󰌬",
        -9.061939647974079
      ],
      [
        "▁󰋹󰞽󰟦󰋱",
        -9.06197658912525
      ],
      [
        "▁󰟅󰟆",
        -9.062818336985645
      ],
      [
        "▁󰋊󰠥󰌠󰋩",
        -9.063848919462203
      ],
      [
        "▁󰟃󰟶󰡨",
        -9.064850355445628
      ],
      [
        "▁󰞸󰋯",
        -9.066081943439364
      ],
      [
        "▁󰟑󰋳",
        -9.067114636758792
      ],
      [
        "▁󰋺󰋔󰟆󰌠",
        -9.067467950857631
      ],
      [
        "▁󰥙󰟦",
        -9.067634337196546
      ],
      [
        "󰠅",
        -9.067837972120461
      ],
      [
        "▁󰋱󰠓",
        -9.068187122577186
      ],
      [
        "▁󰟁󰟍󰞸",
        -9.070268197411016
      ],
      [
        "▁󰋫󰋱󰋭󰤀",
        -9.070643366231366
      ],
      [
        "▁󰋺󰋖",
        -9.07114910698142
      ],
      [
        "▁󰠌󰣨",
        -9.071579075329945
      ],
      [
        "▁󰋐󰞼󰠢󰋖",
        -9.07237152980293
      ],
      [
        "󰠭󰋥",
        -9.07275071340896
      ],
      [
        "▁󰡉󰞻",
        -9.07334845568887
      ],
      [
        "▁󰋘󰋡󰋩",
        -9.073834713063437
      ],
      [
        "▁󰋆󰋫󰋱",
        -9.073933417637603
      ],
      [
        "▁󰤷󰡑󰟴",
        -9.07396162044816
      ],
      [
        "▁󰤺󰟒󰋷",
        -9.074193775066139
      ],
      [
        "▁󰋝󰟗",
        -9.078229929487371
      ],
      [
        "▁󰤱󰋗",
        -9.078284878455296
      ],
      [
        "▁󰟃󰡋󰟃󰢏󰋳󰌠",
        -9.079895354229116
      ],
      [
        "▁󰋇󰟡",
        -9.081045534799426
      ],
      [
        "󰋯󰌠",
        -9.081524657583778
      ],
      [
        "▁󰟪",
        -9.081568269439462
      ],
      [
        "▁󰟕󰞿󰞾󰟉󰋩",
        -9.081882287226902
      ],
      [
        "▁󰡲󰋛",
        -9.081966196359852
      ],
      [
        "▁󰋇󰡑󰞿󰋖",
        -9.082603630612779
      ],
      [
        "▁󰋹󰦹󰣠",
        -9.083571181430326
      ],
      [
        "▁󰋥󰠊",
        -9.084229557211636
      ],
      [
        "▁󰋐󰟐󰟉",
        -9.084688614630888
      ],
      [
        "▁󰞹󰟜󰋱",
        -9.086222577526682
      ],
      [
        "󰋘󰋥",
        -9.086353634883764
      ],
      [
        "▁󰞿󰞸󰋫󰤒",
        -9.086366625086601
      ],
      [
        "▁󰟞󰞸󰋫",
        -9.087865315250784
      ],
      [
        "󰞽󰋩",
        -9.088411197954539
      ],
      [
        "▁󰞽󰞾󰋱",
        -9.089469430659769
      ],
      [
        "▁󰋖󰠸",
        -9.089890069211249
      ],
      [
        "▁󰟎󰠭󰋥",
        -9.092198283211285
      ],
      [
        "▁󰟘󰋩󰊴",
        -9.09361985056093
      ],
      [
        "󰟵󰟡󰋱",
        -9.093769335833713
      ],
      [
        "▁󰋊󰠓",
        -9.094901135353805
      ],
      [
        "▁󰡇󰥵",
        -9.094931144349632
      ],
      [
        "▁󰋥󰋧󰟷",
        -9.09621471974269
      ],
      [
        "▁󰋖󰟈󰞻󰋩󰊴",
        -9.096336088817653
      ],
      [
        "▁󰟏󰋥",
        -9.09686558241848
      ],
      [
        "▁󰞽󰋩",
        -9.097924286971988
      ],
      [
        "▁󰟶󰋘",
        -9.098313464707154
      ],
      [
        "▁󰌬󰌧",
        -9.09882399363482
      ],
      [
        "󰡛",
        -9.09907506824821
      ],
      [
        "▁󰟏󰋯󰟈󰋖",
        -9.099409319078362
      ],
      [
        "▁󰋫󰟄",
        -9.100001151183665
      ],
      [
        "▁󰋇󰠊",
        -9.10001176399766
      ],
      [
        "▁󰟑󰞾󰟉󰊴",
        -9.10059944036658
      ],
      [
        "▁󰋖󰋳󰞼󰟁",
        -9.101873652733701
      ],
      [
        "▁󰣎󰋩",
        -9.102094430983382
      ],
      [
        "▁󰟏󰋳",
        -9.103138805002605
      ],
      [
        "▁󰞿󰌠󰋯",
        -9.104417815641563
      ],
      [
        "▁󰋇󰋱󰢬",
        -9.106380157070632
      ],
      [
        "▁󰋆󰋥󰋐󰋭",
        -9.106502795985936
      ],
      [
        "▁󰠭󰣖",
        -9.107187528393357
      ],
      [
        "▁󰡘󰋘",
        -9.110024633871152
      ],
      [
        "▁󰋇󰋈",
        -9.111062502021108
      ],
      [
        "▁󰟢󰟖󰞾",
        -9.11167047385653
      ],
      [
        "▁󰟀󰟕󰞷",
        -9.112036776084082
      ],
      [
        "▁󰋩󰠵󰋱",
        -9.112081342239934
      ],
      [
        "▁󰋭󰟖",
        -9.11236315106565
      ],
      [
        "▁󰋝󰋩󰊴",
        -9.11253651309115
      ],
      [
        "▁󰟀󰟔",
        -9.112639831770036
      ],
      [
        "▁󰋗󰋱󰋛",
        -9.112799651619618
      ],
      [
        "󰟀󰠊",
        -9.113398658121815
      ],
      [
        "▁󰠍󰟁",
        -9.1135429174432
      ],
      [
        "▁󰟵󰟖",
        -9.114208450259255
      ],
      [
        "▁󰋔󰟄󰋱",
        -9.114259230668058
      ],
      [
        "▁󰋖󰟃󰟁",
        -9.115307218935099
      ],
      [
        "▁󰟵󰋤",
        -9.115836507832354
      ],
      [
        "▁󰠀󰟂",
        -9.116909181738736
      ],
      [
        "▁󰋇󰋠󰋖",
        -9.118193878179685
      ],
      [
        "▁󰋇󰤝󰋳󰋩",
        -9.118247171380611
      ],
      [
        "▁󰟃󰞸󰋠",
        -9.119173103967869
      ],
      [
        "▁󰠡󰋘",
        -9.119378334984136
      ],
      [
        "▁󰋭󰞻󰟉󰋩",
        -9.119704498722085
      ],
      [
        "▁󰡯󰋱",
        -9.119881972978595
      ],
      [
        "▁󰞼󰟡",
        -9.122559071621033
      ],
      [
        "▁󰞿󰦈󰠸",
        -9.12261000004918
      ],
      [
        "▁󰟸󰢶",
        -9.122625653353566
      ],
      [
        "▁󰋖󰟈󰊴",
        -9.122706923644772
      ],
      [
        "▁󰠴󰋫󰋖",
        -9.123281067249271
      ],
      [
        "▁󰋫󰞸󰋯󰡸",
        -9.123507333644502
      ],
      [
        "▁󰡫󰡝",
        -9.124259041864917
      ],
      [
        "▁󰟀󰡊",
        -9.124307488406004
      ],
      [
        "▁󰢼󰤃",
        -9.125678720625164
      ],
      [
        "▁󰠱󰨐",
        -9.126314353176225
      ],
      [
        "▁󰠷󰣙",
        -9.126520185956194
      ],
      [
        "▁󰋇󰌠",
        -9.126607499715957
      ],
      [
        "▁󰟼󰠘󰋱",
        -9.12725594009114
      ],
      [
        "▁󰋇󰢑󰌠",
        -9.128900825918869
      ],
      [
        "▁󰢁󰞺󰋠",
        -9.13031930056888
      ],
      [
        "▁󰋷󰋺󰞷",
        -9.130333861432858
      ],
      [
        "▁󰟃󰟃󰟥",
        -9.130487670660715
      ],
      [
        "▁󰋧󰞻",
        -9.13076232588192
      ],
      [
        "▁󰋭󰋳󰞻󰋩",
        -9.130828445059707
      ],
      [
        "󰧯",
        -9.131785485156355
      ],
      [
        "󰀎󰀎󰀎",
        -9.131800172584933
      ],
      [
        "▁󰋫󰢪󰋯",
        -9.132775445473404
      ],
      [
        "▁󰋛󰥈󰡕󰋯",
        -9.132947598106636
      ],
      [
        "▁󰞺󰋩󰀟",
        -9.133458070276387
      ],
      [
        "▁󰠴󰡵",
        -9.134435119572206
      ],
      [
        "󰠛",
        -9.13446470414125
      ],
      [
        "▁󰟍󰟈󰞾",
        -9.135016800922385
      ],
      [
        "▁󰋫󰢝󰞾",
        -9.135095849049856
      ],
      [
        "▁󰞻󰋗󰋖",
        -9.13534037813649
      ],
      [
        "󰠻",
        -9.136021712477616
      ],
      [
        "▁󰋰",
        -9.13680301280874
      ],
      [
        "▁󰋇󰟏󰋱",
        -9.137402882259993
      ],
      [
        "▁󰞿󰣓󰋤",
        -9.138512571059765
      ],
      [
        "▁󰢇󰟘",
        -9.139514058400213
      ],
      [
        "▁󰢥󰌠",
        -9.139906201469334
      ],
      [
        "▁󰟎󰟊󰤤󰋥",
        -9.140534140232969
      ],
      [
        "▁󰋆󰣰󰋩",
        -9.14053783669563
      ],
      [
        "▁󰋆󰟯󰋯󰟊",
        -9.140593190422237
      ],
      [
        "󰞺󰋈",
        -9.141227261004776
      ],
      [
        "▁󰠌󰡽",
        -9.14275034440144
      ],
      [
        "▁󰟄",
        -9.143430641567015
      ],
      [
        "▁󰟤󰞼󰋱",
        -9.143973950685748
      ],
      [
        "▁󰠰󰋳",
        -9.14405504955786
      ],
      [
        "▁󰋭󰞻󰋈",
        -9.144130099792754
      ],
      [
        "▁󰟑󰞻󰋩",
        -9.144179973855326
      ],
      [
        "󰡍",
        -9.144637234825096
      ],
      [
        "▁󰋫󰟽",
        -9.144755191578747
      ],
      [
        "▁󰡳󰋖",
        -9.144915288362984
      ],
      [
        "▁󰋫󰠕󰊴",
        -9.145191873208717
      ],
      [
        "▁󰟘󰟄󰋱",
        -9.146558519971613
      ],
      [
        "▁󰟃󰞽󰋩",
        -9.146689294860263
      ],
      [
        "▁󰋹󰢱󰋩",
        -9.14820677743033
      ],
      [
        "▁󰠈󰋫󰋩",
        -9.148436933561854
      ],
      [
        "▁󰋹󰟓󰌠",
        -9.14854611933405
      ],
      [
        "▁󰋭󰋜󰞷",
        -9.149048745356696
      ],
      [
        "▁󰋷󰋺󰋱",
        -9.1492132544769
      ],
      [
        "▁󰋇󰡎󰋯󰋤",
        -9.149377053500011
      ],
      [
        "▁󰠺󰣬",
        -9.149712543872313
      ],
      [
        "▁󰞸󰟞󰋱",
        -9.15080083434378
      ],
      [
        "▁󰟕󰟊󰋱",
        -9.15113175978264
      ],
      [
        "󰡗",
        -9.151411074598688
      ],
      [
        "▁󰟾󰟊",
        -9.152945991393713
      ],
      [
        "▁󰠀󰞾",
        -9.154649327808794
      ],
      [
        "󰞼󰋳",
        -9.155473146091955
      ],
      [
        "▁󰟇󰟋",
        -9.15569820951682
      ],
      [
        "▁󰋫󰟈󰠃󰋥",
        -9.156132649701199
      ],
      [
        "▁󰟌󰋱󰟇",
        -9.159522708166135
      ],
      [
        "▁󰋧󰡸󰋩",
        -9.159882477011577
      ],
      [
        "▁󰋐󰋳",
        -9.159969813073392
      ],
      [
        "▁󰞺󰠂",
        -9.162238695749245
      ],
      [
        "▁󰟔󰞹",
        -9.163436623215414
      ],
      [
        "▁󰋇󰟋󰟝",
        -9.164111772144937
      ],
      [
        "▁󰋮",
        -9.164567619731177
      ],
      [
        "▁󰟃󰟦󰠍",
        -9.164936417118879
      ],
      [
        "▁󰟵󰟫",
        -9.165918619295194
      ],
      [
        "▁󰋺󰟀󰋱",
        -9.16675650331127
      ],
      [
        "▁󰋖󰋱󰋳",
        -9.169019309366538
      ],
      [
        "󰠵",
        -9.17017316902043
      ],
      [
        "▁󰋇󰟐󰊴",
        -9.170246633809313
      ],
      [
        "▁󰣇󰋬󰟁󰋱",
        -9.170372812153541
      ],
      [
        "▁󰠃󰠿",
        -9.170835474238219
      ],
      [
        "▁󰟞󰣊",
        -9.171515298043854
      ],
      [
        "▁󰟧",
        -9.171731707956434
      ],
      [
        "▁󰟎󰟊󰡻󰋩",
        -9.171806784009416
      ],
      [
        "▁󰞽󰋩󰋭",
        -9.172161936983855
      ],
      [
        "󰡞",
        -9.172750585020164
      ],
      [
        "▁󰋭󰢿",
        -9.172920342255775
      ],
      [
        "󰠷",
        -9.17292757383329
      ],
      [
        "▁󰋖󰟛󰌠",
        -9.173017604930152
      ],
      [
        "▁󰠇󰟊",
        -9.173211854247814
      ],
      [
        "▁󰟃󰟱󰋳",
        -9.173601151122723
      ],
      [
        "▁󰋺󰋰󰋱󰋥",
        -9.173809410345486
      ],
      [
        "▁󰋇󰟵󰋩",
        -9.17407791332448
      ],
      [
        "▁󰋇󰡙󰋝󰋩",
        -9.17618774871122
      ],
      [
        "▁󰟓",
        -9.176356116645113
      ],
      [
        "▁󰟕󰟊",
        -9.177205998505642
      ],
      [
        "▁󰠁󰋜󰟅",
        -9.180207852953322
      ],
      [
        "▁󰟱",
        -9.181053856158307
      ],
      [
        "▁󰋊󰤨󰦩",
        -9.182564295622589
      ],
      [
        "▁󰋇󰟉󰋩",
        -9.18260143035725
      ],
      [
        "▁󰢆󰋳",
        -9.183127399263784
      ],
      [
        "▁󰋭󰌏󰋹󰋱",
        -9.184227623762292
      ],
      [
        "▁󰋹󰟍󰌠󰟁",
        -9.184279713854904
      ],
      [
        "▁󰋫󰟈󰟢󰋳󰞹",
        -9.184555132529992
      ],
      [
        "▁󰋘󰟇󰋸󰠶",
        -9.184716389332225
      ],
      [
        "▁󰟎󰣪󰋖",
        -9.185355614613037
      ],
      [
        "▁󰟐󰟒",
        -9.185498330086226
      ],
      [
        "▁󰋔󰞸",
        -9.185768111995854
      ],
      [
        "▁󰨰",
        -9.185878678175754
      ],
      [
        "󰡆",
        -9.186600301520084
      ],
      [
        "▁󰟎󰡹󰋱",
        -9.188692151863743
      ],
      [
        "󰟦󰋱",
        -9.189271388440089
      ],
      [
        "▁󰋧󰋱󰟕",
        -9.190497002648739
      ],
      [
        "▁󰟏󰠖󰋭",
        -9.19057753847257
      ],
      [
        "▁󰋔󰟆",
        -9.190981723430678
      ],
      [
        "▁󰟁󰟔󰞾",
        -9.192433482086862
      ],
      [
        "▁󰋛󰋳󰦫󰠋",
        -9.193184672392553
      ],
      [
        "󰋹󰠺󰋺",
        -9.194366089507728
      ],
      [
        "▁󰟬󰠓",
        -9.194386243905178
      ],
      [
        "▁󰋹󰋯",
        -9.195025224416794
      ],
      [
        "▁󰢕󰋱",
        -9.195216693471439
      ],
      [
        "▁󰋐󰠹󰋫",
        -9.19604279224207
      ],
      [
        "▁󰟃󰟀󰋺",
        -9.196763602810758
      ],
      [
        "▁󰀟󰀂",
        -9.201217494590063
      ],
      [
        "▁󰋖󰋗󰋩",
        -9.203036751227932
      ],
      [
        "▁󰠨󰥎",
        -9.203879374334283
      ],
      [
        "▁󰋭󰟖󰞻󰋩󰀌",
        -9.20434089899055
      ],
      [
        "▁󰟍󰟏󰋩",
        -9.204564312009989
      ],
      [
        "▁󰥀󰟉",
        -9.205810282153818
      ],
      [
        "▁󰥄󰣇󰋹",
        -9.206028062395754
      ],
      [
        "▁󰋆󰟭󰟑󰞺",
        -9.206359924502515
      ],
      [
        "▁󰋜󰌠",
        -9.206541146341701
      ],
      [
        "▁󰡞󰟓󰟇",
        -9.206924112267235
      ],
      [
        "▁󰠏󰞽󰋱",
        -9.207457362570997
      ],
      [
        "▁󰋇󰋫󰋩",
        -9.20914611650249
      ],
      [
        "▁󰠆",
        -9.209926158988502
      ],
      [
        "▁󰟮",
        -9.209937216338588
      ],
      [
        "▁󰡤󰋩",
        -9.210721020112713
      ],
      [
        "▁󰡭󰋥",
        -9.211035924521275
      ],
      [
        "󰋨",
        -9.211227364205829
      ],
      [
        "󰠃",
        -9.21213396913561
      ],
      [
        "▁󰟃󰡌󰋩",
        -9.212371133800325
      ],
      [
        "▁󰋹󰋖󰞻󰋈",
        -9.212634376428873
      ],
      [
        "▁󰋆󰤴",
        -9.214000593340124
      ],
      [
        "▁󰋹󰋯󰠮󰋩",
        -9.214026021171371
      ],
      [
        "▁󰋆󰟯",
        -9.214613878871239
      ],
      [
        "▁󰋆󰟷󰋥",
        -9.214811999549399
      ],
      [
        "▁󰟀󰋧",
        -9.215435547623084
      ],
      [
        "󰟵",
        -9.215932473929678
      ],
      [
        "▁󰟦󰞹󰞷󰋳",
        -9.216700046344554
      ],
      [
        "▁󰟌󰟔󰡖󰟅󰋱",
        -9.217457092167047
      ],
      [
        "▁󰢢󰠀󰋱",
        -9.219052288492154
      ],
      [
        "▁󰟰󰋱󰋤",
        -9.220372421369921
      ],
      [
        "▁󰠅󰋳󰞹󰌠",
        -9.220454775284358
      ],
      [
        "▁󰟍󰋯󰟋",
        -9.220816236533247
      ],
      [
        "▁󰋨󰋱󰠐󰋱",
        -9.222008094516678
      ],
      [
        "▁󰋝󰞽",
        -9.222525452415764
      ],
      [
        "▁󰋩󰠸",
        -9.223911286222618
      ],
      [
        "▁󰥷󰋥󰋩",
        -9.225128501677919
      ],
      [
        "▁󰟃󰋐󰋩󰠍",
        -9.225194915203087
      ],
      [
        "▁󰋖󰋱󰟉󰋩󰊴",
        -9.225809152102437
      ],
      [
        "▁󰋫󰟃󰠋",
        -9.22581548868899
      ],
      [
        "▁󰟃󰋐󰋩󰠍󰋱",
        -9.226613766447821
      ],
      [
        "▁󰋹󰟓",
        -9.228234008724076
      ],
      [
        "󰋈󰟆",
        -9.228711669266769
      ],
      [
        "󰟝󰋱",
        -9.229160986041414
      ],
      [
        "▁󰠑󰟍󰞸",
        -9.229597351310854
      ],
      [
        "▁󰀊",
        -9.23121961528887
      ],
      [
        "▁󰋫󰟈󰟇󰋷",
        -9.232078781421912
      ],
      [
        "󰟇󰋱",
        -9.23222112679342
      ],
      [
        "▁󰟗󰧬",
        -9.232732185224432
      ],
      [
        "▁󰟍󰟥",
        -9.233256196287973
      ],
      [
        "▁󰟼󰋭󰟏",
        -9.234350053190242
      ],
      [
        "▁󰞸󰤋",
        -9.234863777414823
      ],
      [
        "▁󰠃󰠋",
        -9.235776071393772
      ],
      [
        "▁󰋖󰟜",
        -9.237819184468576
      ],
      [
        "󰀂󰊴",
        -9.238372338972006
      ],
      [
        "▁󰟌󰟔󰡖󰋩",
        -9.238547225142597
      ],
      [
        "▁󰟌󰋡",
        -9.238577376904328
      ],
      [
        "▁󰋖󰥇󰋖",
        -9.239336411536971
      ],
      [
        "▁󰟢󰋫",
        -9.239542945039618
      ],
      [
        "▁󰟛󰋖󰟇󰊴",
        -9.241499745116164
      ],
      [
        "▁󰟛󰞼󰌠",
        -9.241746630781666
      ],
      [
        "▁󰋐󰋹",
        -9.242840590189967
      ],
      [
        "▁󰟌󰡠󰠄",
        -9.243227762113392
      ],
      [
        "󰢶",
        -9.243299189873417
      ],
      [
        "󰁅",
        -9.243321952357705
      ],
      [
        "▁󰞸󰡖",
        -9.244598204361033
      ],
      [
        "▁󰟼󰠘󰋘󰋥",
        -9.24518729751054
      ],
      [
        "▁󰋫󰋱󰋯",
        -9.245465153200417
      ],
      [
        "▁󰟻󰞾",
        -9.245912434366645
      ],
      [
        "▁󰋇󰟄󰋷",
        -9.246037133162707
      ],
      [
        "▁󰋇󰢡󰋥",
        -9.24632567997545
      ],
      [
        "▁󰟟󰋹󰋭",
        -9.247776143404717
      ],
      [
        "▁󰋆󰢄󰞻",
        -9.248783982971696
      ],
      [
        "▁󰟘󰋈",
        -9.249515985929754
      ],
      [
        "▁󰟛󰞺󰋩󰊴",
        -9.249929784304467
      ],
      [
        "▁󰢃󰋤󰠺󰋳",
        -9.251089327897185
      ],
      [
        "▁󰟌󰋔󰟆󰋱",
        -9.252860330592188
      ],
      [
        "󰀇󰀌",
        -9.253967283835285
      ],
      [
        "▁󰡧󰞹",
        -9.255912737845195
      ],
      [
        "▁󰋙󰠂",
        -9.256299769162846
      ],
      [
        "▁󰋇󰣋",
        -9.257456386086213
      ],
      [
        "▁󰋺󰞻󰋩",
        -9.257890162632828
      ],
      [
        "󰟺",
        -9.258405392113547
      ],
      [
        "▁󰋊󰌏󰟌󰋧󰋩",
        -9.259122774503915
      ],
      [
        "󰡙",
        -9.259267962765206
      ],
      [
        "▁󰟑",
        -9.259711591151419
      ],
      [
        "▁󰋖󰡡",
        -9.259716282282671
      ],
      [
        "▁󰠣󰟐󰡚󰋱",
        -9.260314196980545
      ],
      [
        "▁󰣿󰟀󰟑󰋖",
        -9.26041895716267
      ],
      [
        "▁󰋭󰋩",
        -9.26176919242859
      ],
      [
        "▁󰋭󰟖󰟂",
        -9.262435090443622
      ],
      [
        "▁󰋇󰋧󰡸",
        -9.263340146991728
      ],
      [
        "▁󰟛󰋖󰞻󰋔",
        -9.26353446514083
      ],
      [
        "▁󰠺󰋳󰋥",
        -9.263647379050669
      ],
      [
        "▁󰟱󰋺",
        -9.264280294475423
      ],
      [
        "▁󰟀󰟪󰟾",
        -9.2643613404072
      ],
      [
        "▁󰋹󰠿󰋖",
        -9.26488961827224
      ],
      [
        "▁󰞽󰋜",
        -9.265170953185725
      ],
      [
        "▁󰋙󰠂󰊴",
        -9.266577245820802
      ],
      [
        "▁󰟌󰋈",
        -9.266991223940362
      ],
      [
        "▁󰋫󰋜󰠼",
        -9.267151187950613
      ],
      [
        "▁󰋇󰟝󰋳󰟂",
        -9.267244173405118
      ],
      [
        "󰟸",
        -9.27014678830895
      ],
      [
        "▁󰠰󰟙",
        -9.271609120905595
      ],
      [
        "▁󰟛󰞹󰌠",
        -9.271722212878606
      ],
      [
        "󰁅󰁄",
        -9.272064992110861
      ],
      [
        "▁󰟀󰠊",
        -9.272082985668108
      ],
      [
        "▁󰟕󰟅",
        -9.272674454855403
      ],
      [
        "▁󰋘󰟊",
        -9.274482705909415
      ],
      [
        "▁󰋆󰟓󰋭",
        -9.275391944761445
      ],
      [
        "▁󰥡󰋖",
        -9.275503703726802
      ],
      [
        "▁󰋆󰠧󰟏󰋱",
        -9.275611278576918
      ],
      [
        "▁󰋫󰟈󰥢󰋱",
        -9.276140923277373
      ],
      [
        "▁󰟄󰟆󰋱",
        -9.276424168595131
      ],
      [
        "▁󰋈󰟊",
        -9.276939056189049
      ],
      [
        "▁󰟎󰟊󰟑󰋩",
        -9.278499422268117
      ],
      [
        "▁󰠚󰠓󰞸󰥶󰋱",
        -9.278546736451657
      ],
      [
        "▁󰢯󰞼󰋱",
        -9.278746312965007
      ],
      [
        "▁󰡎󰟜",
        -9.279012039524586
      ],
      [
        "▁󰋝󰋩󰢥󰌠",
        -9.279722379420978
      ],
      [
        "▁󰋆󰠮󰣄󰟊󰋖",
        -9.280373147525001
      ],
      [
        "󰠺󰋳󰋖",
        -9.280512956862317
      ],
      [
        "󰟑󰋩",
        -9.281728410944401
      ],
      [
        "▁󰋖󰟫󰋩",
        -9.283373239326675
      ],
      [
        "▁󰋖󰟃󰋱",
        -9.284943828029261
      ],
      [
        "▁󰞼󰟶",
        -9.284979310654887
      ],
      [
        "󰠰",
        -9.285196855673142
      ],
      [
        "▁󰟀󰤸󰟖",
        -9.286233654365184
      ],
      [
        "▁󰣏󰟋",
        -9.28667933818779
      ],
      [
        "▁󰡤󰟋󰋈",
        -9.286686056644303
      ],
      [
        "▁󰟬󰋹󰋳󰞽󰋩",
        -9.287360553622884
      ],
      [
        "▁󰟛󰞺󰋩",
        -9.288013864205682
      ],
      [
        "▁󰞿󰌠󰢌󰋤",
        -9.289166330353234
      ],
      [
        "▁󰟳󰋹󰋧",
        -9.289210167265468
      ],
      [
        "▁󰟵󰟫󰡓",
        -9.290016787816715
      ],
      [
        "▁󰟟󰠖󰠅",
        -9.292398712537643
      ],
      [
        "▁󰟺󰢓",
        -9.293594037901522
      ],
      [
        "▁󰡇󰋥󰞷",
        -9.29494275792342
      ],
      [
        "▁󰋇󰧞󰋖",
        -9.2954854001762
      ],
      [
        "▁󰟃󰟤󰠸",
        -9.297049197061588
      ],
      [
        "▁󰟎󰟊󰡻",
        -9.297228968282768
      ],
      [
        "▁󰠴󰟌󰋱",
        -9.297612317733487
      ],
      [
        "󰟽",
        -9.297782366041982
      ],
      [
        "▁󰋙󰥽",
        -9.297914853558495
      ],
      [
        "▁󰋊󰋮󰌠",
        -9.297995767297033
      ],
      [
        "▁󰋛󰡶",
        -9.29817346563396
      ],
      [
        "▁󰤟󰢭",
        -9.299109403331775
      ],
      [
        "󰡅",
        -9.299405447759483
      ],
      [
        "▁󰋇󰋫󰞹󰟄󰋱",
        -9.300563709673371
      ],
      [
        "▁󰋐󰟅",
        -9.300858881121199
      ],
      [
        "▁󰟲󰋥󰋱",
        -9.30158301137413
      ],
      [
        "󰠖",
        -9.3016976149329
      ],
      [
        "▁󰋐󰞼",
        -9.305230258300014
      ],
      [
        "󰠦",
        -9.305634634147047
      ],
      [
        "▁󰟎󰡙󰋘",
        -9.305856967674693
      ],
      [
        "▁󰠑󰟍󰟄󰋱",
        -9.30612359743159
      ],
      [
        "▁󰟢󰋩",
        -9.306738257738944
      ],
      [
        "󰟀󰋧",
        -9.306814424447124
      ],
      [
        "▁󰟮󰟖󰋷󰊴",
        -9.30758290775327
      ],
      [
        "▁󰋖󰟗󰟒",
        -9.307942377969498
      ],
      [
        "▁󰋖󰞷󰟚󰋳",
        -9.309037633329089
      ],
      [
        "▁󰠧",
        -9.309907796077983
      ],
      [
        "󰟢",
        -9.311844587396843
      ],
      [
        "▁󰋺󰞾󰟉󰋩󰊴",
        -9.311967448575436
      ],
      [
        "▁󰋺󰠤󰀌",
        -9.311996770775169
      ],
      [
        "▁󰟞󰋔󰟆",
        -9.312138603642962
      ],
      [
        "󰀟󰀇",
        -9.313213548630914
      ],
      [
        "▁󰋖󰡒",
        -9.313705570974898
      ],
      [
        "󰟞",
        -9.316931896127148
      ],
      [
        "▁󰟀󰟪󰟾󰋱",
        -9.317939728453668
      ],
      [
        "▁󰡹󰠘",
        -9.31847513331924
      ],
      [
        "▁󰋝󰟀󰋭",
        -9.31937728811632
      ],
      [
        "▁󰠔󰢼",
        -9.320676330687302
      ],
      [
        "▁󰞿󰌠󰟗󰋥",
        -9.321133849265303
      ],
      [
        "▁󰋺󰋳󰊴",
        -9.321277793605164
      ],
      [
        "▁󰞽󰋩󰟥󰋖",
        -9.321409940001248
      ],
      [
        "▁󰠽󰡨󰋩",
        -9.322157224250097
      ],
      [
        "▁󰟃󰡵󰋥",
        -9.323392009034809
      ],
      [
        "▁󰋈󰋹󰟋󰟜󰋱",
        -9.323536997214847
      ],
      [
        "▁󰋐󰞸",
        -9.325626733337094
      ],
      [
        "▁󰡇󰟇",
        -9.325974317220227
      ],
      [
        "▁󰋭󰋧󰞻",
        -9.326361119634027
      ],
      [
        "▁󰞿󰡷󰡬",
        -9.327407458990049
      ],
      [
        "▁󰋖󰞾󰋖󰋝󰋩",
        -9.327769686832838
      ],
      [
        "▁󰣻󰋧󰌠",
        -9.328364977785432
      ],
      [
        "▁󰋔󰡪",
        -9.328385674168834
      ],
      [
        "󰟆󰋱",
        -9.329051131613944
      ],
      [
        "▁󰠪󰦕",
        -9.3291912944906
      ],
      [
        "󰠸",
        -9.32933288956683
      ],
      [
        "▁󰋹󰞸󰋹󰟈",
        -9.329484732313151
      ],
      [
        "▁󰟘󰢽",
        -9.329649369346944
      ],
      [
        "▁󰟥󰟒",
        -9.330933436185202
      ],
      [
        "▁󰋫󰡏󰟊",
        -9.33196867478379
      ],
      [
        "▁󰋊󰟍",
        -9.332375898167214
      ],
      [
        "󰢘",
        -9.332378427626011
      ],
      [
        "▁󰋹󰋯󰠪",
        -9.332669356568227
      ],
      [
        "󰠓",
        -9.334749289590498
      ],
      [
        "▁󰋇󰦻󰋳",
        -9.33554784440688
      ],
      [
        "󰠚󰠓",
        -9.335609460254366
      ],
      [
        "▁󰞸󰡖󰌠",
        -9.336371738895217
      ],
      [
        "▁󰠬󰋱",
        -9.3364196026107
      ],
      [
        "▁󰋐󰢥󰋳",
        -9.33679402898021
      ],
      [
        "▁󰋇󰧴󰋩",
        -9.336851215949219
      ],
      [
        "▁󰋫󰞷󰋱",
        -9.33699655348749
      ],
      [
        "▁󰠦󰋭",
        -9.337012406379772
      ],
      [
        "▁󰋛󰋳󰟉",
        -9.337342477942162
      ],
      [
        "▁󰞿󰟦󰋈",
        -9.337808836701196
      ],
      [
        "▁󰟛󰞹",
        -9.338846692985916
      ],
      [
        "▁󰋐󰋖󰟛",
        -9.33907960891568
      ],
      [
        "▁󰟎󰋹󰠟",
        -9.339694698103852
      ],
      [
        "▁󰠚󰢍",
        -9.34061226824816
      ],
      [
        "▁󰋹󰡜󰠥",
        -9.340818523285561
      ],
      [
        "▁󰋹󰞽󰋩",
        -9.340822915646154
      ],
      [
        "▁󰞼󰋊󰞺",
        -9.341180171254116
      ],
      [
        "󰋔󰟆",
        -9.341312428421263
      ],
      [
        "▁󰋐󰟓󰟇",
        -9.342286504527525
      ],
      [
        "▁󰋐󰋱󰋖󰋯",
        -9.34275186934736
      ],
      [
        "▁󰋰󰟛",
        -9.34341688898198
      ],
      [
        "▁󰋆󰟯󰟶󰋨",
        -9.34470673266793
      ],
      [
        "▁󰟢󰋖󰟈",
        -9.345725645494648
      ],
      [
        "▁󰡐󰋖",
        -9.346075418809185
      ],
      [
        "▁󰟑󰞾󰟉󰋩󰊴",
        -9.346165992577491
      ],
      [
        "▁󰟄󰟇",
        -9.346962789256258
      ],
      [
        "▁󰋆󰋬",
        -9.347421604554393
      ],
      [
        "▁󰋹󰌝󰋖",
        -9.34810033471781
      ],
      [
        "󰟎",
        -9.348149670356436
      ],
      [
        "▁󰌩󰌨",
        -9.348918777620867
      ],
      [
        "▁󰠲󰋱",
        -9.34974359608185
      ],
      [
        "▁󰟚󰟡",
        -9.350270592841712
      ],
      [
        "󰁄",
        -9.350666595624885
      ],
      [
        "▁󰟙󰞼󰊴",
        -9.351026766011802
      ],
      [
        "▁󰠊󰤁",
        -9.351078386232802
      ],
      [
        "▁󰟺󰋗",
        -9.351272636119091
      ],
      [
        "▁󰞼󰋱",
        -9.352409975160898
      ],
      [
        "▁󰟼󰋭󰣻󰋥",
        -9.353412638155081
      ],
      [
        "▁󰋇󰋳󰋯",
        -9.353868100870029
      ],
      [
        "▁󰠁",
        -9.35399818010495
      ],
      [
        "▁󰌩󰌩",
        -9.354127932696072
      ],
      [
        "󰟠󰋱",
        -9.354225344080216
      ],
      [
        "▁󰠨󰟕",
        -9.354740365806984
      ],
      [
        "▁󰟬󰠀󰋱",
        -9.355157039179593
      ],
      [
        "▁󰡐󰤔󰋱",
        -9.355991634593943
      ],
      [
        "󰟒󰞺",
        -9.35766879019067
      ],
      [
        "󰠔",
        -9.357939241847625
      ],
      [
        "▁󰋊󰠥󰋥",
        -9.35881407584938
      ],
      [
        "▁󰟐󰞸",
        -9.359370482239072
      ],
      [
        "▁󰋇󰞼󰋷",
        -9.35939079176072
      ],
      [
        "▁󰞿󰡷󰠃󰋥",
        -9.361705764850015
      ],
      [
        "󰊴󰀼󰁎",
        -9.361746207639026
      ],
      [
        "󰤶",
        -9.361749412717549
      ],
      [
        "▁󰟗󰞻",
        -9.36178800091821
      ],
      [
        "▁󰟝",
        -9.362052830131914
      ],
      [
        "▁󰁉󰁓",
        -9.362321567664393
      ],
      [
        "▁󰟏󰟝",
        -9.362591708995582
      ],
      [
        "󰁙",
        -9.362927520958987
      ],
      [
        "▁󰞹󰀟",
        -9.364409006429605
      ],
      [
        "▁󰋷󰟴󰞷",
        -9.36465021442482
      ],
      [
        "▁󰟃󰞾󰋱",
        -9.366268019527196
      ],
      [
        "▁󰟲󰢔󰟂",
        -9.366759198835384
      ],
      [
        "▁󰟎󰡙󰋝󰟾󰌠",
        -9.367007641108385
      ],
      [
        "▁󰟒󰞼",
        -9.36723699449365
      ],
      [
        "▁󰋆󰟯󰋮󰋭",
        -9.367373037699062
      ],
      [
        "▁󰞿󰡙󰋘",
        -9.367383097935203
      ],
      [
        "▁󰟅󰢃󰤌",
        -9.368766764579352
      ],
      [
        "▁󰟰󰞸",
        -9.369199707511218
      ],
      [
        "▁󰞽󰟖󰋖",
        -9.369266786188671
      ],
      [
        "▁󰞽󰋯󰟋󰋱",
        -9.370598944559443
      ],
      [
        "▁󰢲󰋸",
        -9.371727965756177
      ],
      [
        "▁󰟗󰀎",
        -9.371763645932363
      ],
      [
        "󰞻󰋩",
        -9.372453513994706
      ],
      [
        "▁󰟔󰟓󰟇",
        -9.37476586986972
      ],
      [
        "▁󰌨󰌰",
        -9.375975352930174
      ],
      [
        "▁󰠆󰞿󰋹",
        -9.377943084219714
      ],
      [
        "▁󰋐󰟐󰟉󰊴",
        -9.378280875958618
      ],
      [
        "󰢞",
        -9.378316307086358
      ],
      [
        "▁󰟃󰋫󰠯",
        -9.378602930271434
      ],
      [
        "▁󰟕󰟯󰟆󰟈",
        -9.379800715489354
      ],
      [
        "▁󰟃󰟓󰋘",
        -9.381785195306591
      ],
      [
        "▁󰋇󰋺󰋯󰋧",
        -9.381940389787069
      ],
      [
        "▁󰋫󰤮",
        -9.381953700981688
      ],
      [
        "▁󰞿󰠎",
        -9.38478517122744
      ],
      [
        "▁󰟼󰌠",
        -9.385382162129558
      ],
      [
        "▁󰋇󰋺󰟜󰋧",
        -9.385488559654073
      ],
      [
        "󰟄󰋭",
        -9.388095823587047
      ],
      [
        "▁󰟱󰣡",
        -9.389272903012005
      ],
      [
        "▁󰋊󰤹󰋩",
        -9.390091367419345
      ],
      [
        "▁󰋭󰞻󰀌",
        -9.390500010612074
      ],
      [
        "▁󰟦󰟋󰌠",
        -9.3907485182578
      ],
      [
        "▁󰋐󰟑󰋩",
        -9.390952928801212
      ],
      [
        "▁󰋮󰠘",
        -9.392263717192952
      ],
      [
        "▁󰟘󰋈󰟂",
        -9.393340723386732
      ],
      [
        "▁󰋳󰟽󰋈",
        -9.394178656631027
      ],
      [
        "▁󰋩󰋭",
        -9.39465624308222
      ],
      [
        "▁󰋯󰋯󰟁",
        -9.395203208412976
      ],
      [
        "▁󰠰󰋫󰋩",
        -9.395342456626228
      ],
      [
        "󰠇",
        -9.395853000724664
      ],
      [
        "▁󰟺󰟌󰋱",
        -9.396101929195178
      ],
      [
        "▁󰋜󰟃󰋱",
        -9.39611509345974
      ],
      [
        "▁󰢉󰞻",
        -9.396784399930896
      ],
      [
        "▁󰋖󰞷󰟚󰋳󰊴",
        -9.39731601165649
      ],
      [
        "▁󰋆󰟯󰡻󰋩",
        -9.39859131891403
      ],
      [
        "▁󰋆󰠧󰋹",
        -9.398899807371558
      ],
      [
        "▁󰟠󰟆󰋱",
        -9.400897961073097
      ],
      [
        "▁󰋊󰋡󰟂",
        -9.401986184126072
      ],
      [
        "▁󰋫󰟈󰋸󰟄󰋱",
        -9.40260602878216
      ],
      [
        "▁󰋱󰋹",
        -9.402751201404397
      ],
      [
        "▁󰟎󰨥󰋱",
        -9.402973223378588
      ],
      [
        "▁󰟾󰋳",
        -9.403791535506675
      ],
      [
        "▁󰟱󰋹󰋩",
        -9.403871290114928
      ],
      [
        "▁󰠳󰟋󰌠",
        -9.404149211205032
      ],
      [
        "󰞸󰋝",
        -9.404721598226098
      ],
      [
        "▁󰟎󰟊󰞿󰠢",
        -9.405766255855204
      ],
      [
        "▁󰋨󰣩󰌠",
        -9.40780517764112
      ],
      [
        "▁󰋹󰋬󰋳",
        -9.408244315072553
      ],
      [
        "▁󰟎󰠭󰟊",
        -9.409913907784972
      ],
      [
        "▁󰧉󰟊",
        -9.410242805599161
      ],
      [
        "▁󰟔󰀟",
        -9.410257204757132
      ],
      [
        "▁󰡃󰡩",
        -9.411093553201976
      ],
      [
        "▁󰤖󰟑",
        -9.411572492960493
      ],
      [
        "▁󰠛󰟀󰋈󰋳",
        -9.411812228449712
      ],
      [
        "▁󰟀󰟀󰋱",
        -9.413397725074255
      ],
      [
        "󰢀",
        -9.413638410256214
      ],
      [
        "▁󰋉󰡋󰋱",
        -9.413661451473342
      ],
      [
        "▁󰋆󰠢󰧍󰋷",
        -9.413730822084784
      ],
      [
        "▁󰠚󰢍󰋱",
        -9.414404279019527
      ],
      [
        "▁󰡺󰋘",
        -9.414502710807664
      ],
      [
        "▁󰋖󰋱󰟀󰋱",
        -9.415002245951081
      ],
      [
        "▁󰟁󰟄󰋱󰞺",
        -9.41556796670562
      ],
      [
        "▁󰧀󰠎",
        -9.415893802675102
      ],
      [
        "▁󰋹󰡟",
        -9.416442974610511
      ],
      [
        "▁󰞸󰋝󰟰󰟾",
        -9.416518106561568
      ],
      [
        "▁󰋭󰡆󰋭󰣚",
        -9.416763847641182
      ],
      [
        "▁󰟵",
        -9.417501364057738
      ],
      [
        "▁󰋫󰠋",
        -9.417728672605516
      ],
      [
        "▁󰋆󰟊󰢅",
        -9.417867272125052
      ],
      [
        "▁󰟮󰋩󰞸󰌠",
        -9.417917282632493
      ],
      [
        "▁󰠚󰠘",
        -9.419695112006401
      ],
      [
        "󰠊",
        -9.420988093284247
      ],
      [
        "▁󰌫󰌧",
        -9.42163033128377
      ],
      [
        "▁󰤏󰣲",
        -9.421902524048843
      ],
      [
        "▁󰋆󰟲󰣤󰟁",
        -9.422147369499179
      ],
      [
        "▁󰞼󰠫󰡎󰋯",
        -9.42292688705594
      ],
      [
        "▁󰋝󰟭󰋈",
        -9.423016581079466
      ],
      [
        "▁󰡫󰠋",
        -9.425766809819201
      ],
      [
        "▁󰟘󰟀󰋱",
        -9.42589202721013
      ],
      [
        "▁󰋛󰋳󰟂",
        -9.426153661938931
      ],
      [
        "▁󰋭󰟖󰋳󰀌",
        -9.428346753941245
      ],
      [
        "▁󰋥󰥳",
        -9.428824347490213
      ],
      [
        "▁󰋐󰠞󰟽󰋔",
        -9.42893103871444
      ],
      [
        "▁󰟅󰋔󰟆󰋱",
        -9.429192745284935
      ],
      [
        "▁󰟎󰋭󰋳",
        -9.429451848509462
      ],
      [
        "▁󰋮󰞾",
        -9.429888325704136
      ],
      [
        "▁󰋛󰋳󰟊",
        -9.43123421794136
      ],
      [
        "󰟵󰟖󰟂",
        -9.431250591997761
      ],
      [
        "▁󰋫󰋧󰠯󰋫",
        -9.431558363390216
      ],
      [
        "▁󰞼󰞻",
        -9.43167633255802
      ],
      [
        "󰟉󰊴",
        -9.43179753130603
      ],
      [
        "▁󰋖󰟇",
        -9.4321480792617
      ],
      [
        "▁󰟖󰡀󰋥",
        -9.432355490621685
      ],
      [
        "▁󰋖󰧒󰋱",
        -9.432766349802048
      ],
      [
        "▁󰋱󰟃󰟀󰋱",
        -9.433072096538162
      ],
      [
        "▁󰡤󰠕",
        -9.433088353166253
      ],
      [
        "▁󰠁󰞻",
        -9.4333404125706
      ],
      [
        "▁󰋹󰥪",
        -9.434444533971034
      ],
      [
        "▁󰞿󰡈",
        -9.434607513861394
      ],
      [
        "▁󰋇󰋫󰞹󰞸",
        -9.436962662335738
      ],
      [
        "▁󰞷󰋖󰣗",
        -9.437499158199126
      ],
      [
        "▁󰟲󰋥󰞷",
        -9.437586054649564
      ],
      [
        "▁󰋭󰋳󰋳",
        -9.437711288759346
      ],
      [
        "▁󰋇󰤝󰋳󰟅󰋱",
        -9.437744693179134
      ],
      [
        "▁󰋇󰋹󰟉",
        -9.437856687341194
      ],
      [
        "▁󰟁󰟖󰞼",
        -9.438209602860605
      ],
      [
        "▁󰋝󰞻",
        -9.438400948548257
      ],
      [
        "▁󰋑󰟊󰟍󰟥󰋖",
        -9.440678160412816
      ],
      [
        "▁󰋧󰋗󰋳",
        -9.440794387843173
      ],
      [
        "▁󰋺󰌠󰋥",
        -9.440810117017714
      ],
      [
        "▁󰟜󰠣󰞺󰋳",
        -9.44105841075601
      ],
      [
        "󰠕",
        -9.44187559808286
      ],
      [
        "▁󰠅󰋈",
        -9.442758273167323
      ],
      [
        "▁󰤊󰤃󰋤",
        -9.444158833661648
      ],
      [
        "▁󰋇󰋱󰋭",
        -9.444312365836005
      ],
      [
        "▁󰋹󰋖󰞻",
        -9.444312624416659
      ],
      [
        "▁󰟸󰟮󰞷",
        -9.44468303525254
      ],
      [
        "▁󰋷󰡬󰋧",
        -9.444899311489834
      ],
      [
        "▁󰋈󰋹󰟋󰡁",
        -9.44492086816948
      ],
      [
        "▁󰞿󰥖󰋱",
        -9.445829585434188
      ],
      [
        "▁󰋇󰟝󰌠",
        -9.446908525218994
      ],
      [
        "▁󰟕󰟈",
        -9.44734050276459
      ],
      [
        "▁󰞽󰋯󰟋󰌠",
        -9.447949333725537
      ],
      [
        "▁󰋐󰋖󰤓",
        -9.448420306096743
      ],
      [
        "▁󰟐󰟞󰋩",
        -9.448576266662
      ],
      [
        "▁󰠞󰟽󰋔",
        -9.448618732989953
      ],
      [
        "▁󰋷󰠘󰟱󰠡",
        -9.449001565899687
      ],
      [
        "▁󰋆󰋭󰡯󰋥",
        -9.45033449265917
      ],
      [
        "▁󰋺󰟈",
        -9.450446872098771
      ],
      [
        "▁󰟲",
        -9.45064560938122
      ],
      [
        "▁󰟬󰦛󰥨",
        -9.450808029088915
      ],
      [
        "▁󰢑󰟗󰋖",
        -9.451278546831968
      ],
      [
        "▁󰟺󰋱",
        -9.451656425845405
      ],
      [
        "󰀍󰋆",
        -9.451813106947805
      ],
      [
        "▁󰋭󰋳󰟉󰋩",
        -9.452090496375005
      ],
      [
        "▁󰋌󰋤",
        -9.452562295492472
      ],
      [
        "▁󰡠󰠏󰋱",
        -9.453442617904823
      ],
      [
        "▁󰋛󰋱󰋯",
        -9.45352100056264
      ],
      [
        "▁󰢕",
        -9.453651097331473
      ],
      [
        "▁󰠊󰢺",
        -9.453732735445833
      ],
      [
        "󰟋󰋱",
        -9.45462459579198
      ],
      [
        "▁󰥴󰞿󰋖",
        -9.454751302264308
      ],
      [
        "▁󰟡󰞺",
        -9.45487977577195
      ],
      [
        "▁󰋭󰋳󰞻",
        -9.455117811505541
      ],
      [
        "▁󰟎󰢿󰟊",
        -9.456149109114191
      ],
      [
        "▁󰥬󰋱󰋤",
        -9.456335397139016
      ],
      [
        "▁󰢸󰋯",
        -9.456615590275591
      ],
      [
        "▁󰟀󰤑",
        -9.456619557860465
      ],
      [
        "▁󰟃󰦲󰌏",
        -9.457117085435232
      ],
      [
        "▁󰞼󰋱󰋤󰀌",
        -9.457391776627105
      ],
      [
        "▁󰞿󰡷󰋛󰟅󰋱",
        -9.457498741942816
      ],
      [
        "▁󰡇󰋥󰋱",
        -9.458568794234925
      ],
      [
        "▁󰠌󰠮󰞹",
        -9.458696366387684
      ],
      [
        "▁󰟎󰋛󰟖󰋥",
        -9.460093055939629
      ],
      [
        "󰠧",
        -9.460402525679136
      ],
      [
        "▁󰞼󰟦󰋈",
        -9.46098005746269
      ],
      [
        "▁󰋘󰋱󰋯",
        -9.461004015543944
      ],
      [
        "▁󰟃󰟇󰋛󰞹",
        -9.4611672738273
      ],
      [
        "▁󰠝󰟆",
        -9.461952145498694
      ],
      [
        "󰟟",
        -9.462144909458354
      ],
      [
        "▁󰟗󰞿󰋠",
        -9.46280653770794
      ],
      [
        "▁󰋺󰌠󰞿",
        -9.463591134832592
      ],
      [
        "▁󰠖󰟐",
        -9.464056095743448
      ],
      [
        "▁󰠲󰧐󰟆󰟈",
        -9.464193536459312
      ],
      [
        "▁󰋆󰋫󰞸󰋨",
        -9.464686471444761
      ],
      [
        "▁󰡗",
        -9.465130107778112
      ],
      [
        "▁󰠃",
        -9.465229448817881
      ],
      [
        "▁󰡉󰟤",
        -9.465768818838033
      ],
      [
        "▁󰋆󰧾󰋭󰋱",
        -9.46601369095056
      ],
      [
        "󰡇",
        -9.466032277484501
      ],
      [
        "▁󰋘󰟋󰌠",
        -9.4664552992647
      ],
      [
        "▁󰋊󰋈󰞺󰋠",
        -9.467293059340795
      ],
      [
        "▁󰟤",
        -9.46820355960696
      ],
      [
        "▁󰟔󰠜󰟑󰋩",
        -9.469053407536238
      ],
      [
        "▁󰋆󰟯󰟏󰞷",
        -9.47097558417168
      ],
      [
        "▁󰋹󰧵󰋔",
        -9.471526172019187
      ],
      [
        "▁󰠅",
        -9.471788335680479
      ],
      [
        "▁󰞿󰤗󰌠󰋈",
        -9.471892663468006
      ],
      [
        "▁󰋖󰞷󰋈",
        -9.472655646239568
      ],
      [
        "▁󰟀󰣁",
        -9.474940961432052
      ],
      [
        "▁󰟳󰟏󰋱",
        -9.475250294849467
      ],
      [
        "▁󰋈󰋭󰟅",
        -9.475606499328366
      ],
      [
        "▁󰠂󰢞",
        -9.475843228294757
      ],
      [
        "▁󰋹󰋺󰞼󰟴",
        -9.476136283647316
      ],
      [
        "▁󰟳󰨭󰠸",
        -9.476610639932348
      ],
      [
        "▁󰟻󰋜",
        -9.476707806047518
      ],
      [
        "▁󰟎󰟊󰟀󰋧",
        -9.477863320770675
      ],
      [
        "▁󰟃󰢏󰋳󰌠",
        -9.477885897830081
      ],
      [
        "▁󰟹󰟋",
        -9.478112680757299
      ],
      [
        "▁󰋛󰋳󰟉󰊴",
        -9.478530622012482
      ],
      [
        "▁󰠌󰠓󰋩",
        -9.479581455480321
      ],
      [
        "󰠶",
        -9.480428598124808
      ],
      [
        "▁󰟏󰟍󰨹",
        -9.480914492959242
      ],
      [
        "▁󰋛󰠅󰠮",
        -9.481108947736438
      ],
      [
        "▁󰠚󰟨",
        -9.481616148977885
      ],
      [
        "▁󰠜󰠂",
        -9.481774489672276
      ],
      [
        "▁󰋩󰠖󰊴",
        -9.482107820687993
      ],
      [
        "▁󰟄󰠬",
        -9.482380952664325
      ],
      [
        "▁󰋇󰋠",
        -9.484122724956446
      ],
      [
        "󰟼",
        -9.484366881590317
      ],
      [
        "▁󰟈󰡴󰣑",
        -9.484427320097383
      ],
      [
        "▁󰋝󰠉󰋥",
        -9.485288374949256
      ],
      [
        "▁󰟏󰟰󰋱󰋤󰋥",
        -9.485504991624188
      ],
      [
        "▁󰋫󰞷󰋈",
        -9.485693626920936
      ],
      [
        "▁󰋊󰠥󰟊",
        -9.485792805758232
      ],
      [
        "▁󰋛󰟈󰠋",
        -9.488074933024384
      ],
      [
        "▁󰠛",
        -9.48848864636463
      ],
      [
        "▁󰟇󰋘󰋯",
        -9.488847438369318
      ],
      [
        "▁󰟦󰟅",
        -9.489081212974309
      ],
      [
        "󰁁󰁌",
        -9.489412161044928
      ],
      [
        "▁󰟿󰋩󰟂",
        -9.490440291976363
      ],
      [
        "▁󰟐󰞹",
        -9.490499568025138
      ],
      [
        "▁󰋆󰋭󰟠󰠾",
        -9.490511287470135
      ],
      [
        "▁󰌩󰌭",
        -9.492320604154077
      ],
      [
        "󰠋",
        -9.492721815678518
      ],
      [
        "▁󰣇󰤛󰋱",
        -9.493036908913298
      ],
      [
        "▁󰟿",
        -9.493486342943916
      ],
      [
        "▁󰢯󰞼󰌠",
        -9.49367148274944
      ],
      [
        "󰦌",
        -9.494009036688041
      ],
      [
        "▁󰟗󰟖󰞾",
        -9.494898573521075
      ],
      [
        "▁󰣃󰟅󰋱",
        -9.495294363445176
      ],
      [
        "▁󰟓󰢀󰋱",
        -9.495559677083076
      ],
      [
        "▁󰠍󰋜󰟅",
        -9.49576332779593
      ],
      [
        "󰡁",
        -9.495915345967783
      ],
      [
        "▁󰋭󰌠󰟐",
        -9.496732379221221
      ],
      [
        "▁󰋈󰋩",
        -9.497661184189248
      ],
      [
        "▁󰡔󰞺",
        -9.498408050672051
      ],
      [
        "▁󰋊󰋫󰋳󰠯",
        -9.498695839800543
      ],
      [
        "▁󰨂󰋹",
        -9.499552408548588
      ],
      [
        "󰟒󰟂",
        -9.5016748413324
      ],
      [
        "󰡔",
        -9.502095962087337
      ],
      [
        "󰟓󰋭",
        -9.502319078873928
      ],
      [
        "▁󰠂󰟅",
        -9.502826963025349
      ],
      [
        "▁󰋩󰠬",
        -9.503118193480708
      ],
      [
        "▁󰋷󰟴󰞷󰋱",
        -9.503189979403684
      ],
      [
        "▁󰋖󰋱󰟇󰋩󰊴",
        -9.50380953030686
      ],
      [
        "▁󰋹󰠇󰋯",
        -9.503902893584105
      ],
      [
        "▁󰀇󰋆",
        -9.503908085486103
      ],
      [
        "▁󰋇󰞽󰌠",
        -9.5045070475403
      ],
      [
        "▁󰋝󰠉󰞾",
        -9.506245636972706
      ],
      [
        "▁󰟶󰢒",
        -9.50719952152387
      ],
      [
        "▁󰟼󰠮",
        -9.507731950724008
      ],
      [
        "▁󰌩󰌪",
        -9.507972289732333
      ],
      [
        "▁󰟀󰟪󰋱",
        -9.508689878538593
      ],
      [
        "▁󰟐󰧡󰡚󰋱",
        -9.50910064593422
      ],
      [
        "▁󰡴󰢞",
        -9.509202939374317
      ],
      [
        "▁󰋊󰦑󰋘",
        -9.509652000589016
      ],
      [
        "▁󰟌󰟇",
        -9.510463537497245
      ],
      [
        "▁󰋝󰋩󰋘󰠐󰋱",
        -9.511308624057266
      ],
      [
        "▁󰋆󰟯󰋹󰋱󰋤",
        -9.511537070662248
      ],
      [
        "▁󰟁󰟈󰋗",
        -9.512617192656318
      ],
      [
        "▁󰣧󰞷󰋝",
        -9.513411496090656
      ],
      [
        "▁󰋥󰋗󰋩󰋈",
        -9.513785617982013
      ],
      [
        "󰀅",
        -9.514095496365444
      ],
      [
        "▁󰋖󰋱󰞻󰋩󰊴",
        -9.514284728758506
      ],
      [
        "▁󰟌󰋫",
        -9.515006175406489
      ],
      [
        "▁󰟌󰋷",
        -9.515581923629638
      ],
      [
        "▁󰢇󰟘󰢫",
        -9.516534285742281
      ],
      [
        "▁󰟌󰟖󰞾",
        -9.51671971191082
      ],
      [
        "▁󰋖󰣩",
        -9.518257222579669
      ],
      [
        "▁󰟟󰟓󰟇",
        -9.518398567981684
      ],
      [
        "▁󰋊󰠃󰋥󰊴",
        -9.518845559790533
      ],
      [
        "▁󰋷󰟁󰨅󰋱",
        -9.519047172612861
      ],
      [
        "▁󰟑󰋭󰋹",
        -9.519136545232715
      ],
      [
        "▁󰠧󰟈󰞾",
        -9.51986229876701
      ],
      [
        "▁󰋹󰠃󰋭",
        -9.520307651643552
      ],
      [
        "▁󰟢󰋈󰞻",
        -9.520369972312372
      ],
      [
        "󰩊",
        -9.521298338347886
      ],
      [
        "▁󰟃󰟮󰋳",
        -9.52227508920333
      ],
      [
        "󰋷󰋩",
        -9.522335120915681
      ],
      [
        "▁󰋆󰣾󰞼󰋱",
        -9.523682422251001
      ],
      [
        "▁󰞿󰋊󰋝",
        -9.52432857703107
      ],
      [
        "▁󰋇󰟝󰋳󰋥",
        -9.525649347750141
      ],
      [
        "▁󰟏󰋱",
        -9.527003867798568
      ],
      [
        "▁󰋆󰟀󰋖",
        -9.527366880128055
      ],
      [
        "▁󰋆󰧏",
        -9.527376223777217
      ],
      [
        "▁󰋫󰠕󰟉",
        -9.527656840022171
      ],
      [
        "▁󰠱󰦵",
        -9.52815142687071
      ],
      [
        "▁󰟕󰞹󰋩󰊴",
        -9.528168409024293
      ],
      [
        "▁󰠇󰞽",
        -9.528454039690905
      ],
      [
        "▁󰋹󰡜󰋧",
        -9.531457656346593
      ],
      [
        "▁󰋩󰡇󰡚󰋱",
        -9.53181928697576
      ],
      [
        "▁󰟬󰤎󰋯󰢐",
        -9.531943781738184
      ],
      [
        "▁󰟂󰋳",
        -9.532317989363056
      ],
      [
        "▁󰣂󰢅󰠬",
        -9.532414910905327
      ],
      [
        "▁󰋺󰋥",
        -9.532803608994532
      ],
      [
        "▁󰋖󰞷󰟚󰊴",
        -9.533182256496861
      ],
      [
        "▁󰋐󰞻",
        -9.534044459548193
      ],
      [
        "▁󰋨󰥍󰋱",
        -9.534127053081004
      ],
      [
        "▁󰟳󰣥󰟷",
        -9.534133186735367
      ],
      [
        "▁󰋥󰟫󰋤",
        -9.534290779266508
      ],
      [
        "▁󰋫󰟽󰋱",
        -9.534524467326131
      ],
      [
        "▁󰟞",
        -9.535124035219956
      ],
      [
        "▁󰋭󰧖󰋥",
        -9.535300087630407
      ],
      [
        "▁󰟲󰢔",
        -9.536067897850959
      ],
      [
        "▁󰋖󰞻󰟦󰋱",
        -9.536114265118721
      ],
      [
        "▁󰋊󰋫󰠚󰠓",
        -9.536322068686705
      ],
      [
        "▁󰋇󰋈󰟅󰋱",
        -9.536744626623369
      ],
      [
        "▁󰦦󰞺",
        -9.537885819347478
      ],
      [
        "▁󰋖󰋳",
        -9.54072990784723
      ],
      [
        "󰤗",
        -9.540752847356618
      ],
      [
        "▁󰋧󰋷󰟗󰋖",
        -9.541117326020244
      ],
      [
        "▁󰋺󰟡󰊴",
        -9.541311780581397
      ],
      [
        "▁󰟌󰟁",
        -9.541455129180365
      ],
      [
        "▁󰢑󰢋",
        -9.541494114725152
      ],
      [
        "󰟚󰋳",
        -9.542033696444026
      ],
      [
        "▁󰞹󰊴󰀂",
        -9.542420238624816
      ],
      [
        "▁󰡥󰟗",
        -9.543291008592593
      ],
      [
        "󰠨󰡄",
        -9.543581338292881
      ],
      [
        "▁󰨁󰞷",
        -9.544042821084831
      ],
      [
        "▁󰟃󰋸󰌠󰋖",
        -9.544100784305527
      ],
      [
        "▁󰋇󰟑",
        -9.545541053805945
      ],
      [
        "▁󰋖󰟛󰟙",
        -9.546329342024395
      ],
      [
        "▁󰋺󰀇󰋳",
        -9.546496230208428
      ],
      [
        "▁󰟓󰟽",
        -9.546617316905069
      ],
      [
        "▁󰋫󰟴󰠠󰋱",
        -9.547040572175987
      ],
      [
        "▁󰋇󰋹󰋩",
        -9.547758498694037
      ],
      [
        "▁󰞽󰟆",
        -9.54948823141111
      ],
      [
        "󰁉󰁎󰁇",
        -9.549543953448918
      ],
      [
        "▁󰟌󰞾",
        -9.549581968414921
      ],
      [
        "󰞽󰋱",
        -9.5498252479914
      ],
      [
        "▁󰞼󰋱󰠐󰋈",
        -9.54989862093584
      ],
      [
        "▁󰋙󰋩",
        -9.550351610339028
      ],
      [
        "▁󰟳󰡎󰋯󰋤",
        -9.55123430553159
      ],
      [
        "▁󰋹󰞽󰟰󰋩",
        -9.552178995826731
      ],
      [
        "▁󰟓󰋱",
        -9.55246470535024
      ],
      [
        "▁󰋨󰦇",
        -9.55249129319774
      ],
      [
        "▁󰟋󰟨",
        -9.55354582735065
      ],
      [
        "▁󰋖󰞷󰟉󰋩󰀌",
        -9.554279809535794
      ],
      [
        "󰠢",
        -9.55504130313279
      ],
      [
        "▁󰠱󰠹󰋫",
        -9.55658925537722
      ],
      [
        "▁󰠷",
        -9.557974710641794
      ],
      [
        "▁󰟃󰟝󰌠",
        -9.559154174997671
      ],
      [
        "▁󰟌󰋱󰟇󰋩",
        -9.559404012818861
      ],
      [
        "▁󰢤󰟴",
        -9.55961291116077
      ],
      [
        "󰡈",
        -9.559820172295796
      ],
      [
        "▁󰋹󰟈󰞾",
        -9.559887623323052
      ],
      [
        "▁󰀇󰋇",
        -9.560517989858328
      ],
      [
        "▁󰋇󰋠󰞺",
        -9.560552318335958
      ],
      [
        "▁󰋆󰡱󰞼󰋱",
        -9.561006141471838
      ],
      [
        "▁󰋈󰞽󰋯",
        -9.561155389050652
      ],
      [
        "▁󰟇󰋹󰋱󰞼󰟈",
        -9.562112071365107
      ],
      [
        "▁󰋹󰞽󰟦",
        -9.56214456405189
      ],
      [
        "▁󰟤󰠠󰋱",
        -9.562778165487376
      ],
      [
        "▁󰟄󰡀󰞾",
        -9.563423692237565
      ],
      [
        "▁󰟜󰌠󰋱",
        -9.563762934338262
      ],
      [
        "▁󰟃󰋩",
        -9.564557503641907
      ],
      [
        "▁󰟀󰠉󰞾",
        -9.564904526094812
      ],
      [
        "▁󰟜󰞾󰟄󰋱",
        -9.565521619787788
      ],
      [
        "▁󰟄󰋷󰟒󰋱",
        -9.567338350320563
      ],
      [
        "▁󰋫󰟈󰞽󰠐",
        -9.568442941064365
      ],
      [
        "▁󰋫󰦀󰋥",
        -9.570162078275137
      ],
      [
        "▁󰡐󰀎",
        -9.571369020416437
      ],
      [
        "▁󰋇󰋩󰟂",
        -9.571396177671597
      ],
      [
        "▁󰋘󰠿󰋥",
        -9.571483309398868
      ],
      [
        "▁󰟍󰋹󰟌󰟁󰋳",
        -9.57150476849948
      ],
      [
        "󰟳",
        -9.571839849639291
      ],
      [
        "▁󰋇󰋹󰋳",
        -9.572058606962482
      ],
      [
        "▁󰟳󰋘󰋡󰋩",
        -9.57227366333555
      ],
      [
        "▁󰠊",
        -9.57303230585463
      ],
      [
        "▁󰋘󰋯󰋩",
        -9.573062182211372
      ],
      [
        "▁󰋹󰦰󰋳󰟅",
        -9.573314339985172
      ],
      [
        "▁󰠆󰧳󰋹",
        -9.573339373615958
      ],
      [
        "▁󰋳󰥁",
        -9.573799768869186
      ],
      [
        "▁󰡹󰟈",
        -9.574177080488345
      ],
      [
        "▁󰋆󰢄󰞻󰋱",
        -9.574634501786011
      ],
      [
        "▁󰟍󰋈",
        -9.574752115459582
      ],
      [
        "▁󰡹󰋫",
        -9.575411353778472
      ],
      [
        "󰠮",
        -9.575765369952649
      ],
      [
        "▁󰟎󰠚󰠘",
        -9.577136340932643
      ],
      [
        "▁󰋆󰢄󰋳",
        -9.577739164290541
      ],
      [
        "▁󰟎󰢉",
        -9.57892990420347
      ],
      [
        "▁󰋇󰠊󰋳",
        -9.579818275329323
      ],
      [
        "▁󰞿󰠚󰠓",
        -9.579845568839621
      ],
      [
        "▁󰞼󰟼",
        -9.580136718089618
      ],
      [
        "▁󰋫󰟝󰠮",
        -9.580245351695037
      ],
      [
        "󰡖",
        -9.580816741605513
      ],
      [
        "▁󰠊󰞺",
        -9.581232800607129
      ],
      [
        "▁󰌩󰌯",
        -9.581426768859753
      ],
      [
        "▁󰀂󰋇󰟗",
        -9.581458244303043
      ],
      [
        "▁󰌩󰌮",
        -9.5819147189989
      ],
      [
        "▁󰋛󰞻󰟉",
        -9.58203050787547
      ],
      [
        "▁󰞸󰋝󰟾󰟊",
        -9.58233478152554
      ],
      [
        "▁󰋈󰠤",
        -9.582682550352175
      ],
      [
        "▁󰟁󰞸󰊴",
        -9.582961243893305
      ],
      [
        "▁󰤥",
        -9.58298915606986
      ],
      [
        "▁󰟝󰞾󰋱",
        -9.58363378196193
      ],
      [
        "▁󰟹󰋱",
        -9.583638722330559
      ],
      [
        "▁󰟍󰠆󰋱",
        -9.58420675817527
      ],
      [
        "▁󰟱󰟷",
        -9.584798873576474
      ],
      [
        "▁󰟘󰌠󰞿󰊴",
        -9.585384085824847
      ],
      [
        "▁󰟜󰞷",
        -9.586325979587128
      ],
      [
        "▁󰋆󰟅󰋖󰟙",
        -9.586517363597547
      ],
      [
        "▁󰟤󰋭",
        -9.586849694186325
      ],
      [
        "▁󰟃󰋝󰌠",
        -9.586878574704146
      ],
      [
        "▁󰢂󰋡󰋖",
        -9.589259050050995
      ],
      [
        "▁󰤧󰞻",
        -9.589829673021256
      ],
      [
        "▁󰋝󰋘󰟂󰋱",
        -9.590441802248382
      ],
      [
        "󰠉",
        -9.590685847467205
      ],
      [
        "▁󰟍󰟂󰋱",
        -9.5908552494647
      ],
      [
        "▁󰟧󰢨󰞿",
        -9.591000009815742
      ],
      [
        "▁󰋜󰟃󰟂",
        -9.592283378870384
      ],
      [
        "▁󰟱󰟴󰟈󰋖",
        -9.593495527813957
      ],
      [
        "▁󰟻󰟉󰋱",
        -9.59364539497577
      ],
      [
        "󰟰",
        -9.593778516961125
      ],
      [
        "▁󰋩󰠖",
        -9.59475104868252
      ],
      [
        "▁󰞼󰋱󰋔",
        -9.594977815221336
      ],
      [
        "▁󰋔󰡪󰊴",
        -9.595163496240673
      ],
      [
        "▁󰟿󰋮",
        -9.595208170629082
      ],
      [
        "▁󰟃󰟰󰋩",
        -9.595335116984565
      ],
      [
        "󰋆",
        -9.596334995234942
      ],
      [
        "▁󰟝󰋹",
        -9.596519762723185
      ],
      [
        "▁󰋇󰋷󰤦",
        -9.596822335159612
      ],
      [
        "▁󰢲󰞼󰋩",
        -9.597238023191926
      ],
      [
        "▁󰟕󰞿󰞾󰟉󰋩󰀌",
        -9.597450584008605
      ],
      [
        "▁󰋇󰋭󰟸󰋳",
        -9.597549800956026
      ],
      [
        "▁󰞹󰟴󰋱",
        -9.597770833490687
      ],
      [
        "▁󰋷󰦓",
        -9.598361023739985
      ],
      [
        "▁󰠽󰡁󰋱",
        -9.598918960664369
      ],
      [
        "▁󰟃󰞹",
        -9.599131339101538
      ],
      [
        "▁󰠌",
        -9.599185037329972
      ],
      [
        "▁󰋆󰡆",
        -9.599195305060563
      ],
      [
        "▁󰋖󰟈󰟆󰟉󰋩󰊴",
        -9.600423197377683
      ],
      [
        "▁󰞹󰋠󰋖",
        -9.60046558107709
      ],
      [
        "▁󰋳󰩡",
        -9.600502815902917
      ],
      [
        "▁󰋷󰠘󰋱",
        -9.600627378365775
      ],
      [
        "▁󰋖󰋥󰟙",
        -9.60092534373985
      ],
      [
        "▁󰢂󰋡󰞺",
        -9.601020576965896
      ],
      [
        "▁󰞼󰟪󰟾",
        -9.60148323243798
      ],
      [
        "󰢄",
        -9.601718287073869
      ],
      [
        "󰢹",
        -9.601822477716475
      ],
      [
        "▁󰋹󰥔󰋩",
        -9.602169670808859
      ],
      [
        "▁󰋇󰋹󰟇",
        -9.60257854037357
      ],
      [
        "▁󰀡",
        -9.602712264944293
      ],
      [
        "▁󰢚",
        -9.602894832499185
      ],
      [
        "▁󰋇󰋘󰢞",
        -9.602922887816128
      ],
      [
        "󰡾",
        -9.604061564118167
      ],
      [
        "▁󰋹󰋺󰠒󰠝󰟁",
        -9.604582425473668
      ],
      [
        "▁󰋖󰋳󰞼󰟁󰋱",
        -9.604767230245779
      ],
      [
        "▁󰋹󰞽󰟡󰋛󰞹",
        -9.605592457237849
      ],
      [
        "▁󰡴󰟱󰋖",
        -9.60561400170293
      ],
      [
        "▁󰟳󰠈󰋱",
        -9.60576373158348
      ],
      [
        "▁󰋖󰡣󰞹",
        -9.606408395069424
      ],
      [
        "󰢫",
        -9.606942744413178
      ],
      [
        "▁󰟀󰟊󰋳",
        -9.608295460008767
      ],
      [
        "▁󰠈󰢈",
        -9.608949785800757
      ],
      [
        "▁󰋹󰋥󰢴",
        -9.610737816236322
      ],
      [
        "▁󰟕󰟅󰋩",
        -9.611584086092915
      ],
      [
        "▁󰋩󰋝󰋱",
        -9.611607218613244
      ],
      [
        "▁󰋇󰦗",
        -9.612011568915513
      ],
      [
        "▁󰟇󰟤󰊴",
        -9.612264769641559
      ],
      [
        "▁󰋯󰟍󰋩",
        -9.612282100056655
      ],
      [
        "▁󰋖󰞸󰌠",
        -9.612334236463866
      ],
      [
        "▁󰋇󰋯",
        -9.612639924754866
      ],
      [
        "▁󰋹󰟀󰋈󰞺",
        -9.612932208019686
      ],
      [
        "▁󰞼󰋫󰌝",
        -9.614445366941935
      ],
      [
        "󰋳󰊴",
        -9.614462019677786
      ],
      [
        "▁󰟿󰡑󰞽󰠋",
        -9.614847607908995
      ],
      [
        "▁󰟼󰠩",
        -9.614874710988364
      ],
      [
        "▁󰠀󰞻",
        -9.614923813225731
      ],
      [
        "▁󰠚󰋭󰋖",
        -9.61532303571494
      ],
      [
        "▁󰟑󰞻󰋩󰊴",
        -9.61584749398608
      ],
      [
        "▁󰋊󰡪󰟉",
        -9.615926468900426
      ],
      [
        "▁󰠝󰞾󰟉󰊴",
        -9.61653102123014
      ],
      [
        "▁󰞽󰟒",
        -9.616708996564814
      ],
      [
        "󰟵󰟡󰟂",
        -9.616795151696547
      ],
      [
        "▁󰢆󰋠󰋭󰋳",
        -9.617170233708615
      ],
      [
        "▁󰋈󰟍󰟂",
        -9.618645087153839
      ],
      [
        "▁󰋹󰟬󰢭",
        -9.61893221539116
      ],
      [
        "▁󰟓󰋭󰟂",
        -9.61904261587092
      ],
      [
        "▁󰞸󰋝󰟰󰟾󰋱",
        -9.619113349261802
      ],
      [
        "󰞿󰊴",
        -9.619120845824858
      ],
      [
        "▁󰋹󰋱󰋭󰞸󰋺",
        -9.619925588807504
      ],
      [
        "▁󰟏󰋨󰋩",
        -9.620098141680439
      ],
      [
        "▁󰟘󰣟",
        -9.62202103889805
      ],
      [
        "▁󰟑󰋳󰊴",
        -9.62278613458409
      ],
      [
        "▁󰋷󰥊󰋱",
        -9.6229314786849
      ],
      [
        "▁󰋭󰞻󰋔",
        -9.623578634420006
      ],
      [
        "󰟈󰟆",
        -9.62461635934106
      ],
      [
        "▁󰋆󰋭󰋳󰡚󰋩",
        -9.624717115390132
      ],
      [
        "▁󰟶󰋭󰟀󰋱",
        -9.624929795189956
      ],
      [
        "󰠝",
        -9.62531816953426
      ],
      [
        "▁󰋖󰋱󰟂󰋩󰊴",
        -9.625429029902323
      ],
      [
        "▁󰟍󰟥󰞹",
        -9.626515283668615
      ],
      [
        "▁󰟬󰣏󰟬󰡀",
        -9.626786176870732
      ],
      [
        "󰣽",
        -9.628130547681275
      ],
      [
        "▁󰋫󰞾󰢊",
        -9.628255752241103
      ],
      [
        "▁󰋫󰟈󰋸󰋧",
        -9.628903862551216
      ],
      [
        "▁󰋇󰋝󰞺󰋱",
        -9.62921564875487
      ],
      [
        "▁󰟃󰋝󰢈",
        -9.629544153633537
      ],
      [
        "▁󰟎󰋖󰡣",
        -9.629640658339262
      ],
      [
        "▁󰢷",
        -9.629743536957742
      ],
      [
        "▁󰟳󰤉󰋱",
        -9.629776810068142
      ],
      [
        "󰟉󰋩",
        -9.631050798957878
      ],
      [
        "▁󰋫󰞸",
        -9.631252590508113
      ],
      [
        "󰤅",
        -9.632101782354953
      ],
      [
        "󰟮",
        -9.632374444465187
      ],
      [
        "▁󰟤󰠠󰣨",
        -9.632398652489066
      ],
      [
        "▁󰋊󰣮󰋗󰠒󰣛",
        -9.632825373080342
      ],
      [
        "▁󰌨󰌧󰌧",
        -9.633135367515267
      ],
      [
        "󰀟󰀂",
        -9.633304481671162
      ],
      [
        "▁󰞽󰋱",
        -9.633672753013023
      ],
      [
        "▁󰡰",
        -9.63408683394664
      ],
      [
        "▁󰋖󰋳󰞼󰟁󰌠",
        -9.634258648159797
      ],
      [
        "󰣫",
        -9.63478384594016
      ],
      [
        "▁󰋫󰟈󰟢󰟖󰋥",
        -9.63504443996667
      ],
      [
        "▁󰟃󰧁󰋮",
        -9.63516896275878
      ],
      [
        "󰡰",
        -9.63526685489848
      ],
      [
        "▁󰋹󰤙󰋥",
        -9.636323408618235
      ],
      [
        "▁󰟜󰞾󰋱",
        -9.636577432917898
      ],
      [
        "▁󰋭󰟋󰋱",
        -9.636655109247153
      ],
      [
        "▁󰀴󰁈󰁅",
        -9.63727629497206
      ],
      [
        "▁󰋐󰟙󰋈",
        -9.637422346726158
      ],
      [
        "▁󰠀󰟋󰋱",
        -9.637562965153965
      ],
      [
        "▁󰟐󰟵󰟡",
        -9.63794858787506
      ],
      [
        "▁󰟄󰟀󰋱",
        -9.638039382626033
      ],
      [
        "󰠀",
        -9.638301277747505
      ],
      [
        "▁󰟾󰠎",
        -9.63837195875529
      ],
      [
        "▁󰋖󰋱󰞻󰋔",
        -9.638419032844567
      ],
      [
        "▁󰔦",
        -9.638468774471187
      ],
      [
        "▁󰣂󰋦󰋖",
        -9.638653358178615
      ],
      [
        "▁󰠅󰋳󰟂",
        -9.63886419743139
      ],
      [
        "▁󰋆󰟳󰤎",
        -9.638907318655509
      ],
      [
        "▁󰠴",
        -9.639033471986886
      ],
      [
        "▁󰋖󰟈󰀌",
        -9.639107505977526
      ],
      [
        "▁󰞺󰠆",
        -9.63981879685629
      ],
      [
        "▁󰋹󰦅",
        -9.64019428679516
      ],
      [
        "▁󰋐󰋹󰋯󰌠",
        -9.6401961962554
      ],
      [
        "▁󰠊󰤁󰟂",
        -9.642341668396186
      ],
      [
        "▁󰋯󰣳󰋱",
        -9.642407075955205
      ],
      [
        "▁󰋖󰟈󰞻󰋩",
        -9.642566230531745
      ],
      [
        "▁󰢂",
        -9.643284384007647
      ],
      [
        "󰞹󰋦",
        -9.643477152100774
      ],
      [
        "▁󰥄󰣇󰟐󰋱",
        -9.644755770968182
      ],
      [
        "▁󰋹󰞷",
        -9.64505617342589
      ],
      [
        "󰟿",
        -9.646481081009052
      ],
      [
        "▁󰣃󰋩",
        -9.646552265396975
      ],
      [
        "▁󰋮󰠓",
        -9.648173779666957
      ],
      [
        "▁󰡹󰋳",
        -9.648651759580202
      ],
      [
        "▁󰠨󰨯",
        -9.649047545519462
      ],
      [
        "▁󰋳󰠇󰋤",
        -9.649493587182178
      ],
      [
        "▁󰤘󰋺",
        -9.649515716909425
      ],
      [
        "▁󰟧󰤢",
        -9.649693664155413
      ],
      [
        "▁󰋧󰠡󰌠",
        -9.651631672996452
      ],
      [
        "▁󰋱󰠃󰋥",
        -9.651699007773658
      ],
      [
        "▁󰋆󰟲󰟅󰟁",
        -9.652109238303334
      ],
      [
        "▁󰋊󰡂󰞷",
        -9.652175044976278
      ],
      [
        "▁󰋆󰡨󰟅",
        -9.6521982318817
      ],
      [
        "▁󰟪󰟏󰋭",
        -9.653082022169693
      ],
      [
        "▁󰟎󰦴󰟏",
        -9.653269650723683
      ],
      [
        "▁󰋺󰟹",
        -9.654139359176611
      ],
      [
        "▁󰞼󰟙",
        -9.655324154954627
      ],
      [
        "▁󰟕󰞿󰞾󰟉",
        -9.656336227069815
      ],
      [
        "▁󰋊󰞿",
        -9.657609534166273
      ],
      [
        "󰡂",
        -9.657828967630735
      ],
      [
        "▁󰢗󰢖",
        -9.658166194650102
      ],
      [
        "󰟣",
        -9.658577616973208
      ],
      [
        "▁󰋆󰪊󰋥",
        -9.659003958190615
      ],
      [
        "▁󰋘󰟋",
        -9.659369453999306
      ],
      [
        "▁󰋯󰟂󰀌",
        -9.659533166679427
      ],
      [
        "▁󰟅󰋩",
        -9.660044885205426
      ],
      [
        "▁󰟢󰟪󰟝",
        -9.66010401720151
      ],
      [
        "▁󰟥󰟅󰞽",
        -9.660533761696067
      ],
      [
        "󰟙󰞺",
        -9.661290669720325
      ],
      [
        "▁󰋭󰟥󰟆",
        -9.661424036585931
      ],
      [
        "▁󰠃󰟔󰌏󰋹󰋖",
        -9.662569269046093
      ],
      [
        "▁󰋔󰧕󰋨",
        -9.662967721473928
      ],
      [
        "▁󰟖󰠀",
        -9.663309575756994
      ],
      [
        "▁󰟨󰋳󰀌",
        -9.663528582810049
      ],
      [
        "▁󰋫󰠕󰟉󰊴",
        -9.664156087627608
      ],
      [
        "▁󰟁󰋔",
        -9.664301260584331
      ],
      [
        "▁󰋖󰟈󰞾",
        -9.664872359969719
      ],
      [
        "▁󰟀󰟏󰌠",
        -9.665018585541803
      ],
      [
        "▁󰟃󰟦󰠍󰋱",
        -9.665443154001643
      ],
      [
        "▁󰟨󰞻󰋩",
        -9.666094358495565
      ],
      [
        "▁󰟸󰋈󰟒",
        -9.666465184288985
      ],
      [
        "▁󰟌󰋱󰞻",
        -9.666552333668912
      ],
      [
        "▁󰌪󰌨",
        -9.66668842160061
      ],
      [
        "▁󰡅󰣆",
        -9.667043458162862
      ],
      [
        "▁󰠣󰦯",
        -9.668715073825233
      ],
      [
        "▁󰟎󰢁󰟆",
        -9.668938199834125
      ],
      [
        "▁󰣂󰢅󰠬󰟂",
        -9.669167781492611
      ],
      [
        "▁󰋐󰟵󰟡",
        -9.670201508045158
      ],
      [
        "▁󰥡󰞺󰋱",
        -9.67081987491201
      ],
      [
        "󰡐",
        -9.672309901182754
      ],
      [
        "▁󰋖󰟶󰞹󰟓󰋈󰞸󰋹",
        -9.672408161106338
      ],
      [
        "▁󰋭󰞻󰋩󰊴",
        -9.672761920702692
      ],
      [
        "▁󰞿󰋊",
        -9.67359973629851
      ],
      [
        "▁󰡿󰟜󰋱",
        -9.673889879643557
      ],
      [
        "▁󰞿󰞸󰋫󰋧",
        -9.674158168094866
      ],
      [
        "▁󰟌󰌠󰊴",
        -9.674450297580345
      ],
      [
        "▁󰋝󰋘󰌏",
        -9.674454930440742
      ],
      [
        "▁󰋹󰋱󰞼󰟴",
        -9.674986343746793
      ],
      [
        "▁󰞸󰋘",
        -9.675696601502562
      ],
      [
        "▁󰟗󰋳",
        -9.67580124890675
      ],
      [
        "▁󰋖󰋱󰟚󰊴",
        -9.676305966274406
      ],
      [
        "▁󰟃󰋳",
        -9.677763565893466
      ],
      [
        "▁󰟃󰟢󰋱󰋫󰟊",
        -9.678033322688082
      ],
      [
        "▁󰋹󰤛󰠖",
        -9.678603763480146
      ],
      [
        "󰡦󰠏",
        -9.678604611620168
      ],
      [
        "▁󰡧",
        -9.679128560879663
      ],
      [
        "▁󰟌󰥹",
        -9.679183185095555
      ],
      [
        "▁󰋭󰟕󰌠",
        -9.67979927252861
      ],
      [
        "▁󰣧󰞷󰠆",
        -9.681044225202779
      ],
      [
        "▁󰋱󰞾󰟉󰋩",
        -9.681452206690738
      ],
      [
        "󰁔",
        -9.682058097772233
      ],
      [
        "▁󰟗󰟆",
        -9.68329477411502
      ],
      [
        "▁󰞹󰀛",
        -9.683879908750471
      ],
      [
        "▁󰞺󰋩󰞹",
        -9.684484339282218
      ],
      [
        "▁󰟢󰋈󰊴",
        -9.685474783523098
      ],
      [
        "▁󰟥󰞻󰋠",
        -9.686677945233276
      ],
      [
        "▁󰟅󰌠",
        -9.688534431816713
      ],
      [
        "▁󰟔󰟡󰟗󰟙󰋱",
        -9.688688224300721
      ],
      [
        "▁󰠚󰋘",
        -9.689553176611724
      ],
      [
        "▁󰟁󰠞󰟽",
        -9.68999180880755
      ],
      [
        "󰟑󰋘󰞺",
        -9.690045925157724
      ],
      [
        "󰢙",
        -9.690708250601272
      ],
      [
        "▁󰋭󰥾",
        -9.691336517385672
      ],
      [
        "󰡢󰡢󰠻",
        -9.691440795955895
      ],
      [
        "▁󰟁󰟖󰞼󰌠",
        -9.691715728374554
      ],
      [
        "▁󰋈󰟊󰟍󰟐",
        -9.692349089975792
      ],
      [
        "▁󰟃󰋥󰋱󰋤",
        -9.693443787056182
      ],
      [
        "▁󰋖󰥇󰋫󰠇",
        -9.693606366476956
      ],
      [
        "▁󰟎󰠭󰟊󰋱",
        -9.694966765440629
      ],
      [
        "▁󰠝󰞾󰟉",
        -9.694974766233907
      ],
      [
        "▁󰋊󰩒󰋳",
        -9.695070790570924
      ],
      [
        "▁󰡰󰦉󰋳",
        -9.695146039926039
      ],
      [
        "▁󰋨󰋩",
        -9.695188847814464
      ],
      [
        "▁󰦃󰟭",
        -9.69549549752801
      ],
      [
        "▁󰋊󰟍󰋱",
        -9.695620211095381
      ],
      [
        "▁󰟀󰋱󰟀󰋱",
        -9.69670218275755
      ],
      [
        "▁󰋇󰋛󰋱󰋤",
        -9.69717027612918
      ],
      [
        "▁󰞼󰠫󰋖󰋱",
        -9.697315471927315
      ],
      [
        "▁󰋯󰡑",
        -9.697321026906668
      ],
      [
        "▁󰟀󰥅",
        -9.697657802389894
      ],
      [
        "▁󰋇󰠪󰋺",
        -9.698000979452472
      ],
      [
        "▁󰟵󰟫󰋥󰋱",
        -9.698494578927468
      ],
      [
        "▁󰟍󰋹󰟌󰟁󰞻󰋱",
        -9.699019535128913
      ],
      [
        "▁󰟍󰋯󰟋󰋱",
        -9.70048927708427
      ],
      [
        "▁󰋇󰋖󰣆󰋤",
        -9.700512755230575
      ],
      [
        "▁󰤏󰡾󰋱",
        -9.700665885027897
      ],
      [
        "▁󰋖󰟗󰋷󰋩",
        -9.701276475242897
      ],
      [
        "▁󰋭󰞻󰟉󰤶",
        -9.702009662276147
      ],
      [
        "▁󰋹󰋭󰋈",
        -9.70220621686361
      ],
      [
        "▁󰟅󰢃󰡓",
        -9.70256213903231
      ],
      [
        "▁󰋇󰟉󰋩󰊴",
        -9.702887232139432
      ],
      [
        "▁󰋇󰋹󰟉󰊴",
        -9.702980193486068
      ],
      [
        "▁󰋊󰡪󰟉󰊴",
        -9.70311550884012
      ],
      [
        "▁󰡉󰋩",
        -9.703255925911522
      ],
      [
        "▁󰟔󰠜󰟂󰋈",
        -9.703622135674113
      ],
      [
        "▁󰠞󰟆",
        -9.704110628738261
      ],
      [
        "󰌨󰌯",
        -9.704617956086203
      ],
      [
        "▁󰋆󰠪󰋹󰋱",
        -9.704743760248764
      ],
      [
        "▁󰟕󰞹󰌠󰀌",
        -9.705019512349834
      ],
      [
        "▁󰋐󰋝󰟭",
        -9.705092759086629
      ],
      [
        "▁󰋹󰠊󰋝",
        -9.705928005639777
      ],
      [
        "▁󰞹󰋘󰟈󰋖",
        -9.705928930426039
      ],
      [
        "▁󰋆󰠢󰞹󰌠󰋖",
        -9.706178765841184
      ],
      [
        "▁󰧧󰡏",
        -9.706600465054139
      ],
      [
        "▁󰟎󰡈󰠇",
        -9.706780078449015
      ],
      [
        "▁󰋆󰟲󰟅󰣟",
        -9.707296008621327
      ],
      [
        "▁󰟡󰋖󰋝󰋩",
        -9.707569255269359
      ],
      [
        "󰋹󰋩",
        -9.707675083877874
      ],
      [
        "󰌨",
        -9.708525098298699
      ],
      [
        "▁󰋇󰞷󰋖󰟒",
        -9.708715690128756
      ],
      [
        "▁󰟏󰋺󰋹",
        -9.708992592738017
      ],
      [
        "▁󰟘󰞺",
        -9.709735124407509
      ],
      [
        "▁󰋺󰋈󰟆󰟉󰀌",
        -9.709899033973084
      ],
      [
        "▁󰣍󰋸󰋤",
        -9.711046140891026
      ],
      [
        "▁󰋖󰟛󰊴",
        -9.711229375332536
      ],
      [
        "▁󰟢󰋱󰟒",
        -9.711969758741924
      ],
      [
        "▁󰋱󰞾󰟉󰀌",
        -9.712289053374212
      ],
      [
        "▁󰋹󰥻󰋩",
        -9.712491746128375
      ],
      [
        "▁󰞸󰟅",
        -9.712856314696415
      ],
      [
        "▁󰟁󰟍󰋈",
        -9.713107884084144
      ],
      [
        "▁󰟀󰢙󰣝",
        -9.714252887687557
      ],
      [
        "▁󰡰󰞹",
        -9.714339324508462
      ],
      [
        "▁󰋆󰟲󰠒󰟨",
        -9.714732677507369
      ],
      [
        "▁󰋆󰟷󰩟󰠓",
        -9.714802136252063
      ],
      [
        "▁󰋇󰟜󰟈󰞼󰋱",
        -9.715241908741135
      ],
      [
        "󰡴",
        -9.715313789633628
      ],
      [
        "▁󰌩󰌰",
        -9.715874001243519
      ],
      [
        "▁󰞸󰣦󰋫󰟊",
        -9.716091127206052
      ],
      [
        "󰠲",
        -9.71620758270339
      ],
      [
        "󰌧",
        -9.716262952953985
      ],
      [
        "▁󰋹󰦼",
        -9.716657048176634
      ],
      [
        "▁󰟃󰟓󰟨",
        -9.717385111048014
      ],
      [
        "▁󰟱󰟞",
        -9.717545133144371
      ],
      [
        "▁󰋯󰡔󰋳",
        -9.718246324602992
      ],
      [
        "▁󰟤󰧆",
        -9.718407469725207
      ],
      [
        "▁󰠌󰠭󰟊󰋖",
        -9.718811074708846
      ],
      [
        "▁󰠭󰋸󰋖",
        -9.719159254388742
      ],
      [
        "▁󰢣󰡸",
        -9.720585788247625
      ],
      [
        "▁󰟗󰠣󰟆",
        -9.720603409401523
      ],
      [
        "󰠷󰋨",
        -9.723227778390156
      ],
      [
        "▁󰟼󰋭󰟏󰢈",
        -9.72349600162157
      ],
      [
        "▁󰋆󰠴󰋺󰋥",
        -9.72368020324659
      ],
      [
        "▁󰟏󰠠󰌏",
        -9.723790068188539
      ],
      [
        "󰁌󰁙",
        -9.72402772491977
      ],
      [
        "▁󰡦",
        -9.72424204785127
      ],
      [
        "▁󰟙󰞹",
        -9.724547288579945
      ],
      [
        "▁󰋝󰋘󰟂",
        -9.724580384049881
      ],
      [
        "▁󰟌󰥹󰋱",
        -9.72475939571294
      ],
      [
        "▁󰞿󰞾󰟉",
        -9.725042009503971
      ],
      [
        "▁󰟀󰤾",
        -9.725381849809615
      ],
      [
        "▁󰠊󰣜",
        -9.72544989134536
      ],
      [
        "▁󰋺󰋈󰞻󰋔",
        -9.72608960029429
      ],
      [
        "󰞸󰋯",
        -9.726447241754347
      ],
      [
        "▁󰟻󰟅󰋱",
        -9.726588304496484
      ],
      [
        "▁󰨋󰟽󰟷",
        -9.726811134494882
      ],
      [
        "󰢊",
        -9.727532583731085
      ],
      [
        "▁󰋱󰠬󰡶󰞹󰋦",
        -9.728045745434052
      ],
      [
        "▁󰟌󰠮󰥅",
        -9.728054725707183
      ],
      [
        "▁󰋛󰋳󰟇",
        -9.728208568978772
      ],
      [
        "▁󰞸󰟕󰋱",
        -9.728281775552903
      ],
      [
        "▁󰟃󰞺󰞻",
        -9.728337529565822
      ],
      [
        "▁󰋖󰋱󰟂󰋩",
        -9.72852032433506
      ],
      [
        "▁󰟃󰞼󰋷",
        -9.728910070097696
      ],
      [
        "▁󰋈󰋊",
        -9.728963739556523
      ],
      [
        "▁󰋊󰋫󰟄󰋷",
        -9.729616434330284
      ],
      [
        "󰟌󰟽",
        -9.72975797215087
      ],
      [
        "▁󰞿󰤗󰌠",
        -9.7303406016984
      ],
      [
        "▁󰋇󰋫󰢔",
        -9.730440549734537
      ],
      [
        "▁󰞽󰋧󰋖",
        -9.731034183668406
      ],
      [
        "▁󰟄󰟞󰋱",
        -9.731279982240762
      ],
      [
        "▁󰞸󰠆",
        -9.731544476038655
      ],
      [
        "▁󰋊󰌏󰋹󰋭",
        -9.732156755786905
      ],
      [
        "▁󰋇󰟋󰋈󰟪",
        -9.732377636781123
      ],
      [
        "󰟀󰠵",
        -9.73237913628297
      ],
      [
        "󰠾",
        -9.732594316248573
      ],
      [
        "▁󰌭󰌧",
        -9.732960851291782
      ],
      [
        "▁󰋹󰤈󰟝󰞾󰋱",
        -9.733473923847658
      ],
      [
        "󰡤",
        -9.733605539466383
      ],
      [
        "󰟁󰌠",
        -9.734199013127132
      ],
      [
        "▁󰟗󰞿󰠂",
        -9.734320486308109
      ],
      [
        "▁󰋆󰟯󰞽󰋩",
        -9.734403087992856
      ],
      [
        "▁󰋖󰡒󰡫󰠃",
        -9.735280787280265
      ],
      [
        "▁󰋨󰦸",
        -9.736498546625045
      ],
      [
        "▁󰥮󰋩",
        -9.736770023520078
      ],
      [
        "▁󰟋󰠝󰋳󰊴",
        -9.736838523047297
      ],
      [
        "▁󰞻󰟨",
        -9.736891254348063
      ],
      [
        "▁󰟶󰢒󰋱",
        -9.737161556142022
      ],
      [
        "󰋚",
        -9.738771143644085
      ],
      [
        "▁󰋫󰟿",
        -9.73926057140278
      ],
      [
        "▁󰞺󰥲",
        -9.739430963744276
      ],
      [
        "▁󰋇󰞷󰋖",
        -9.739520740242607
      ],
      [
        "▁󰟁󰋱󰞼",
        -9.740016958264306
      ],
      [
        "▁󰋫󰌝󰋳",
        -9.740068984839409
      ],
      [
        "▁󰧀󰣌",
        -9.740172778614967
      ],
      [
        "▁󰋆󰣡󰡓",
        -9.740489427000012
      ],
      [
        "▁󰠎",
        -9.7405912983808
      ],
      [
        "▁󰋭󰋳󰟉󰀌",
        -9.740710084332097
      ],
      [
        "▁󰋘󰡱",
        -9.741480433607745
      ],
      [
        "▁󰡔",
        -9.741507358617396
      ],
      [
        "▁󰞸󰋝󰟱󰡬",
        -9.742106149776514
      ],
      [
        "▁󰋆󰋭󰠈󰋱",
        -9.742116962430181
      ],
      [
        "▁󰋷󰠓",
        -9.742872010581513
      ],
      [
        "▁󰞼󰞸",
        -9.743057773123759
      ],
      [
        "▁󰋆󰋩",
        -9.744612937564503
      ],
      [
        "▁󰋝󰞻󰋱",
        -9.74537929013647
      ],
      [
        "▁󰋖󰋱󰊴",
        -9.74539381613183
      ],
      [
        "▁󰋔󰋫󰞷",
        -9.745871667529107
      ],
      [
        "▁󰋭󰋱",
        -9.745946281132452
      ],
      [
        "▁󰋊󰋡󰋳",
        -9.745992807674659
      ],
      [
        "▁󰋊󰌏󰋫󰠥",
        -9.74626995682994
      ],
      [
        "▁󰋖󰟈󰟆󰟉󰋩",
        -9.747090603293373
      ],
      [
        "▁󰋖󰣅󰋤",
        -9.747653970470674
      ],
      [
        "▁󰠜󰟒",
        -9.748125714822246
      ],
      [
        "󰋳󰀌",
        -9.74849046375066
      ],
      [
        "󰡧",
        -9.748977759345907
      ],
      [
        "▁󰋆󰟷",
        -9.749991413527535
      ],
      [
        "▁󰟎󰟊󰟶󰋨",
        -9.750179902910551
      ],
      [
        "󰠐",
        -9.750900204123395
      ],
      [
        "▁󰋇󰟃󰥢󰋱",
        -9.751224342581944
      ],
      [
        "▁󰋖󰋱󰟚",
        -9.751260747942538
      ],
      [
        "▁󰠚󰟨󰋱",
        -9.751428706456528
      ],
      [
        "▁󰟤󰟿󰟄󰋱",
        -9.751947255272185
      ],
      [
        "▁󰋺󰋈󰞻󰋩󰊴",
        -9.752069563734105
      ],
      [
        "▁󰋺󰋈󰟂󰟉",
        -9.752758057083668
      ],
      [
        "▁󰟼󰠔󰋥",
        -9.752933257738288
      ],
      [
        "▁󰋷󰞹󰠓",
        -9.753051715759272
      ],
      [
        "▁󰠁󰞾󰟉",
        -9.753578782022426
      ],
      [
        "▁󰞽󰟛󰋱",
        -9.753936238419795
      ],
      [
        "▁󰋗󰢜",
        -9.754176965296248
      ],
      [
        "▁󰋫󰢄",
        -9.754693883760119
      ],
      [
        "▁󰋹󰋯󰣀󰋱",
        -9.755094878140762
      ],
      [
        "▁󰋆󰣢󰋫󰋱",
        -9.755495048352897
      ],
      [
        "▁󰟀󰠩󰋭",
        -9.755800196880017
      ],
      [
        "▁󰋺󰞾󰟚󰋳󰀌",
        -9.757028136074222
      ],
      [
        "▁󰞼󰠫",
        -9.75763739556958
      ],
      [
        "▁󰋆󰟊󰡎󰋯",
        -9.758777479535784
      ],
      [
        "▁󰋊󰟌󰟝󰋩",
        -9.75944063432849
      ],
      [
        "▁󰟁󰟽󰟁󰠉",
        -9.759499551898006
      ],
      [
        "󰟖󰟆",
        -9.759518364780295
      ],
      [
        "▁󰋫󰋱󰋭󰤀󰟂",
        -9.759869531158545
      ],
      [
        "▁󰋢󰟋󰋱",
        -9.759893654322497
      ],
      [
        "▁󰋹󰧨󰠀",
        -9.760213231576605
      ],
      [
        "󰋭󰋳",
        -9.76092663894247
      ],
      [
        "▁󰀳",
        -9.761054390535142
      ],
      [
        "▁󰟥󰞿󰌠󰋱",
        -9.761565664612707
      ],
      [
        "▁󰋺󰋳󰀌",
        -9.761998284344829
      ],
      [
        "▁󰟢󰋳",
        -9.762352833010674
      ],
      [
        "▁󰋖󰞷󰟉󰀌",
        -9.762376830616459
      ],
      [
        "▁󰟔󰠜󰠇󰋤",
        -9.76293962244172
      ],
      [
        "▁󰋖󰟶󰞹󰋱",
        -9.762985274054987
      ],
      [
        "󰋫󰠋",
        -9.763643227154931
      ],
      [
        "▁󰋇󰥿",
        -9.764348807401733
      ],
      [
        "▁󰟃󰢏",
        -9.76688192956846
      ],
      [
        "▁󰦢󰋹",
        -9.767428654753166
      ],
      [
        "󰠥",
        -9.7679200617486
      ],
      [
        "▁󰟨󰟉󰋩",
        -9.768879102032487
      ],
      [
        "▁󰡲",
        -9.768973696048764
      ],
      [
        "▁󰟰󰋩",
        -9.76947423010503
      ],
      [
        "▁󰠴󰟌󰋱󰟙",
        -9.770297143298494
      ],
      [
        "󰟭",
        -9.7703292539639
      ],
      [
        "󰁵",
        -9.770724251879898
      ],
      [
        "▁󰨫󰟔",
        -9.771095797603042
      ],
      [
        "▁󰋖󰟗󰋷󰞹󰋱",
        -9.771847043312729
      ],
      [
        "󰋖󰋱󰋤",
        -9.771893028548298
      ],
      [
        "▁󰋈󰟊󰋯󰠙",
        -9.771948612271583
      ],
      [
        "▁󰋫󰟴󰠠󰌠",
        -9.77200152216649
      ],
      [
        "󰟲󰢔󰋖",
        -9.772382326968744
      ],
      [
        "▁󰟄󰋗",
        -9.772584438633187
      ],
      [
        "▁󰥌󰟭",
        -9.773457603970217
      ],
      [
        "▁󰋇󰋭",
        -9.773468774105899
      ],
      [
        "▁󰟞󰞻󰟝",
        -9.773612212683778
      ],
      [
        "▁󰋇󰋈󰋩󰠦󰠬",
        -9.774408587553468
      ],
      [
        "▁󰠀󰋳󰟂",
        -9.775286684541513
      ],
      [
        "▁󰞼󰋯󰞹",
        -9.775487769431862
      ],
      [
        "▁󰟤󰠠󰣨󰟄󰋱",
        -9.775556752656103
      ],
      [
        "▁󰤧󰞻󰋱",
        -9.775630176062919
      ],
      [
        "▁󰟃󰡖󰋱",
        -9.776260089372498
      ],
      [
        "▁󰟇󰟤󰋱󰟓󰋘",
        -9.776536434452098
      ],
      [
        "▁󰋨󰟈󰟆",
        -9.776784351043773
      ],
      [
        "▁󰠃󰪉󰋥",
        -9.776942350810094
      ],
      [
        "▁󰋥󰌏",
        -9.77714477793929
      ],
      [
        "▁󰋐󰋖󰋹󰠟",
        -9.777215206832894
      ],
      [
        "▁󰡫󰠫",
        -9.777318297610304
      ],
      [
        "▁󰟋󰋷",
        -9.777359312175125
      ],
      [
        "▁󰟝󰠬",
        -9.777367034755054
      ],
      [
        "▁󰞽󰟒󰟂",
        -9.77785650097636
      ],
      [
        "▁󰀑",
        -9.778349558407065
      ],
      [
        "󰠐󰋱",
        -9.778590377503088
      ],
      [
        "▁󰟁󰋫󰞽󰢽",
        -9.778754941934068
      ],
      [
        "▁󰋝󰋩󰞺",
        -9.778901349051907
      ],
      [
        "󰟏󰋱",
        -9.779121905486546
      ],
      [
        "▁󰟏󰟪󰣪󰋱",
        -9.779252443150455
      ],
      [
        "▁󰟎󰟊󰟇󰋧󰋩",
        -9.780127245033507
      ],
      [
        "▁󰟞󰟖",
        -9.780539692934392
      ],
      [
        "▁󰠍󰟁󰋱",
        -9.78122479342311
      ],
      [
        "▁󰋭󰋳󰞻󰀌",
        -9.78200844674315
      ],
      [
        "▁󰋺󰋈󰌠󰊴",
        -9.784082792878282
      ],
      [
        "▁󰋇󰋝󰋔",
        -9.78482986431152
      ],
      [
        "▁󰟃󰋫󰋧",
        -9.786825425796804
      ],
      [
        "▁󰟮󰟫󰠾󰋱",
        -9.78720600168522
      ],
      [
        "▁󰟅󰌠󰊴",
        -9.787241724113189
      ],
      [
        "▁󰟋󰋈󰋩",
        -9.787289787412963
      ],
      [
        "󰞽󰠋",
        -9.787649413848035
      ],
      [
        "▁󰋆󰋫",
        -9.788346895781261
      ],
      [
        "▁󰋖󰟈󰋳󰊴",
        -9.7884177597298
      ],
      [
        "▁󰧇󰋝",
        -9.788729810173823
      ],
      [
        "▁󰠽󰡨󰋩󰟁󰋱",
        -9.789414797707849
      ],
      [
        "󰡢",
        -9.789734587445446
      ],
      [
        "▁󰟃󰋭󰋱󰋤",
        -9.79032769809125
      ],
      [
        "▁󰋖󰟛󰋈",
        -9.791264245868781
      ],
      [
        "▁󰋮󰋘󰟀󰋩",
        -9.791576511312549
      ],
      [
        "▁󰞸󰠀󰋩",
        -9.791786098008966
      ],
      [
        "▁󰋆󰟺󰢓",
        -9.792116089074456
      ],
      [
        "▁󰋭󰌠󰡍",
        -9.792710561066317
      ],
      [
        "▁󰟎󰟊󰡻󰟅󰋱",
        -9.793121446147348
      ],
      [
        "▁󰡇",
        -9.793729059261745
      ],
      [
        "▁󰟃󰟄󰟠",
        -9.79395023345517
      ],
      [
        "󰁅󰁒",
        -9.794711616439471
      ],
      [
        "▁󰌩󰌧󰌨󰌯",
        -9.795007356674782
      ],
      [
        "▁󰟃󰠢",
        -9.795159474932682
      ],
      [
        "▁󰋫󰟈󰡯󰟊󰟂",
        -9.79558728108965
      ],
      [
        "▁󰋊󰋫󰋳󰪵",
        -9.795659373912214
      ],
      [
        "▁󰦆󰋩",
        -9.79659720490457
      ],
      [
        "▁󰟡󰞺󰞸",
        -9.79805023363099
      ],
      [
        "▁󰟳󰥓󰟊",
        -9.798423450355635
      ],
      [
        "▁󰟚󰞻󰋩󰀌",
        -9.798604820078411
      ],
      [
        "▁󰞸󰟤󰟆󰋱",
        -9.799110783724489
      ],
      [
        "▁󰟏󰡑",
        -9.79912340258564
      ],
      [
        "▁󰋫󰟈󰡘󰋘",
        -9.800229792019456
      ],
      [
        "▁󰞿󰣖󰡏",
        -9.800239573606541
      ],
      [
        "▁󰋯󰟍󰋷󰌠",
        -9.800710711364317
      ],
      [
        "▁󰟀󰋯",
        -9.800923034392
      ],
      [
        "▁󰋯󰢌󰠶󰋳󰞾󰋱",
        -9.801268988433927
      ],
      [
        "▁󰋇󰟐󰋩",
        -9.802872906824307
      ],
      [
        "▁󰋨",
        -9.803107760530148
      ],
      [
        "▁󰁏󰁎",
        -9.80375538083365
      ],
      [
        "▁󰋹󰋺󰟦",
        -9.803836291869493
      ],
      [
        "▁󰡃󰡏",
        -9.803952550746429
      ],
      [
        "▁󰋊󰩢󰋨󰋩",
        -9.803958296057145
      ],
      [
        "▁󰟃󰡖󰟈󰋥",
        -9.804090367492108
      ],
      [
        "▁󰡐",
        -9.804204578866997
      ],
      [
        "▁󰡇󰟐",
        -9.804575881064277
      ],
      [
        "▁󰞿󰧙󰟈󰋥",
        -9.804586620514758
      ],
      [
        "▁󰟉󰞻󰋱",
        -9.805003434467773
      ],
      [
        "▁󰋙󰥽󰌠",
        -9.80595660303163
      ],
      [
        "▁󰢗󰌞",
        -9.806180252949877
      ],
      [
        "▁󰋖󰟈󰟇",
        -9.806725178782413
      ],
      [
        "▁󰋥󰠊󰋔",
        -9.807406875368892
      ],
      [
        "▁󰣿󰥓󰟊󰋖",
        -9.8075996424012
      ],
      [
        "▁󰡳",
        -9.807970346754097
      ],
      [
        "▁󰟮󰋱󰠄",
        -9.808016084126372
      ],
      [
        "▁󰋘󰟫",
        -9.808094927239853
      ],
      [
        "▁󰡛",
        -9.80832658996713
      ],
      [
        "▁󰟌󰋖",
        -9.808472872663325
      ],
      [
        "󰠒󰣛",
        -9.808538189855579
      ],
      [
        "▁󰢆󰋠",
        -9.808762939713201
      ],
      [
        "▁󰞹󰟴󰟄󰋱",
        -9.809814937892527
      ],
      [
        "▁󰋩󰋘󰋱",
        -9.809995728671128
      ],
      [
        "▁󰋆󰠧󰟐",
        -9.810340924120894
      ],
      [
        "󰁎",
        -9.810520245279967
      ],
      [
        "▁󰟦󰞻",
        -9.810889585763634
      ],
      [
        "▁󰞿󰟁󰟷",
        -9.810962191972585
      ],
      [
        "▁󰞽󰋳",
        -9.811410454164996
      ],
      [
        "▁󰋹󰤛󰋺",
        -9.811425008659475
      ],
      [
        "▁󰋖󰞷󰟚",
        -9.812033474056419
      ],
      [
        "▁󰋬",
        -9.81212336004635
      ],
      [
        "▁󰋭󰋳󰟉",
        -9.812480483195595
      ],
      [
        "▁󰋬󰟋󰋬󰋳",
        -9.812647965409452
      ],
      [
        "󰤰",
        -9.813746189433541
      ],
      [
        "󰁉",
        -9.814041178663595
      ],
      [
        "▁󰨣󰋫",
        -9.814149866912038
      ],
      [
        "▁󰞼󰋘󰋝",
        -9.814212235726472
      ],
      [
        "▁󰋇󰟏󰟗",
        -9.81484016580727
      ],
      [
        "▁󰟤󰟿󰋱",
        -9.815139675976921
      ],
      [
        "▁󰤣",
        -9.815199744382518
      ],
      [
        "▁󰟳󰋘󰋡󰟅󰋱",
        -9.815292797398826
      ],
      [
        "▁󰡧󰋖",
        -9.815496280868595
      ],
      [
        "▁󰠣󰠆󰟙󰋳",
        -9.81583949413316
      ],
      [
        "▁󰧄󰋹",
        -9.8161899815755
      ],
      [
        "󰟚󰋳󰊴",
        -9.816570494085207
      ],
      [
        "▁󰋇󰟜󰟈󰞼",
        -9.816822368824143
      ],
      [
        "▁󰟝󰟫󰋤",
        -9.816877641511898
      ],
      [
        "▁󰢾󰟠",
        -9.817394212776904
      ],
      [
        "▁󰋇󰋩",
        -9.81889899740974
      ],
      [
        "▁󰋺󰡘󰋱",
        -9.819211380358563
      ],
      [
        "▁󰡰󰞹󰋱",
        -9.819311438652816
      ],
      [
        "▁󰟄󰋭󰟁",
        -9.81988252851425
      ],
      [
        "▁󰋘󰋤",
        -9.820638536110932
      ],
      [
        "▁󰋇󰟝󰋳󰟂󰋱",
        -9.82068959899848
      ],
      [
        "▁󰋯󰢝󰟝",
        -9.82131923354276
      ],
      [
        "▁󰠁󰞷",
        -9.821326921721628
      ],
      [
        "▁󰋆󰟅󰞺󰋱",
        -9.821448699043888
      ],
      [
        "▁󰢂󰟤󰪤",
        -9.82245066498891
      ],
      [
        "▁󰟼󰟛",
        -9.823316445628475
      ],
      [
        "▁󰋊󰋫󰟍󰋱",
        -9.824078589956052
      ],
      [
        "▁󰋹󰢬󰋭󰋥",
        -9.824274266460952
      ],
      [
        "▁󰀩",
        -9.824775318591861
      ],
      [
        "▁󰞸󰟅󰋱",
        -9.824921209577122
      ],
      [
        "▁󰋈󰟊󰟍󰟐󰋱",
        -9.826095452835334
      ],
      [
        "▁󰡥",
        -9.826518493258018
      ],
      [
        "▁󰋹󰌏",
        -9.827700417799944
      ],
      [
        "▁󰋝󰟫󰟈",
        -9.827714453164548
      ],
      [
        "▁󰦏󰋯󰋤",
        -9.827745572527562
      ],
      [
        "▁󰠊󰋖",
        -9.82784892017864
      ],
      [
        "▁󰟑󰋩󰊴",
        -9.827904867693356
      ],
      [
        "▁󰠵󰣹󰟑󰋩",
        -9.828480448652483
      ],
      [
        "󰧥",
        -9.828653411739573
      ],
      [
        "󰡚",
        -9.829494760966497
      ],
      [
        "▁󰋖󰟈󰋳",
        -9.829535133726443
      ],
      [
        "▁󰟮󰟶󰟮󰟈",
        -9.829683811461368
      ],
      [
        "▁󰋊󰋫󰟦󰟋󰌠",
        -9.830868416464257
      ],
      [
        "▁󰋹󰥪󰋈",
        -9.831099690260118
      ],
      [
        "▁󰋆󰟲",
        -9.831115930742508
      ],
      [
        "▁󰋺󰟡󰀌",
        -9.831255407454943
      ],
      [
        "▁󰞼󰢝󰋳󰞾",
        -9.831693419714073
      ],
      [
        "▁󰋩󰟬󰞹",
        -9.832041824829584
      ],
      [
        "▁󰟃󰠃󰠋",
        -9.832165701778901
      ],
      [
        "▁󰋹󰋱󰞼󰋱󰊴",
        -9.83269055378657
      ],
      [
        "▁󰞽󰢽",
        -9.83323599504647
      ],
      [
        "▁󰞼󰠦",
        -9.83408029361154
      ],
      [
        "▁󰋊󰌏󰋹",
        -9.834720054417463
      ],
      [
        "󰋷󰠘",
        -9.834809175610635
      ],
      [
        "▁󰟃󰋸",
        -9.835069334066615
      ],
      [
        "▁󰞽󰋡",
        -9.835228993050588
      ],
      [
        "▁󰟕󰟍󰋝",
        -9.836961010655685
      ],
      [
        "▁󰩅",
        -9.836974480787488
      ],
      [
        "▁󰟌󰞾󰋱",
        -9.837060360194132
      ],
      [
        "▁󰞸󰡖󰋱",
        -9.837213434308126
      ],
      [
        "▁󰋧󰟆",
        -9.837463088525638
      ],
      [
        "▁󰋹󰟗󰟊󰋱",
        -9.837550952833189
      ],
      [
        "▁󰞼󰟅",
        -9.837716273613836
      ],
      [
        "▁󰡲󰠎󰋱",
        -9.837793080309673
      ],
      [
        "▁󰋭󰋺󰋩",
        -9.838689992879413
      ],
      [
        "▁󰋯󰡆󰋳",
        -9.83915009652533
      ],
      [
        "▁󰞿󰧦",
        -9.83979285954103
      ],
      [
        "▁󰟸󰡟󰋳",
        -9.840810936290936
      ],
      [
        "󰣸",
        -9.841088837640303
      ],
      [
        "󰡬",
        -9.841900714936608
      ],
      [
        "▁󰟐󰋩",
        -9.842798405190372
      ],
      [
        "▁󰟌󰋱󰟇󰋩󰊴",
        -9.843094924569057
      ],
      [
        "▁󰦌",
        -9.844281937428816
      ],
      [
        "▁󰋺󰋈󰟀󰋱",
        -9.844337157637224
      ],
      [
        "▁󰋹󰋺󰟦󰋈",
        -9.844700305478176
      ],
      [
        "▁󰤻󰋷󰋳",
        -9.845193795659055
      ],
      [
        "▁󰟢󰋸",
        -9.84560947513912
      ],
      [
        "󰠁󰋱",
        -9.845662807075758
      ],
      [
        "▁󰋹󰡟󰟠󰋸",
        -9.845843080712232
      ],
      [
        "▁󰟑󰞾󰟚󰞻󰋩",
        -9.846043879660774
      ],
      [
        "▁󰠷󰣗",
        -9.846121663224272
      ],
      [
        "▁󰠌󰌠󰋈",
        -9.846470767534111
      ],
      [
        "▁󰠰󰞾󰣱",
        -9.848273395876847
      ],
      [
        "▁󰥌󰌠󰋧",
        -9.848424078732695
      ],
      [
        "▁󰋹󰋧󰢘󰟄󰋱",
        -9.848468972995658
      ],
      [
        "▁󰋫󰠉󰟆",
        -9.848691547814761
      ],
      [
        "▁󰟸󰀇",
        -9.849619108673663
      ],
      [
        "▁󰟑󰠤",
        -9.849734055590611
      ],
      [
        "󰋹󰠺󰠖󰋱",
        -9.850634975340418
      ],
      [
        "▁󰋛󰟖󰟆",
        -9.85140201249029
      ],
      [
        "▁󰋭󰡄",
        -9.851795433346373
      ],
      [
        "󰋫󰟈",
        -9.852139452196628
      ],
      [
        "▁󰟀󰡾",
        -9.85299658590769
      ],
      [
        "▁󰟃󰥃",
        -9.853311141202125
      ],
      [
        "▁󰋖󰋱󰋭",
        -9.854277058654061
      ],
      [
        "▁󰋖󰟶",
        -9.855146038562866
      ],
      [
        "󰞼󰠡󰋩",
        -9.85515565667657
      ],
      [
        "▁󰡳󰋖󰀌",
        -9.855271469343675
      ],
      [
        "▁󰋭󰟖󰋳",
        -9.855646755958489
      ],
      [
        "▁󰞿󰌠󰢌󰠐",
        -9.8567264889868
      ],
      [
        "▁󰋐󰋯󰞿",
        -9.85690727581235
      ],
      [
        "▁󰋆󰢂󰋨",
        -9.85710576940832
      ],
      [
        "▁󰋮󰋱󰟏",
        -9.85720205498215
      ],
      [
        "󰁏",
        -9.857450866515185
      ],
      [
        "▁󰋆󰋩󰟷",
        -9.857620961705063
      ],
      [
        "▁󰋩󰋝󰟫󰋳",
        -9.857990566445384
      ],
      [
        "▁󰟼󰋭󰟍󰞷󰋱",
        -9.858375030061818
      ],
      [
        "▁󰋇󰟖",
        -9.858379526763832
      ],
      [
        "▁󰟸󰟮󰋱",
        -9.858385100509405
      ],
      [
        "▁󰋛󰟋󰋛󰋳",
        -9.85859719364668
      ],
      [
        "󰟀󰠊󰋱",
        -9.858697605462208
      ],
      [
        "󰋯󰋥",
        -9.858924448266812
      ],
      [
        "▁󰌮󰌧",
        -9.859360938174532
      ],
      [
        "▁󰋇󰋹󰟅",
        -9.859659110239539
      ],
      [
        "▁󰋆󰟯󰟀󰋧",
        -9.859729137432105
      ],
      [
        "▁󰫑",
        -9.859973654612894
      ],
      [
        "▁󰟳󰥓󰋥",
        -9.860369005976008
      ],
      [
        "▁󰤆󰋱",
        -9.860787833750857
      ],
      [
        "▁󰋹󰋬󰞷",
        -9.861072346108287
      ],
      [
        "▁󰣿󰟀󰟑󰋖󰟄󰋱",
        -9.861079475527102
      ],
      [
        "▁󰀇󰋇󰟗",
        -9.861108721903316
      ],
      [
        "▁󰋮󰟆󰋭󰋺",
        -9.86155246928292
      ],
      [
        "▁󰋹󰦔",
        -9.862704088031563
      ],
      [
        "▁󰋨󰟭󰟀󰋧",
        -9.863494537165247
      ],
      [
        "▁󰞺󰋩󰀌",
        -9.86400930329876
      ],
      [
        "▁󰟿󰞾",
        -9.86447526737664
      ],
      [
        "󰟮󰞷",
        -9.864570827947379
      ],
      [
        "▁󰋱󰋺󰞽󰟅󰋱",
        -9.864636473378349
      ],
      [
        "▁󰠌󰡾",
        -9.865140805572386
      ],
      [
        "▁󰋥󰌏󰞼󰠡󰋩",
        -9.865348127807106
      ],
      [
        "▁󰞿󰤯󰋷󰞹",
        -9.865647014964972
      ],
      [
        "▁󰋭󰟖󰞻󰋩",
        -9.865986889034208
      ],
      [
        "▁󰟎󰟰󰋩󰋯󰢐󰋱",
        -9.866545386300777
      ],
      [
        "▁󰋮󰞷",
        -9.866650460665124
      ],
      [
        "󰌩",
        -9.86685721308907
      ],
      [
        "▁󰟮󰤶",
        -9.867264784480678
      ],
      [
        "󰋱󰋤",
        -9.86754565633761
      ],
      [
        "▁󰟎󰟊󰟇󰋧󰟅",
        -9.867576600769176
      ],
      [
        "▁󰠨󰋱󰋤",
        -9.868767822249003
      ],
      [
        "▁󰟬󰋹󰋳󰞽󰋩󰟄󰋱",
        -9.868921369460157
      ],
      [
        "▁󰋧󰡂",
        -9.869045082135365
      ],
      [
        "▁󰟃󰋖󰡣",
        -9.869453981386306
      ],
      [
        "▁󰟋󰋘󰋳",
        -9.869510084832049
      ],
      [
        "▁󰠷󰋩",
        -9.869759515993657
      ],
      [
        "▁󰋈󰞿",
        -9.870488253571141
      ],
      [
        "▁󰋆󰋩󰟋󰋈󰋩",
        -9.871295489525494
      ],
      [
        "▁󰋈󰤬󰋥",
        -9.872052334637223
      ],
      [
        "▁󰌪󰌬",
        -9.87218939264851
      ],
      [
        "▁󰟿󰞿󰟆",
        -9.873343646598755
      ],
      [
        "▁󰟧󰢨󰞿󰋱",
        -9.873364277407248
      ],
      [
        "▁󰋫󰟈󰋭󰥨",
        -9.873548257923902
      ],
      [
        "▁󰟓󰋱󰠌󰡽",
        -9.873884885059656
      ],
      [
        "▁󰟍󰞷",
        -9.874631963637562
      ],
      [
        "▁󰞷󰋳",
        -9.874696321113438
      ],
      [
        "▁󰡔󰫐",
        -9.875258061361338
      ],
      [
        "▁󰋫󰟈󰋭󰋺󰋩",
        -9.87564289947163
      ],
      [
        "▁󰋊󰡂󰋯",
        -9.876325714766741
      ],
      [
        "▁󰟃󰪃󰋥",
        -9.876675488547127
      ],
      [
        "▁󰟸󰋨",
        -9.876780777994739
      ],
      [
        "▁󰟎󰋖󰥯󰋱",
        -9.87719886477772
      ],
      [
        "▁󰠺󰣶",
        -9.877310298312233
      ],
      [
        "▁󰋊󰦑󰟨",
        -9.87731546619667
      ],
      [
        "▁󰋺󰟹󰊴",
        -9.878685133109546
      ],
      [
        "▁󰟢󰟌",
        -9.879024458186459
      ],
      [
        "▁󰋱󰥵󰋱",
        -9.87931747331455
      ],
      [
        "▁󰋫󰪩",
        -9.879357852930697
      ],
      [
        "▁󰞿󰧙󰋱󰋤",
        -9.879482624800442
      ],
      [
        "▁󰋇󰋔󰟁󰌠",
        -9.880024370642955
      ],
      [
        "▁󰟏󰟽",
        -9.880131153386527
      ],
      [
        "▁󰢻󰥈",
        -9.880139484805957
      ],
      [
        "▁󰤫󰋭",
        -9.880775331504264
      ],
      [
        "▁󰋭󰟅",
        -9.881306744188102
      ],
      [
        "▁󰋩󰞷󰡶",
        -9.882443521238741
      ],
      [
        "▁󰋇󰦻",
        -9.882478269640474
      ],
      [
        "▁󰞼󰋯",
        -9.88292069610448
      ],
      [
        "▁󰟄󰋗󰞻",
        -9.883759840804323
      ],
      [
        "▁󰟸󰩠󰟊",
        -9.883819278824548
      ],
      [
        "▁󰠱󰋥󰢌",
        -9.883927089593438
      ],
      [
        "▁󰦟󰞼",
        -9.8841233880573
      ],
      [
        "󰋹󰀌",
        -9.88415737352895
      ],
      [
        "▁󰋨󰋱󰟂",
        -9.884298661812757
      ],
      [
        "▁󰞽󰟯󰋸󰊴",
        -9.884448524028121
      ],
      [
        "▁󰋺󰋈󰟇󰀌",
        -9.884843966894225
      ],
      [
        "󰢦",
        -9.88514242111753
      ],
      [
        "▁󰋹󰢁󰌠",
        -9.885361152043455
      ],
      [
        "▁󰋖󰩳",
        -9.885526596227061
      ],
      [
        "▁󰋹󰦼󰌠",
        -9.88613513381198
      ],
      [
        "▁󰟰󰞷",
        -9.887510870500112
      ],
      [
        "󰟝󰋩",
        -9.887870218916106
      ],
      [
        "▁󰟎󰋧󰡸󰋩",
        -9.888055663294471
      ],
      [
        "▁󰠝󰞾󰟚󰋳",
        -9.888427696415569
      ],
      [
        "▁󰟢󰟋󰠄",
        -9.889417422469293
      ],
      [
        "▁󰋯󰢌",
        -9.889490634283906
      ],
      [
        "▁󰋺󰋈󰟆󰟚󰋳󰊴",
        -9.8895576112271
      ],
      [
        "󰋛󰡶",
        -9.889825525915686
      ],
      [
        "▁󰟄󰡉󰋩",
        -9.890225964547605
      ],
      [
        "▁󰋇󰟗󰋔",
        -9.890312968430658
      ],
      [
        "▁󰋊󰥫󰋝󰞹",
        -9.890520912898834
      ],
      [
        "▁󰟏󰠖󰟇󰋱",
        -9.891267883567759
      ],
      [
        "󰟬󰠓",
        -9.892036392136232
      ],
      [
        "▁󰞿󰟗󰡂",
        -9.892961945736063
      ],
      [
        "▁󰟶󰟪󰢹",
        -9.892966443225628
      ],
      [
        "▁󰟎󰟱󰋹󰋩",
        -9.893518923341352
      ],
      [
        "▁󰟁󰟈󰠀",
        -9.893681366453801
      ],
      [
        "▁󰋯󰠄",
        -9.894299287655073
      ],
      [
        "󰟞󰞹",
        -9.894587642735255
      ],
      [
        "▁󰟳󰠒󰋘",
        -9.89511075880908
      ],
      [
        "󰟵󰟡󰞺",
        -9.895112373431129
      ],
      [
        "▁󰟌󰟍󰌝",
        -9.896043064785802
      ],
      [
        "▁󰁆󰁏󰁒",
        -9.89614731332374
      ],
      [
        "▁󰟌󰠿󰞾",
        -9.896255355344058
      ],
      [
        "▁󰞿󰋖󰠂",
        -9.896628304880398
      ],
      [
        "▁󰞿󰧤󰋥",
        -9.896783869382494
      ],
      [
        "󰋙",
        -9.896860475571376
      ],
      [
        "▁󰋐󰞼󰟷",
        -9.89715510555116
      ],
      [
        "▁󰟧󰋛",
        -9.897680606114314
      ],
      [
        "▁󰠻󰋯󰟔",
        -9.897787133283813
      ],
      [
        "▁󰞺󰥲󰋱",
        -9.898312458953226
      ],
      [
        "▁󰠚󰠓󰞸󰣦",
        -9.898896550847105
      ],
      [
        "▁󰡍󰞽",
        -9.899103714375446
      ],
      [
        "▁󰟇󰋥󰋩",
        -9.899454303166408
      ],
      [
        "▁󰟎󰟱󰋹󰟅󰋱",
        -9.899659013260923
      ],
      [
        "▁󰋹󰧑󰋠",
        -9.900225018445402
      ],
      [
        "▁󰋆󰠮󰟾󰟊",
        -9.900358252152206
      ],
      [
        "󰡋󰋱",
        -9.901014969861242
      ],
      [
        "▁󰟅󰟆󰋱",
        -9.901237917536001
      ],
      [
        "▁󰟌󰟠󰋱",
        -9.901385211416429
      ],
      [
        "󰋯󰋩",
        -9.901570901090267
      ],
      [
        "▁󰢩󰋸",
        -9.901769693868957
      ],
      [
        "▁󰟛󰟔󰟂",
        -9.901829318977144
      ],
      [
        "▁󰟳󰠚󰠓",
        -9.901833516261123
      ],
      [
        "▁󰟛󰋖",
        -9.902206709967365
      ],
      [
        "󰟋󰋯",
        -9.90227755464282
      ],
      [
        "▁󰟬󰟍󰤇󰋧",
        -9.90248615268369
      ],
      [
        "▁󰋥󰋗󰋩󰋔",
        -9.902739799973022
      ],
      [
        "▁󰋊󰋫󰡡󰋹",
        -9.903430799800129
      ],
      [
        "󰋩󰠼",
        -9.90432905456139
      ],
      [
        "▁󰪁󰡹",
        -9.904406785794393
      ],
      [
        "▁󰟃󰡋󰞼󰋫",
        -9.905144348911941
      ],
      [
        "▁󰋇󰟋󰋫",
        -9.905358378821541
      ],
      [
        "▁󰞿󰞾󰋈",
        -9.905651545756594
      ],
      [
        "▁󰋫󰢄󰋯",
        -9.905651963730469
      ],
      [
        "󰟢󰋱",
        -9.905710227850268
      ],
      [
        "▁󰠬󰋝",
        -9.905915675256237
      ],
      [
        "▁󰋺󰋈",
        -9.906748143689608
      ],
      [
        "▁󰋊󰟝󰋺󰋱󰋤",
        -9.907016544690766
      ],
      [
        "▁󰟎󰟊󰢁󰟆",
        -9.90793357591798
      ],
      [
        "▁󰋭󰋹󰟀󰋹",
        -9.909362441382399
      ],
      [
        "󰤣",
        -9.909389877468072
      ],
      [
        "▁󰞸󰞾󰋱",
        -9.90950848286941
      ],
      [
        "▁󰟳󰡕󰋯",
        -9.910269864724638
      ],
      [
        "▁󰋛󰤟",
        -9.910549859433043
      ],
      [
        "▁󰡺󰠂󰋱",
        -9.910725597336866
      ],
      [
        "󰩝",
        -9.91073999095879
      ],
      [
        "▁󰁗󰁉󰁔󰁈",
        -9.911345392613134
      ],
      [
        "▁󰞼󰠞󰞼󰟚",
        -9.912097280499555
      ],
      [
        "▁󰋭󰧟",
        -9.912419087610397
      ],
      [
        "▁󰞽󰋔󰟋󰞹",
        -9.912537784372802
      ],
      [
        "▁󰟕󰋩",
        -9.912862447952607
      ],
      [
        "▁󰋝󰟒󰋳",
        -9.91300259037307
      ],
      [
        "▁󰋺󰋈󰋳󰀌",
        -9.913071857593911
      ],
      [
        "▁󰋖󰦸",
        -9.91314309012833
      ],
      [
        "▁󰡃󰋺󰌏",
        -9.913369494874363
      ],
      [
        "▁󰋹󰠎󰋥󰋩",
        -9.913380043155868
      ],
      [
        "▁󰟌󰋦󰋱",
        -9.914005330606424
      ],
      [
        "▁󰋫󰞸󰠆󰋥",
        -9.914141635597282
      ],
      [
        "▁󰌩󰌧󰌩󰌧",
        -9.914305111304555
      ],
      [
        "▁󰌩󰌧󰌨󰌰",
        -9.914511671000636
      ],
      [
        "▁󰥗󰟖󰋖",
        -9.914751784542085
      ],
      [
        "▁󰤥󰋺",
        -9.915320640127664
      ],
      [
        "▁󰟸󰀇󰟒",
        -9.915577827766695
      ],
      [
        "▁󰋹󰦰󰋳󰋩",
        -9.915737768749297
      ],
      [
        "▁󰋫󰦷󰋩",
        -9.916236076177876
      ],
      [
        "▁󰟕󰣓󰋩",
        -9.91629514033006
      ],
      [
        "▁󰠃󰩀",
        -9.916347794364668
      ],
      [
        "▁󰟬󰠘󰠒󰢋",
        -9.916692279006588
      ],
      [
        "󰧕",
        -9.917788381382408
      ],
      [
        "▁󰠲󰋱󰋥",
        -9.917795853779301
      ],
      [
        "▁󰋆󰡡󰌠",
        -9.918599921647829
      ],
      [
        "󰤌󰋱",
        -9.918863744560499
      ],
      [
        "▁󰟸󰣹󰋠󰞹",
        -9.918903029496983
      ],
      [
        "▁󰀇󰋐",
        -9.91890810059123
      ],
      [
        "󰋫󰋧",
        -9.919173912428699
      ],
      [
        "▁󰟌󰞸",
        -9.91922134717325
      ],
      [
        "▁󰋖󰞻󰟦",
        -9.919578021434248
      ],
      [
        "▁󰟅󰟁󰟄󰋱",
        -9.919811973406286
      ],
      [
        "▁󰋆󰋹󰢬󰋭",
        -9.919927447528675
      ],
      [
        "▁󰋆󰠢󰞼󰟴",
        -9.92042496420325
      ],
      [
        "▁󰋹󰋖󰋳󰞺",
        -9.920758665865497
      ],
      [
        "▁󰠲󰋹󰠊󰋖",
        -9.92118299637081
      ],
      [
        "▁󰋖󰋱󰋥",
        -9.921512664150814
      ],
      [
        "▁󰢂󰡌󰞿󰋖",
        -9.921748841272217
      ],
      [
        "▁󰋆󰟯󰠛󰋧󰋩",
        -9.922246053060828
      ],
      [
        "▁󰡹",
        -9.922927760345948
      ],
      [
        "▁󰡉󰋳󰞹",
        -9.92322499053504
      ],
      [
        "󰟍󰋱",
        -9.923290552459482
      ],
      [
        "▁󰟝󰋔",
        -9.923702104054922
      ],
      [
        "▁󰟃󰟄󰡅",
        -9.923832797850835
      ],
      [
        "󰟵󰟖󰞺",
        -9.923917677045871
      ],
      [
        "▁󰟓󰟴",
        -9.924227177367115
      ],
      [
        "▁󰤘󰠖",
        -9.92530407980054
      ],
      [
        "󰟚󰞻󰋩",
        -9.925849921045442
      ],
      [
        "▁󰟜󰟋",
        -9.925854124209083
      ],
      [
        "▁󰟗󰠋",
        -9.926025911679629
      ],
      [
        "▁󰟓󰋭󰞹",
        -9.92642386145444
      ],
      [
        "▁󰠨",
        -9.926966557252115
      ],
      [
        "▁󰞽󰡊󰟗󰋖",
        -9.927045445622406
      ],
      [
        "▁󰠲󰟋",
        -9.927788961898669
      ],
      [
        "▁󰡴",
        -9.927864972924452
      ],
      [
        "▁󰋰󰢌",
        -9.928257150453032
      ],
      [
        "▁󰟰󰦡",
        -9.928353704601001
      ],
      [
        "󰞿󰟆",
        -9.928601990848865
      ],
      [
        "▁󰋜󰟃󰟒",
        -9.928638514819568
      ],
      [
        "▁󰟓󰋈󰞸󰋹",
        -9.929239757840948
      ],
      [
        "▁󰟏󰋬󰣬",
        -9.929468958663902
      ],
      [
        "󰡦",
        -9.929642318249627
      ],
      [
        "▁󰣻󰋧󰞾",
        -9.930057307775117
      ],
      [
        "▁󰟒󰋯",
        -9.930545974583566
      ],
      [
        "󰞸󰋈",
        -9.930571439909809
      ],
      [
        "▁󰋊󰣮󰤎󰀌",
        -9.930738140357878
      ],
      [
        "▁󰟟󰟙",
        -9.932506194223059
      ],
      [
        "▁󰋔󰞺",
        -9.93259828138298
      ],
      [
        "▁󰠆󰟆",
        -9.93289832853308
      ],
      [
        "▁󰟕󰞿󰞾󰟉󰀌",
        -9.933464090840191
      ],
      [
        "▁󰋖󰋱󰋳󰊴",
        -9.934099380084755
      ],
      [
        "▁󰋺󰀇󰞾",
        -9.93414136962799
      ],
      [
        "▁󰟅󰋩󰊴",
        -9.93432720625624
      ],
      [
        "▁󰋖󰟈󰟇󰊴",
        -9.934497381177696
      ],
      [
        "▁󰟝󰟝",
        -9.935213682689255
      ],
      [
        "▁󰋇󰋭󰟍󰋔󰟆",
        -9.935721101710437
      ],
      [
        "▁󰟘󰟍󰋱",
        -9.936280181527898
      ],
      [
        "󰟡󰋖",
        -9.936619130787067
      ],
      [
        "▁󰋧󰋱󰞼󰋱󰊴",
        -9.937101256459714
      ],
      [
        "▁󰞸󰟂󰋱",
        -9.937343192346125
      ],
      [
        "▁󰠚󰋭",
        -9.937366641333153
      ],
      [
        "▁󰞸󰢷",
        -9.937438191569974
      ],
      [
        "▁󰟲󰌝",
        -9.937709790550453
      ],
      [
        "▁󰋹󰡜󰢔",
        -9.937798751526914
      ],
      [
        "▁󰋹󰢱󰟅󰋱",
        -9.937876330994278
      ],
      [
        "▁󰋔󰟞󰟅",
        -9.938089745845893
      ],
      [
        "󰀁󰀇",
        -9.938929897790038
      ],
      [
        "▁󰠇󰋯󰟁󰌠",
        -9.939098225149985
      ],
      [
        "▁󰠲",
        -9.939307408922081
      ],
      [
        "󰋠󰊴",
        -9.94002644776994
      ],
      [
        "▁󰞽󰋈󰋳",
        -9.940159421635325
      ],
      [
        "▁󰞽󰟒󰋱",
        -9.940794400428352
      ],
      [
        "▁󰟳󰋖󰋠",
        -9.941256763499656
      ],
      [
        "▁󰟨󰟉󰋩󰊴",
        -9.941601837229522
      ],
      [
        "▁󰟀󰟥󰣱",
        -9.941771717378101
      ],
      [
        "▁󰋈󰋊󰟶󰣵󰌠",
        -9.941934656936041
      ],
      [
        "󰔟",
        -9.942128709216535
      ],
      [
        "󰢵",
        -9.9423242257002
      ],
      [
        "󰟾󰌠",
        -9.942392719088923
      ],
      [
        "▁󰋇󰤗󰠫",
        -9.942521904892583
      ],
      [
        "▁󰋇󰞼󰟠",
        -9.942913219675335
      ],
      [
        "▁󰋹󰡜󰤚󰋥",
        -9.943309869208225
      ],
      [
        "▁󰩍󰟽",
        -9.944701156257308
      ],
      [
        "󰞹󰊴",
        -9.944724719418845
      ],
      [
        "▁󰡞󰀟",
        -9.945074211207203
      ],
      [
        "▁󰡰󰟕",
        -9.945408420827901
      ],
      [
        "▁󰞸󰤄",
        -9.945591327190856
      ],
      [
        "▁󰟐󰠅",
        -9.946057227449765
      ],
      [
        "▁󰋖󰦇",
        -9.946110697482057
      ],
      [
        "▁󰟸󰋝󰋩",
        -9.946276093890337
      ],
      [
        "▁󰋭󰪨󰟁",
        -9.946664947129923
      ],
      [
        "▁󰞼󰣗",
        -9.947270038807556
      ],
      [
        "󰟮󰞷󰋱",
        -9.947588376841802
      ],
      [
        "▁󰋈󰟍󰋈",
        -9.947895669660575
      ],
      [
        "󰢒",
        -9.94858847220419
      ],
      [
        "▁󰡍󰞽󰟷",
        -9.949084545277183
      ],
      [
        "󰀎󰀎",
        -9.94974770133658
      ],
      [
        "▁󰋆󰥟",
        -9.950331673673674
      ],
      [
        "▁󰟎󰋛󰢜",
        -9.950585880209056
      ],
      [
        "▁󰋛󰞻󰟉󰊴",
        -9.951075262859346
      ],
      [
        "󰩯",
        -9.95111173804111
      ],
      [
        "▁󰋥󰋥",
        -9.951301545294973
      ],
      [
        "󰡲󰋩",
        -9.951445482625354
      ],
      [
        "▁󰋘󰌝",
        -9.951866426382914
      ],
      [
        "▁󰞿󰢝󰋥󰋩",
        -9.952243676538123
      ],
      [
        "▁󰟃󰋸󰞾󰋱",
        -9.952863151537157
      ],
      [
        "󰁋",
        -9.952960189198462
      ],
      [
        "▁󰋝󰟀󰟇",
        -9.953011626298414
      ],
      [
        "▁󰟔󰟅",
        -9.95314037531817
      ],
      [
        "▁󰢁󰟆",
        -9.953209366676147
      ],
      [
        "󰟝󰋹",
        -9.953447265212334
      ],
      [
        "▁󰟨󰞻󰋩󰊴",
        -9.95368934696831
      ],
      [
        "▁󰋖󰟈󰟆󰟚󰞻󰋩󰊴",
        -9.954310903978206
      ],
      [
        "▁󰟌󰋳",
        -9.95448989463918
      ],
      [
        "▁󰋐󰟹",
        -9.955402434510459
      ],
      [
        "󰠏󰞽󰋱",
        -9.955433207620999
      ],
      [
        "▁󰟌󰋹",
        -9.955791224700837
      ],
      [
        "▁󰋆󰟲󰠚󰠓",
        -9.956103308605075
      ],
      [
        "󰡳",
        -9.956574050220805
      ],
      [
        "▁󰋩󰠖󰀌",
        -9.957083227240993
      ],
      [
        "▁󰠁󰞾󰟉󰋩",
        -9.957774132625735
      ],
      [
        "▁󰋮󰟃󰤪󰟂",
        -9.958361483004202
      ],
      [
        "󰠞",
        -9.959870444554046
      ],
      [
        "▁󰋆󰟯󰟘󰢈󰀌",
        -9.960987251504346
      ],
      [
        "󰋐󰋱",
        -9.961549844915186
      ],
      [
        "󰡅󰋳",
        -9.961637411566366
      ],
      [
        "▁󰟄󰟞󰠄",
        -9.96168018226749
      ],
      [
        "▁󰟇󰟉",
        -9.961685538123591
      ],
      [
        "▁󰞸󰡝",
        -9.962513103802053
      ],
      [
        "󰣐",
        -9.963007261384968
      ],
      [
        "▁󰠰󰟋󰋯",
        -9.963631689180037
      ],
      [
        "▁󰋭󰞻󰟚󰞻󰋩󰀌",
        -9.965433313099707
      ],
      [
        "󰟄󰋷",
        -9.965478103554641
      ],
      [
        "󰢜",
        -9.965636531912262
      ],
      [
        "▁󰋉󰡋󰞷󰋱",
        -9.965874348039643
      ],
      [
        "▁󰋆󰋭󰟝󰋩",
        -9.9667090390792
      ],
      [
        "▁󰠎󰠁",
        -9.967375005394722
      ],
      [
        "▁󰋐󰋱󰋈",
        -9.96789871603641
      ],
      [
        "▁󰠞",
        -9.968673261879315
      ],
      [
        "󰟞󰞿",
        -9.969775949974153
      ],
      [
        "▁󰣾󰠭󰟊",
        -9.970507287155817
      ],
      [
        "󰠏󰋳",
        -9.970510215749687
      ],
      [
        "▁󰋱󰋺󰢘",
        -9.970602499580192
      ],
      [
        "▁󰟌󰋡󰋖",
        -9.970898474612568
      ],
      [
        "▁󰠨󰥂",
        -9.970940027374471
      ],
      [
        "▁󰠃󰟔󰌏󰟏󰋱",
        -9.971077948001492
      ],
      [
        "▁󰟃󰟄󰟤",
        -9.971507623599296
      ],
      [
        "▁󰋧󰋳󰟒",
        -9.971749578789332
      ],
      [
        "▁󰠚󰫫",
        -9.972255178366918
      ],
      [
        "▁󰋹󰋧󰢘󰞸",
        -9.972361609671466
      ],
      [
        "▁󰞼󰋩",
        -9.972373112187595
      ],
      [
        "▁󰟎󰡙󰋝󰋩󰊴",
        -9.972530792575938
      ],
      [
        "▁󰡐󰋩",
        -9.973224938147661
      ],
      [
        "▁󰋭󰋳󰟋󰋯󰀌",
        -9.973774304896416
      ],
      [
        "󰥚",
        -9.973807446888593
      ],
      [
        "▁󰟞󰟅󰋱",
        -9.974036266297215
      ],
      [
        "󰟌󰋱",
        -9.97427357401507
      ],
      [
        "▁󰠃󰋱",
        -9.975208378421206
      ],
      [
        "▁󰟀󰤑󰟂",
        -9.975342728363515
      ],
      [
        "▁󰋳󰥦",
        -9.975974285581293
      ],
      [
        "▁󰞸󰡫󰋳",
        -9.976942572229563
      ],
      [
        "▁󰋖󰣩󰟄󰋱",
        -9.976963303994127
      ],
      [
        "▁󰋇󰞼󰋱",
        -9.9770569699222
      ],
      [
        "▁󰟃󰢏󰋳󰞾󰋱",
        -9.977306512745017
      ],
      [
        "󰢅",
        -9.97816483584873
      ],
      [
        "▁󰞸󰥶󰋱",
        -9.978206536342743
      ],
      [
        "▁󰋔󰟓󰞷",
        -9.97824717251261
      ],
      [
        "▁󰠷󰞽",
        -9.978684264820972
      ],
      [
        "▁󰠒󰣛",
        -9.978852543841878
      ],
      [
        "▁󰋆󰋥",
        -9.9793211470284
      ],
      [
        "▁󰋊󰌏󰟏󰋺",
        -9.979777138436484
      ],
      [
        "󰢠󰞸",
        -9.980545316741077
      ],
      [
        "▁󰟀󰟏",
        -9.981367432255276
      ],
      [
        "▁󰟶󰟨󰋱",
        -9.9813909552054
      ],
      [
        "▁󰟫󰋷",
        -9.98144897042715
      ],
      [
        "▁󰟋󰠝󰞾",
        -9.981479112236563
      ],
      [
        "▁󰋆󰟏󰟰󰋱󰋤",
        -9.981533896967324
      ],
      [
        "▁󰢭󰟼",
        -9.98198063901042
      ],
      [
        "▁󰋖󰟋",
        -9.982818625310431
      ],
      [
        "▁󰟌󰟇󰋩",
        -9.983132431011578
      ],
      [
        "▁󰋯󰋹󰠆󰋧",
        -9.983464580472532
      ],
      [
        "▁󰟃󰩌",
        -9.9835414572229
      ],
      [
        "▁󰋇󰟜󰟈󰞼󰋩",
        -9.984011539165424
      ],
      [
        "▁󰁔󰁈󰁁󰁔",
        -9.984080197724449
      ],
      [
        "▁󰦍",
        -9.984192824060184
      ],
      [
        "▁󰋹󰡚󰡱",
        -9.98508639789744
      ],
      [
        "▁󰟃󰡋󰟃󰢏󰋳󰞾",
        -9.98553336478738
      ],
      [
        "▁󰋧󰟈󰢭",
        -9.985734245949331
      ],
      [
        "▁󰋛󰋯󰌏󰞼󰋱",
        -9.985782661284997
      ],
      [
        "▁󰠪󰩆",
        -9.986360579901225
      ],
      [
        "▁󰋐󰋖󰟑󰞺",
        -9.986542729998405
      ],
      [
        "▁󰋹󰋱󰋳",
        -9.986701609406754
      ],
      [
        "▁󰋯󰡑󰋱",
        -9.986749530210478
      ],
      [
        "▁󰟕󰞹󰟂",
        -9.987241971571665
      ],
      [
        "󰋇󰋱",
        -9.987260132088313
      ],
      [
        "▁󰀈󰌨󰌰",
        -9.987294093713974
      ],
      [
        "▁󰋖󰡮󰟼",
        -9.987620933328259
      ],
      [
        "▁󰠅󰋳󰞹",
        -9.987869100068727
      ],
      [
        "󰋫󰟊",
        -9.989626119600015
      ],
      [
        "▁󰟄󰌝",
        -9.990083418999754
      ],
      [
        "▁󰡤",
        -9.990233910883177
      ],
      [
        "▁󰟢󰟈",
        -9.99056355284294
      ],
      [
        "▁󰟄󰌠󰀌",
        -9.9906181670349
      ],
      [
        "▁󰟖󰠀󰟉󰋩",
        -9.990834574616247
      ],
      [
        "▁󰞼󰞽󰋳",
        -9.990899728650914
      ],
      [
        "▁󰋐󰠯󰡝",
        -9.990982610902439
      ],
      [
        "󰡀",
        -9.991150030746216
      ],
      [
        "▁󰟗󰡩",
        -9.991304755920241
      ],
      [
        "▁󰋯󰟍󰞸󰋝",
        -9.991349523208395
      ],
      [
        "▁󰋥󰋱󰠲",
        -9.991790267166039
      ],
      [
        "▁󰋭󰞻󰟚󰞻󰋩",
        -9.992664682460116
      ],
      [
        "▁󰟳󰤎󰋖",
        -9.993152395438681
      ],
      [
        "▁󰟃󰣔󰠥",
        -9.993585437301526
      ],
      [
        "▁󰋯󰋧",
        -9.993632632214695
      ],
      [
        "▁󰟏󰋘󰋱",
        -9.99384864344221
      ],
      [
        "▁󰞿󰞻",
        -9.994328656966875
      ],
      [
        "▁󰋖󰟽",
        -9.994391066959729
      ],
      [
        "󰁒",
        -9.995151249605671
      ],
      [
        "󰡩",
        -9.99520411648502
      ],
      [
        "▁󰟎󰟤󰠇󰋤",
        -9.995469871574144
      ],
      [
        "▁󰟝󰡸󰞿󰋖",
        -9.996115758723048
      ],
      [
        "▁󰋝󰞾󰋱",
        -9.996123203288622
      ],
      [
        "▁󰠯󰠋",
        -9.996260380813002
      ],
      [
        "▁󰋐󰋈󰋹󰋭",
        -9.996453153982271
      ],
      [
        "▁󰞼󰞸󰟻󰞷",
        -9.9965980459179
      ],
      [
        "▁󰋯󰠼",
        -9.99667810423005
      ],
      [
        "󰊵",
        -9.996892445662686
      ],
      [
        "▁󰋬󰞸󰟥",
        -9.998318505721628
      ],
      [
        "▁󰟁󰋱󰋫󰞷",
        -9.99843359515048
      ],
      [
        "▁󰋝󰣣󰠪󰋺󰋤",
        -9.999010932428321
      ],
      [
        "▁󰢓󰞻",
        -9.999393845364644
      ],
      [
        "▁󰣘󰟰",
        -9.999460670599763
      ],
      [
        "▁󰟐󰟞󰟅󰋈",
        -9.999915680518246
      ],
      [
        "▁󰟘󰋭",
        -10.000001616338183
      ],
      [
        "▁󰞸󰠀",
        -10.000029154842917
      ],
      [
        "▁󰋫󰌠󰟏",
        -10.0011887640477
      ],
      [
        "▁󰣕󰡩󰋱",
        -10.001573643565042
      ],
      [
        "▁󰞿󰞾󰟉󰋩",
        -10.002085946988394
      ],
      [
        "▁󰋹󰟓󰋫󰟊󰤌",
        -10.00219086536338
      ],
      [
        "▁󰡿󰋱󰋤",
        -10.002305086343291
      ],
      [
        "▁󰟬󰠘󰋱",
        -10.002617547143043
      ],
      [
        "▁󰟌󰞼",
        -10.002820397109916
      ],
      [
        "▁󰋆󰠔󰋥",
        -10.00296089177012
      ],
      [
        "▁󰫢󰋹",
        -10.003298660508513
      ],
      [
        "󰀇󰁓",
        -10.003718711086908
      ],
      [
        "▁󰋫󰢷󰞼",
        -10.004729701917569
      ],
      [
        "▁󰟒󰟲",
        -10.006285440381776
      ],
      [
        "▁󰋈󰟆",
        -10.006697759808478
      ],
      [
        "▁󰋙󰋠󰞹󰟒",
        -10.00720664285093
      ],
      [
        "▁󰋱󰋖󰟜󰋱",
        -10.00779543033488
      ],
      [
        "▁󰋇󰟡󰋛󰞹󰌠",
        -10.008106283907892
      ],
      [
        "▁󰟞󰞿󰋖󰟙",
        -10.008200113451625
      ],
      [
        "▁󰀂󰋆",
        -10.008231187117707
      ],
      [
        "󰟬󰥭",
        -10.008339276550986
      ],
      [
        "▁󰋈󰟊󰋯󰠙󰋈",
        -10.00836249936295
      ],
      [
        "󰋥󰥳",
        -10.008728586144944
      ],
      [
        "▁󰟱󰤴",
        -10.009182744820084
      ],
      [
        "▁󰟄󰠖󰋱",
        -10.010072521407643
      ],
      [
        "▁󰋖󰟗󰋷󰟅󰋱",
        -10.010090635683554
      ],
      [
        "▁󰠪󰋺󰠐󰋱",
        -10.010412457283117
      ],
      [
        "▁󰟀󰋈󰞷󰋱",
        -10.010686551732714
      ],
      [
        "▁󰋇󰞼󰞷",
        -10.011567281616408
      ],
      [
        "▁󰋐󰋩",
        -10.011630230999856
      ],
      [
        "▁󰋮󰟃󰤪󰌏",
        -10.011825700853523
      ],
      [
        "▁󰋈󰡘󰟑󰊴",
        -10.012151983550337
      ],
      [
        "▁󰟬󰧹",
        -10.012305675792703
      ],
      [
        "▁󰟐󰋝󰟭",
        -10.01244750817953
      ],
      [
        "▁󰋇󰋘󰋯󰋩",
        -10.012492689055298
      ],
      [
        "▁󰟌󰋱󰟚",
        -10.012786237841361
      ],
      [
        "▁󰋇󰞹󰋱",
        -10.012795369583667
      ],
      [
        "▁󰋆󰋹󰟍󰌠",
        -10.013087973084064
      ],
      [
        "▁󰋯󰟍󰋩󰋘󰋱",
        -10.01311168752012
      ],
      [
        "▁󰟨󰞻󰋔",
        -10.013253754539015
      ],
      [
        "󰫧",
        -10.01339996790159
      ],
      [
        "▁󰟃󰋥󰢴",
        -10.01373020790918
      ],
      [
        "▁󰋆󰣺󰋱",
        -10.013759064927955
      ],
      [
        "󰟉󰋩󰊴",
        -10.013846547149953
      ],
      [
        "▁󰧝󰋩",
        -10.01500935463736
      ],
      [
        "▁󰋥󰣯󰡫󰠋",
        -10.015051012777079
      ],
      [
        "▁󰠊󰞺󰋱",
        -10.015979032092083
      ],
      [
        "▁󰠴󰋠",
        -10.016159527966742
      ],
      [
        "▁󰥧󰋱",
        -10.016940990998588
      ],
      [
        "▁󰟇󰋧",
        -10.016994128377007
      ],
      [
        "󰟆󰋩",
        -10.01719481399163
      ],
      [
        "▁󰋥󰟛󰠍",
        -10.017567287487587
      ],
      [
        "▁󰀑󰀙",
        -10.019295113420924
      ],
      [
        "▁󰠖󰠅",
        -10.020146778776299
      ],
      [
        "▁󰟄󰟇󰋩",
        -10.020646432202586
      ],
      [
        "󰌮",
        -10.022110320646515
      ],
      [
        "▁󰋊󰌏󰋫󰢔",
        -10.022162877726412
      ],
      [
        "▁󰋭󰋳󰟇",
        -10.022409953475195
      ],
      [
        "▁󰋹󰋭󰟔󰠜",
        -10.02241343691859
      ],
      [
        "▁󰤲󰡜",
        -10.022461144925728
      ],
      [
        "▁󰠛󰟙",
        -10.022504503812314
      ],
      [
        "▁󰋇󰋯󰟝󰞿",
        -10.022885724838027
      ],
      [
        "▁󰋫󰋱󰋈",
        -10.022944866865906
      ],
      [
        "▁󰋇󰋩󰣞",
        -10.0229955940155
      ],
      [
        "▁󰋐󰟀󰞷󰋱",
        -10.023150885366626
      ],
      [
        "▁󰠱󰡄",
        -10.02391131857141
      ],
      [
        "▁󰟊󰞿󰋈",
        -10.024376246597974
      ],
      [
        "󰋘󰢵",
        -10.024784862899027
      ],
      [
        "▁󰋇󰟥",
        -10.024979482008156
      ],
      [
        "󰡌󰋩",
        -10.025014165648923
      ],
      [
        "▁󰟥󰟈󰋝",
        -10.025623030129731
      ],
      [
        "▁󰟋󰠝󰞻󰋩󰊴",
        -10.026280713700977
      ],
      [
        "▁󰋹󰤙",
        -10.026387436436774
      ],
      [
        "▁󰋆󰋭󰠢",
        -10.026550232116605
      ],
      [
        "󰟑󰞺",
        -10.026904327021981
      ],
      [
        "󰌪",
        -10.02691009004486
      ],
      [
        "▁󰟌󰞷󰞿󰊴",
        -10.027486623516602
      ],
      [
        "▁󰠃󰞿",
        -10.027715993219697
      ],
      [
        "▁󰢾󰋷󰠪󰋺󰋤",
        -10.028081116289012
      ],
      [
        "󰟩",
        -10.02833615299773
      ],
      [
        "▁󰋐󰞺󰟀󰞷󰋈",
        -10.029188332123372
      ],
      [
        "󰟀󰟄󰋱",
        -10.029202710452834
      ],
      [
        "▁󰋙󰠂󰟉",
        -10.029811169503603
      ],
      [
        "▁󰟑󰥛",
        -10.030239297378174
      ],
      [
        "▁󰌯󰌧",
        -10.030279302745766
      ],
      [
        "▁󰟌󰠋",
        -10.030372274340722
      ],
      [
        "▁󰢃󰋤󰠺󰞻󰋱",
        -10.030731000784904
      ],
      [
        "󰋭󰌏",
        -10.031509585730573
      ],
      [
        "▁󰟍󰋔󰟆",
        -10.03159279448943
      ],
      [
        "󰢲",
        -10.032399723290364
      ],
      [
        "▁󰌩󰌧󰌨󰌮",
        -10.033109865938648
      ],
      [
        "▁󰋆󰟯󰡥󰟊",
        -10.033290229818089
      ],
      [
        "▁󰞽󰋺󰟬󰋧",
        -10.033368590612465
      ],
      [
        "▁󰌨󰀎",
        -10.033897332068648
      ],
      [
        "▁󰌪󰌩",
        -10.034119801701326
      ],
      [
        "▁󰌩󰌧󰌨󰌫",
        -10.034571194879149
      ],
      [
        "▁󰌫󰌬",
        -10.035201060575226
      ],
      [
        "▁󰟌󰟈󰟀󰟈󰋖",
        -10.035840622973769
      ],
      [
        "▁󰋧󰋳󰊴",
        -10.03688711899651
      ],
      [
        "▁󰬘",
        -10.036918447645407
      ],
      [
        "▁󰋖󰟈󰞻󰋩󰀌",
        -10.037350913949902
      ],
      [
        "▁󰋖󰟪󰞻󰋩󰀌",
        -10.037428285227227
      ],
      [
        "󰟙󰌠",
        -10.037908803154242
      ],
      [
        "▁󰢕󰞷",
        -10.038005904647672
      ],
      [
        "▁󰟮󰞸󰋥󰋩",
        -10.038592854329833
      ],
      [
        "▁󰋇󰋈󰟅",
        -10.039605223911241
      ],
      [
        "▁󰋯󰢌󰠶󰋳󰌠",
        -10.039629167150926
      ],
      [
        "▁󰟌󰋱󰟉",
        -10.039664377522184
      ],
      [
        "▁󰋐󰋥󰟑󰋩",
        -10.039860063237686
      ],
      [
        "󰟓󰋱",
        -10.040387257130323
      ],
      [
        "▁󰞹󰀁",
        -10.040477772382058
      ],
      [
        "󰀇󰀍󰋐󰋱",
        -10.040491361979125
      ],
      [
        "▁󰡫󰋛󰞹",
        -10.040526314636631
      ],
      [
        "▁󰠃󰡂",
        -10.040829073770688
      ],
      [
        "▁󰠍󰟚󰞾",
        -10.041475664189798
      ],
      [
        "▁󰋱󰋚",
        -10.042117909175357
      ],
      [
        "▁󰋫󰌝󰞻",
        -10.04228633289356
      ],
      [
        "▁󰞼󰧸",
        -10.042386437493006
      ],
      [
        "▁󰋇󰟡󰋛󰞹󰋱",
        -10.042416036049008
      ],
      [
        "▁󰧽󰞸",
        -10.042771089047253
      ],
      [
        "▁󰋫󰟁󰞼",
        -10.04286985787071
      ],
      [
        "▁󰠝󰞾󰟚󰋳󰊴",
        -10.043277151715275
      ],
      [
        "󰟀󰞷󰋱",
        -10.043417887609563
      ],
      [
        "▁󰟄󰟇󰊴",
        -10.043758623720755
      ],
      [
        "▁󰣷󰋷󰋩",
        -10.04393446667315
      ],
      [
        "▁󰞸󰟤󰟆",
        -10.044370292834358
      ],
      [
        "󰠜",
        -10.044746456158647
      ],
      [
        "▁󰋺󰋥󰊴",
        -10.045518652006573
      ],
      [
        "▁󰟄󰠖",
        -10.046056343229434
      ],
      [
        "▁󰠽󰠮",
        -10.046184714291389
      ],
      [
        "▁󰟛󰟔󰞻",
        -10.046205568182252
      ],
      [
        "󰡋",
        -10.04700176361046
      ],
      [
        "▁󰠃󰌏󰞼󰋱",
        -10.04720789688594
      ],
      [
        "▁󰀝",
        -10.04729071676169
      ],
      [
        "▁󰋗󰋭󰋱󰀌",
        -10.04811956919066
      ],
      [
        "▁󰟌󰟈󰊴",
        -10.048426757820742
      ],
      [
        "▁󰟎󰞽󰢙󰋥",
        -10.049189367325614
      ],
      [
        "▁󰟁󰋱󰋈",
        -10.049703115210896
      ],
      [
        "▁󰟌󰞿󰋱",
        -10.049861008276661
      ],
      [
        "▁󰢗󰡩󰟂",
        -10.049881277754544
      ],
      [
        "▁󰋭󰀇󰞻",
        -10.05002066868963
      ],
      [
        "▁󰠷󰦧󰋱",
        -10.050082883719705
      ],
      [
        "▁󰟝󰢈",
        -10.050097045286464
      ],
      [
        "󰠱",
        -10.050173557474436
      ],
      [
        "▁󰠳󰟋󰟄󰟤",
        -10.05037430852358
      ],
      [
        "󰞿󰋖",
        -10.050553631380325
      ],
      [
        "▁󰟻󰠉󰋱",
        -10.050606431776806
      ],
      [
        "▁󰞹󰟪",
        -10.05069872873457
      ],
      [
        "▁󰣃󰞹",
        -10.05086161807312
      ],
      [
        "▁󰋔󰟥",
        -10.05109221746416
      ],
      [
        "▁󰦋󰋧",
        -10.051654342041681
      ],
      [
        "▁󰡌󰟅󰋱",
        -10.05173197267435
      ],
      [
        "▁󰠦󰟃󰋥",
        -10.052145171048574
      ],
      [
        "▁󰟍󰋳󰞼",
        -10.052164590459487
      ],
      [
        "󰟋󰋳",
        -10.052323420038327
      ],
      [
        "▁󰡦󰋖󰟶",
        -10.052374047078908
      ],
      [
        "▁󰌩󰌧󰌨󰌭",
        -10.052598426252235
      ],
      [
        "▁󰋉󰟄",
        -10.052959392954051
      ],
      [
        "▁󰟿󰟫󰟂",
        -10.053161994744926
      ],
      [
        "▁󰡇󰠟",
        -10.053613287399646
      ],
      [
        "▁󰋷󰥉󰋷󰊴",
        -10.054198809814434
      ],
      [
        "▁󰋭󰠂󰀌",
        -10.056051787309293
      ],
      [
        "▁󰟗󰟖󰋥",
        -10.056111162982317
      ],
      [
        "▁󰞿󰡷󰋛󰟾",
        -10.05713493956316
      ],
      [
        "▁󰋇󰡢󰨛",
        -10.057258406951725
      ],
      [
        "▁󰣾󰌠",
        -10.057715879370487
      ],
      [
        "▁󰞽󰟁",
        -10.057741444634129
      ],
      [
        "▁󰢑󰋭󰋤",
        -10.057881197510675
      ],
      [
        "▁󰞼󰟄󰋱",
        -10.058180644715351
      ],
      [
        "▁󰟎󰞼󰦩",
        -10.059024737971464
      ],
      [
        "󰥄",
        -10.059082192291783
      ],
      [
        "▁󰠧󰟈󰟆",
        -10.059662755002645
      ],
      [
        "▁󰥠󰞻󰢵",
        -10.059664141371057
      ],
      [
        "▁󰠀󰟡󰟆󰌝",
        -10.060910115986367
      ],
      [
        "▁󰟎󰟊󰧗󰟊",
        -10.061150299293747
      ],
      [
        "▁󰞿󰠾󰟰󰡌",
        -10.061257402914254
      ],
      [
        "▁󰋱󰋺󰞽󰋩󰀌",
        -10.061519652852434
      ],
      [
        "▁󰋈󰟍󰟄󰋱",
        -10.061639221491703
      ],
      [
        "▁󰋛󰋳",
        -10.061653679661976
      ],
      [
        "▁󰡿󰋹",
        -10.061685551078916
      ],
      [
        "▁󰢂󰤂󰋭",
        -10.0619091394721
      ],
      [
        "▁󰟞󰋔󰟆󰋱",
        -10.062700116261354
      ],
      [
        "▁󰋮󰋭󰋩",
        -10.062804443569538
      ],
      [
        "▁󰋙",
        -10.06285956485847
      ],
      [
        "󰋝󰞿󰋥",
        -10.06404659515779
      ],
      [
        "▁󰋛󰟈󰡝",
        -10.06414937029233
      ],
      [
        "▁󰟋󰡇󰋱",
        -10.064295023400367
      ],
      [
        "▁󰟀󰟪󰞷",
        -10.064691979702248
      ],
      [
        "▁󰋖󰋱󰀌",
        -10.064816762923257
      ],
      [
        "󰟀󰡍",
        -10.064889371081717
      ],
      [
        "▁󰤕󰋛󰟒",
        -10.065007207245712
      ],
      [
        "▁󰣀",
        -10.06507218313708
      ],
      [
        "▁󰋆󰡱",
        -10.06534368670971
      ],
      [
        "▁󰟗󰟚󰋳",
        -10.06547430694064
      ],
      [
        "▁󰋊󰋫󰡯󰟊",
        -10.06571396743564
      ],
      [
        "▁󰋮󰋱",
        -10.066291384022477
      ],
      [
        "▁󰟐󰋈󰠹󰋫",
        -10.066474210647765
      ],
      [
        "▁󰋬󰋱",
        -10.066797286563435
      ],
      [
        "▁󰟃󰞿󰡙󰋘",
        -10.066878328798317
      ],
      [
        "󰌫",
        -10.06739985065788
      ],
      [
        "▁󰋇󰟐󰋩󰊴",
        -10.067581616792307
      ],
      [
        "▁󰠁󰞾󰟉󰊴",
        -10.067626379702808
      ],
      [
        "󰠱󰠹󰋫",
        -10.068539971521057
      ],
      [
        "▁󰋹󰥂",
        -10.068617706531803
      ],
      [
        "▁󰋊󰦎󰋱󰋤",
        -10.06873551824649
      ],
      [
        "▁󰟃󰋫󰟴󰋥",
        -10.069181640847056
      ],
      [
        "▁󰠇󰟊󰠪󰠩",
        -10.070365721536373
      ],
      [
        "▁󰪿󰟘",
        -10.070411683636404
      ],
      [
        "▁󰔞",
        -10.07057066159632
      ],
      [
        "▁󰋹󰋱󰞼󰋱󰞺",
        -10.070619597829593
      ],
      [
        "▁󰋆󰥞󰋹",
        -10.070971549484007
      ],
      [
        "▁󰋇󰡙󰠆󰋥",
        -10.071622282932559
      ],
      [
        "▁󰋖󰨗",
        -10.071754530769544
      ],
      [
        "▁󰁆󰁒󰁏󰁍",
        -10.071986749323742
      ],
      [
        "▁󰞽󰟋",
        -10.073165383152794
      ],
      [
        "▁󰋺󰋈󰋥",
        -10.074223591333446
      ],
      [
        "▁󰟳󰟏󰞷",
        -10.075084703375321
      ],
      [
        "▁󰩿",
        -10.075106566344047
      ],
      [
        "▁󰋺󰋈󰟂󰋈",
        -10.076229252155983
      ],
      [
        "▁󰡃󰢺󰋱",
        -10.076331991507889
      ],
      [
        "󰠼",
        -10.076340923047482
      ],
      [
        "▁󰟣󰟜",
        -10.076380923298501
      ],
      [
        "▁󰟃󰋮󰠓",
        -10.076563083170129
      ],
      [
        "▁󰌩󰌧󰌩󰌨",
        -10.07710888602843
      ],
      [
        "▁󰡉",
        -10.07736929407471
      ],
      [
        "▁󰔛",
        -10.07749342463096
      ],
      [
        "▁󰋐󰞺󰋱",
        -10.077625514689895
      ],
      [
        "▁󰠲󰋳󰟂",
        -10.078355443767785
      ],
      [
        "▁󰋫󰟣󰋱",
        -10.078767733892974
      ],
      [
        "▁󰟵󰡽",
        -10.079446011693056
      ],
      [
        "▁󰟃󰣊󰞽󰋩",
        -10.079716890360228
      ],
      [
        "▁󰟃󰨧󰋸󰋤",
        -10.08038813813293
      ],
      [
        "▁󰠎󰟍󰞸",
        -10.08077968436545
      ],
      [
        "▁󰋭󰡡",
        -10.080819659044405
      ],
      [
        "▁󰟎󰟀󰡍",
        -10.0809684537355
      ],
      [
        "▁󰟦󰞷",
        -10.081921246719233
      ],
      [
        "▁󰋷󰡮",
        -10.082350197066454
      ],
      [
        "▁󰟥󰡏",
        -10.082940153279095
      ],
      [
        "󰨩",
        -10.083487605451197
      ],
      [
        "▁󰋝󰟗󰋱",
        -10.083793026866196
      ],
      [
        "▁󰋐󰟞󰋩󰞼󰋱",
        -10.084128022038069
      ],
      [
        "▁󰞼󰟒󰞾",
        -10.084396750825071
      ],
      [
        "▁󰣀󰋱",
        -10.085018092248735
      ],
      [
        "▁󰋕󰋸󰋨",
        -10.085569487467314
      ],
      [
        "▁󰋖󰋱󰟉󰀌",
        -10.086038848736205
      ],
      [
        "▁󰟍󰠵󰋹",
        -10.086134598139722
      ],
      [
        "▁󰡳󰟐󰋩󰀌",
        -10.086325395596207
      ],
      [
        "▁󰟗󰠣󰟆󰌠",
        -10.08633915729213
      ],
      [
        "▁󰟎󰋭󰡱",
        -10.086635837192736
      ],
      [
        "▁󰋭󰦺󰋥",
        -10.086673146439619
      ],
      [
        "▁󰟦󰋳",
        -10.086776988611994
      ],
      [
        "▁󰢉",
        -10.087357455619395
      ],
      [
        "▁󰟎󰟱󰋹󰋖",
        -10.087433529131847
      ],
      [
        "▁󰞿󰣱",
        -10.087830555033872
      ],
      [
        "󰁔󰁈",
        -10.087939999031958
      ],
      [
        "󰡔󰋱",
        -10.088114278942973
      ],
      [
        "▁󰟼󰋭󰠈󰋫󰞹",
        -10.089838932170771
      ],
      [
        "▁󰟬󰠆󰠊󰋱",
        -10.09037132875726
      ],
      [
        "▁󰟑󰞾󰋈",
        -10.091742266287199
      ],
      [
        "󰌭",
        -10.092781990176489
      ],
      [
        "▁󰀣",
        -10.094044289398202
      ],
      [
        "▁󰟀󰠩󰟀󰌠󰋩",
        -10.094106217962967
      ],
      [
        "▁󰢤󰟈󰋱",
        -10.094205622488285
      ],
      [
        "▁󰋖󰟛󰋔",
        -10.095029099245988
      ],
      [
        "󰟋󰋮",
        -10.095043484385148
      ],
      [
        "▁󰟝󰌠",
        -10.09523815059161
      ],
      [
        "▁󰟹󰟋󰋱",
        -10.096276871727254
      ],
      [
        "▁󰟘󰠤󰀌",
        -10.096596642582432
      ],
      [
        "▁󰋯󰋥󰋩",
        -10.096949798653082
      ],
      [
        "▁󰋇󰋯󰞻",
        -10.097230482219251
      ],
      [
        "▁󰋭󰞾",
        -10.09736045786494
      ],
      [
        "▁󰋙󰋠󰞹󰢓󰞻",
        -10.097857050860402
      ],
      [
        "▁󰋔󰋝󰋩",
        -10.098502734377984
      ],
      [
        "▁󰋈󰋊󰠍",
        -10.098713559812488
      ],
      [
        "▁󰟝󰟃󰟂",
        -10.100036580944504
      ],
      [
        "▁󰟢󰋈󰟂",
        -10.10014213126981
      ],
      [
        "󰟕󰋱",
        -10.100147539524013
      ],
      [
        "▁󰋫󰋱󰋔",
        -10.100170497697471
      ],
      [
        "▁󰦣󰋱",
        -10.10032673528214
      ],
      [
        "▁󰋱󰞾󰟉󰋩󰊴",
        -10.100729561572514
      ],
      [
        "▁󰟛󰋖󰟉",
        -10.1009946397653
      ],
      [
        "▁󰢲󰞼󰟅",
        -10.101049322608063
      ],
      [
        "▁󰋱󰠬󰡶󰞹󰟣󰋱",
        -10.101067756159601
      ],
      [
        "▁󰩰󰋺",
        -10.101301114538114
      ],
      [
        "▁󰟼󰠓",
        -10.10165196774786
      ],
      [
        "▁󰤏󰡾",
        -10.10173566383451
      ],
      [
        "▁󰋐󰟡",
        -10.102071753218855
      ],
      [
        "▁󰢆󰠂",
        -10.102088846672839
      ],
      [
        "▁󰟀󰤸󰠡",
        -10.102150463946796
      ],
      [
        "󰁌",
        -10.102758062621595
      ],
      [
        "▁󰟶󰋝",
        -10.102796711164276
      ],
      [
        "▁󰡃󰡩󰋱",
        -10.102919523504955
      ],
      [
        "▁󰋖󰟈󰟂󰋩",
        -10.103047069655517
      ],
      [
        "▁󰞼󰥘",
        -10.103480510217143
      ],
      [
        "▁󰡛󰟔󰞾",
        -10.103867891593016
      ],
      [
        "󰣡",
        -10.10471358792925
      ],
      [
        "󰤄",
        -10.10480340079518
      ],
      [
        "▁󰟜󰋙",
        -10.10486344467484
      ],
      [
        "▁󰢲󰟆",
        -10.104974515209442
      ],
      [
        "▁󰞼󰞻󰋱",
        -10.104992469549126
      ],
      [
        "▁󰋆󰟯󰋹󰥻󰋩",
        -10.105397894991043
      ],
      [
        "󰡹",
        -10.105455834514583
      ],
      [
        "▁󰢩󰟽",
        -10.105713147360287
      ],
      [
        "▁󰋫󰟈󰋭󰡮󰟅󰋱",
        -10.10620806539235
      ],
      [
        "▁󰋺󰟇󰀟",
        -10.106757675919688
      ],
      [
        "▁󰠲󰞸󰋱",
        -10.107085588860166
      ],
      [
        "▁󰋇󰋊󰋠",
        -10.10717266809494
      ],
      [
        "▁󰋘󰢹",
        -10.10757418803545
      ],
      [
        "▁󰋨󰞷󰋈",
        -10.10791714956233
      ],
      [
        "󰠄󰋱",
        -10.10812995045654
      ],
      [
        "▁󰋫󰟈󰡯󰟊󰋱",
        -10.108597171436205
      ],
      [
        "󰡼",
        -10.108898565850154
      ],
      [
        "▁󰟧󰟛",
        -10.108912377503364
      ],
      [
        "▁󰠀󰟆󰋳",
        -10.108921047189327
      ],
      [
        "▁󰋧󰋳󰞺",
        -10.109015874130654
      ],
      [
        "󰋩󰋘󰋱",
        -10.109058550856112
      ],
      [
        "▁󰠱󰟓󰋭",
        -10.109239391544161
      ],
      [
        "󰁁",
        -10.109319046322302
      ],
      [
        "▁󰟼󰠘󰞺",
        -10.110639360220189
      ],
      [
        "▁󰟄󰠀󰋩",
        -10.110675601170403
      ],
      [
        "▁󰟀󰌝󰟂",
        -10.110747273586998
      ],
      [
        "▁󰋇󰟌󰋥󰋥",
        -10.111481092846645
      ],
      [
        "▁󰋖󰟃󰟁󰋱",
        -10.111728251821397
      ],
      [
        "▁󰋮󰋘󰟀󰟅󰋱",
        -10.111944129888037
      ],
      [
        "▁󰋆󰟷󰋱",
        -10.112078813242572
      ],
      [
        "▁󰡳󰠂󰋳",
        -10.112551694068749
      ],
      [
        "▁󰟓󰟡󰟀󰟏",
        -10.112718916858082
      ],
      [
        "▁󰟅󰟁󰞸",
        -10.113155336845384
      ],
      [
        "▁󰋧󰋯󰋩",
        -10.113774185686115
      ],
      [
        "▁󰋖󰦪󰋊󰟙󰋱",
        -10.113845462214666
      ],
      [
        "▁󰋯󰟁󰋯󰋥",
        -10.113886466941691
      ],
      [
        "▁󰋇󰟀󰋱󰋔",
        -10.11425858082587
      ],
      [
        "▁󰟤󰢎󰋥",
        -10.114457744352213
      ],
      [
        "▁󰋊󰋫󰞼󰋱",
        -10.11453688510074
      ],
      [
        "▁󰟟󰠹󰋫",
        -10.114775568431089
      ],
      [
        "▁󰟏󰋯󰟅󰋱",
        -10.115064883513007
      ],
      [
        "▁󰡇󰋧",
        -10.115301048627138
      ],
      [
        "▁󰋐󰠇󰠐",
        -10.11604857053496
      ],
      [
        "▁󰢟󰋱󰡓",
        -10.116731051368546
      ],
      [
        "▁󰋛󰋳󰞽󰋩",
        -10.11684883466537
      ],
      [
        "▁󰋨󰟾",
        -10.117803677769459
      ],
      [
        "▁󰋫󰋱󰟑󰋩",
        -10.118077938917889
      ],
      [
        "▁󰡭󰟸",
        -10.11827696061966
      ],
      [
        "▁󰟎󰟱󰋹󰞿󰋖",
        -10.118635615818055
      ],
      [
        "▁󰋺󰀇󰞻",
        -10.11879877454744
      ],
      [
        "▁󰋆󰟓󰟇",
        -10.119052359052102
      ],
      [
        "▁󰞸󰋝󰟾󰟊󰋱",
        -10.119249319091525
      ],
      [
        "▁󰟎󰞼󰟠󰋱",
        -10.119575650539366
[...]
